. 84786915
, 66242698
' 61107707
▁the 44381566
▁de 43532488
▁of 26167651
▁la 22928317
▁to 21456863
▁and 20117058
▁et 18967251
▁a 18467146
▁l 17550546
▁des 17235560
▁les 15793533
▁à 15526561
▁le 14887135
▁in 14247047
▁d 13164185
- 12517274
▁du 9716022
▁en 9466870
▁que 8886565
▁I 8358168
▁that 8327393
▁for 7575102
▁is 7264577
s 7082596
? 6825172
▁on 6809481
▁pour 6808574
▁un 6472754
▁you 6438609
▁dans 6365431
▁The 5763109
▁une 5380160
▁pas 5335335
▁be 5206927
▁est 5168897
▁au 5081853
▁sur 4919804
▁qui 4905135
▁with 4661859
▁it 4304939
▁par 4222555
est 4130724
▁as 4092635
▁? 3934736
▁are 3897858
▁( 3852148
▁by 3704106
▁ne 3601349
▁qu 3523821
▁was 3520887
▁ce 3369005
▁this 3341867
▁Je 3233687
▁have 3174856
t 3147442
▁aux 3118236
▁Le 3103369
▁not 3076613
▁n 3053874
▁plus 3028439
) 2671961
▁me 2663807
▁sont 2630948
▁or 2625737
▁at 2601347
▁from 2552265
▁s 2529968
▁ou 2503683
▁an 2501327
▁vous 2455153
▁Il 2449148
! 2406399
▁Les 2355126
▁will 2352564
▁avec 2350251
▁C 2280285
▁La 2252012
▁ont 2251538
▁été 2194900
un 2109007
▁Canada 2084809
▁je 2079307
il 2036951
▁se 2036443
▁we 2006099
▁L 1992188
▁has 1984773
▁il 1961181
▁You 1944862
▁all 1943418
▁It 1877922
▁which 1874835
▁nous 1776287
▁can 1764028
a 1762638
▁être 1743446
m 1674161
▁In 1672446
▁its 1669114
une 1641547
▁their 1633001
▁been 1628243
ai 1594040
▁! 1559148
▁were 1555736
▁your 1551044
▁fait 1535859
▁A 1479531
▁son 1476941
▁cette 1462881
re 1445798
▁ces 1424413
▁J 1406707
▁also 1380619
▁do 1356184
/ 1355802
▁On 1354552
▁would 1341911
▁my 1316951
▁comme 1303279
▁c 1293400
▁had 1289536
▁Tu 1286597
▁tu 1284943
... 1284904
▁but 1272928
▁leur 1271914
▁he 1270025
▁We 1262772
▁pays 1257597
▁out 1244353
▁they 1241937
▁faire 1239613
▁one 1237572
▁should 1230014
▁En 1225691
▁y 1211859
▁non 1211168
▁other 1198095
▁Commission 1195174
▁about 1187153
▁" 1186703
en 1184811
▁This 1179443
▁there 1161267
▁tout 1154683
▁si 1149761
▁more 1149154
▁know 1145943
▁ça 1136981
▁M 1130454
▁peut 1124427
▁what 1117586
▁services 1105575
▁mais 1104447
▁bien 1103680
y 1101521
on 1100703
▁- 1090627
; 1085944
▁up 1054162
▁sa 1045561
▁no 1045230
ing 1007278
▁ses 982648
▁What 979862
▁like 961362
▁m 956062
er 952097
▁time 950841
▁Vous 935732
▁international 933816
▁his 926499
▁so 923171
▁our 914919
▁these 913204
▁entre 911201
▁Nations 903374
▁j 900127
▁information 898377
▁tous 897001
▁who 894944
▁if 893954
▁don 884057
▁aussi 874882
▁just 870872
▁right 868811
▁D 861714
▁He 860631
▁deux 852259
▁work 845747
es 844771
▁such 837708
▁S 834129
▁here 828303
▁her 825267
), 822991
▁new 820813
ed 818086
▁même 810756
: 808237
▁suis 807157
▁Et 800808
▁any 799147
▁And 792735
▁into 789135
é 781297
▁may 780435
▁développement 776613
▁some 774756
▁également 772330
ll 770282
▁leurs 766763
▁Nous 758121
▁them 756827
o 752739
▁him 749456
▁public 746805
▁get 744438
▁national 744277
▁travail 744235
▁part 744224
▁than 743778
▁must 743144
▁under 742988
▁only 742764
e 733103
▁programme 732315
▁need 729470
▁t 729229
▁No 725992
d 725546
▁était 719618
▁could 716491
▁États 712765
▁United 709613
▁question 709385
▁place 708253
▁ainsi 707778
ant 705998
▁rapport 705602
▁doit 705579
▁lui 705130
▁when 697165
▁States 696884
▁mon 695608
▁important 694387
▁T 693901
▁Conseil 693247
▁Committee 692873
▁made 692699
▁elle 690457
▁over 688618
▁B 683394
in 682356
▁That 679517
▁people 671854
▁countries 664629
▁development 664018
▁droits 662734
▁well 662516
▁Ce 661917
ve 660724
▁cas 659991
ée 656196
▁Elle 655118
▁now 654084
▁two 651100
as 648459
autres 647685
▁te 647542
▁between 646915
▁those 646413
" 643233
▁votre 640239
ent 637340
▁P 632687
▁go 632226
elle 631106
▁membres 627557
▁take 626797
▁Council 625634
és 624946
▁où 624909
▁: 615387
▁Dans 612264
▁Un 607556
▁Mr 606860
▁support 601422
▁1 601048
▁through 600715
▁want 599847
être 596769
▁make 593569
▁sécurité 592791
▁dont 592259
▁us 590966
▁she 587113
▁years 586047
▁report 586013
▁situation 583857
▁protection 581227
▁contre 580281
al 580084
i 579195
▁va 577451
▁sans 577012
▁Si 574985
▁first 574209
▁think 571696
▁point 571009
▁sous 570149
▁European 569868
▁soit 567190
▁plan 565065
▁use 564453
▁service 562582
▁autres 561380
▁moi 561004
▁possible 559099
▁Oh 558558
▁très 558354
▁where 555411
▁« 554914
▁dit 554465
▁Comité 553984
ils 552714
ce 552552
▁questions 551669
▁did 550786
▁Mais 550460
▁droit 549935
S 547945
▁projet 545203
▁R 543229
▁But 542415
A 542076
▁cours 541920
▁temps 541440
▁programmes 540671
▁partie 536608
ées 533437
ons 533262
▁got 530903
an 528609
▁santé 528023
▁long 525338
▁see 524996
▁Convention 523393
▁N 522064
▁notre 517311
ait 516425
▁There 516296
▁how 516087
▁Pour 515749
▁personnes 514507
▁very 514153
▁F 513883
▁mesures 510373
▁If 510063
▁way 509301
▁avait 509259
▁number 506001
▁They 504669
▁Canadian 503830
C 502922
▁efforts 500907
▁À 499319
▁back 495999
▁G 495089
▁afin 495006
▁nombre 492537
▁De 490671
▁activités 490017
▁rights 487746
▁being 487744
▁cadre 486785
▁good 485290
▁As 483222
▁sais 482433
▁gouvernement 479749
▁system 478501
▁ans 478358
▁compte 477658
▁là 475043
▁sera 472972
à 469575
▁avoir 469415
▁year 467272
▁encore 466245
▁Une 464873
▁social 464284
or 463998
▁mise 463926
z 463419
▁parties 462826
▁health 462104
▁ma 461009
▁most 459084
ont 456608
▁système 456036
▁moins 455526
▁conditions 454818
▁peuvent 453046
▁2 451928
▁fois 451135
us 450815
▁femmes 450690
▁– 450091
▁toutes 449526
▁session 448492
▁10 448282
▁So 447422
ers 446080
▁politique 444278
▁provide 443918
le 443080
▁avant 441581
▁process 441120
▁demande 440341
▁vie 440069
▁veux 438756
▁H 438258
▁used 437861
▁shall 435671
▁enfants 433335
▁per 433216
▁going 433192
▁both 433064
▁including 432384
▁ici 432241
vous 430528
▁données 430267
▁within 429406
▁doivent 429345
▁country 428237
▁women 428049
▁Well 427236
était 427094
▁dire 426814
▁matière 425977
▁cet 425269
▁Government 424465
▁many 423900
▁K 422406
c 421707
▁before 421481
▁She 421440
▁3 421079
▁E 420591
▁order 420451
▁Ils 420100
▁Non 419343
ie 417950
▁human 417725
is 417510
b 414902
▁because 413322
▁activities 412443
▁monde 412336
▁population 410219
▁said 409820
▁For 409054
▁gestion 407600
D 403853
▁général 403528
▁respect 400827
▁ils 400680
▁p 400134
▁jour 399001
▁processus 398958
▁after 398819
▁toute 398591
▁document 396701
▁same 396568
▁niveau 396559
▁Cette 396210
ation 395252
h 394150
▁% 390464
▁5 390056
l 389638
▁après 389630
B 389459
▁then 388290
▁against 387691
▁Ça 387573
▁gonna 387304
▁faut 386297
▁autre 384474
▁Qu 384028
▁children 383627
▁Des 381817
ic 381752
▁base 380333
▁help 379998
▁each 379951
▁ressources 377926
▁peu 377153
▁policy 375002
ate 375000
▁besoin 374389
▁during 373074
information 371464
▁recherche 371274
▁donc 370407
▁State 368900
▁come 368756
▁Par 367525
▁All 367242
▁politiques 366079
▁car 365314
▁toi 365231
▁toujours 365063
ine 364031
▁am 364004
▁case 363982
E 363164
▁vue 361884
▁down 361320
p 360719
▁nos 360246
▁Au 360002
▁provided 359785
▁peux 359726
ar 359588
▁world 359425
▁law 359341
▁Ces 359143
▁even 358925
▁three 358417
article 358125
▁chose 357953
▁issues 357710
u 357688
el 356287
▁institutions 355520
▁devrait 355092
▁government 354436
M 353953
▁depuis 352876
▁man 352722
▁ensure 351901
2 351876
L 351482
P 351315
▁concernant 348308
▁4 348307
▁produits 347307
▁façon 346807
▁level 346470
▁trois 346013
▁much 346005
▁quoi 345571
f 345024
▁continue 343735
ci 342997
▁production 342948
▁date 342818
▁Unies 340704
▁still 340276
▁economic 339887
▁does 339722
k 338961
▁rien 338590
▁fin 338384
▁voir 338275
ly 338247
▁notamment 338227
it 337835
▁management 337712
▁15 337162
▁prendre 336746
able 336202
▁avons 335847
▁say 335395
▁européenne 335369
▁personnel 335283
▁avez 334705
▁too 334632
g 334462
at 334310
▁V 334247
▁How 332960
moi 332827
▁site 331784
▁déjà 330957
▁lieu 330182
▁résultats 328227
▁chaque 328026
▁life 327072
▁eu 326849
▁personne 326843
▁members 325820
▁Oui 325717
▁end 325544
▁années 324967
▁internationale 324524
▁measures 324398
▁moment 323379
▁jamais 323352
▁mettre 323325
T 322553
F 321533
▁community 321464
▁security 321308
aient 320170
▁participation 320031
▁Yeah 319773
O 318283
▁certain 318186
▁générale 314645
et 314016
▁Europe 313935
n 313797
▁set 313055
3 312333
▁data 312133
▁vais 312113
▁6 311305
▁formation 311190
▁quand 311018
▁action 311015
▁financial 310929
▁Act 310812
▁Member 310598
▁areas 309171
▁off 308270
▁loi 307076
▁total 306578
▁documents 306237
▁available 305374
▁further 305256
H 305246
▁implementation 304400
▁meeting 304115
▁20 303961
▁mis 303874
1 303425
▁without 303236
homme 302890
▁tant 302808
▁something 301993
▁W 301860
▁research 301325
▁groupe 300091
I 299701
▁General 299353
▁decision 298938
▁day 297683
▁mesure 297373
ment 297338
▁secteur 296990
▁savoir 296693
▁period 296382
▁resources 296245
▁last 296148
▁pourrait 296029
▁budget 295878
▁type 295150
▁juste 294693
▁économique 294008
▁high 293923
▁police 293800
▁position 292569
▁little 292519
▁access 292430
▁pendant 292367
État 292341
▁nouveau 291844
▁However 291831
▁didn 290760
▁change 290469
▁At 290197
▁better 290128
▁area 290040
▁bon 289765
▁certains 289729
▁really 289589
▁These 289411
ale 289374
▁maintenant 289337
os 288883
▁since 288748
G 288280
ations 288246
▁own 287671
▁ton 286677
▁plusieurs 286493
N 286405
▁décision 286080
▁find 285990
4 285942
R 285924
▁étaient 285050
▁never 284466
▁chez 284426
▁alors 283953
▁taken 283787
au 283135
▁grand 283115
▁application 282895
▁raison 282702
▁rôle 282333
▁working 282268
▁project 282130
▁give 281295
▁h 281107
ur 281082
▁tell 281032
▁particular 280909
▁while 280891
▁beaucoup 280695
▁local 280202
▁es 279441
▁To 279097
▁30 277045
▁different 276994
▁quelque 276800
▁business 276249
era 276242
▁période 276041
▁future 275982
▁12 275765
te 275463
▁marché 275317
tu 275097
▁coopération 275072
Union 274825
▁cent 274624
▁nom 274538
age 274247
▁b 274205
▁œuvre 273663
▁mieux 272891
8 272271
▁selon 272025
▁jusqu 271882
▁million 271721
▁ceux 271415
7 271103
▁International 271094
▁première 270792
▁projets 270701
▁région 270260
▁needs 269611
▁Union 269155
r 268317
ou 267212
elles 266925
▁Bien 266734
▁required 266649
▁cela 266214
accord 265801
▁look 265743
▁O 265569
▁paix 265436
▁care 265216
▁serait 264875
▁Why 264848
▁found 264805
▁New 263427
▁grande 263092
▁particulier 262878
▁7 262441
▁Pourquoi 262264
▁mois 262257
▁manière 262117
▁renseignements 261963
▁issue 261701
▁large 260558
▁présent 260466
▁seront 260332
▁assistance 260042
aide 259855
6 259441
▁role 259315
▁organizations 258538
▁training 258258
▁premier 257853
am 257160
▁domaine 256563
▁President 256421
▁why 255947
▁» 255737
▁8 255588
▁mean 255253
▁dollars 255154
ais 255108
▁main 254090
▁program 253985
ch 253968
▁cause 253962
aux 253070
▁based 253068
▁face 252851
▁force 252651
▁political 252639
ies 252494
▁section 251863
ants 251725
▁inter 250849
▁put 250813
▁second 250360
▁société 250317
▁market 250312
▁9 250074
▁resolution 250016
▁National 249758
▁problèmes 249552
ad 249370
▁Président 249206
autre 248879
▁My 248836
▁pris 248174
▁qualité 247412
▁necessary 247055
▁organisations 246689
▁group 246576
▁Assembly 245646
▁18 245594
▁basis 245435
ra 245251
th 244821
▁nature 244530
▁doing 244436
▁initiatives 243704
▁review 243181
▁résolution 242554
▁seulement 242133
▁titre 241999
▁problème 241992
ated 241842
v 241645
évaluation 241446
▁lors 240867
5 240714
▁violence 240712
▁Let 240567
▁exemple 239963
▁compris 239913
hui 239643
▁Tribunal 239411
▁nouvelle 239364
▁given 239319
▁water 238971
▁dispositions 238963
▁suite 238852
▁objectifs 238726
▁cooperation 238719
▁nouvelles 238569
▁effective 237883
▁millions 237630
▁Do 237227
▁let 236998
▁êtes 236828
▁education 236169
▁regard 236058
ter 236000
▁view 235874
▁legal 235731
▁Don 235077
▁taux 234579
▁already 234266
▁specific 234121
ir 233928
▁general 233847
▁Programme 233798
▁groupes 233614
▁present 233540
ales 233505
▁results 233246
▁family 232898
▁among 232847
Assemblée 232043
▁transport 231771
▁vers 231416
▁course 231163
▁note 231157
▁might 231016
application 230416
▁six 230076
action 230020
▁means 229831
▁entreprises 229821
▁home 229737
▁comment 229660
▁again 229621
▁Groupe 229472
▁whether 229023
▁Board 228666
▁fact 228446
▁party 228415
▁vraiment 228111
▁best 227490
▁Ne 227381
▁points 227198
▁Group 227131
▁contrôle 227079
▁cases 226902
▁outre 226888
▁another 226863
▁donné 226677
▁participants 226575
▁Comme 226566
ier 226549
▁soient 226416
▁travaux 226139
). 225412
▁around 225259
▁regional 225195
▁held 224974
▁f 224250
Unis 223978
▁trop 223554
▁sector 223290
▁full 223265
▁concerne 222938
V 222354
▁plans 222246
▁paragraphe 221614
▁increase 221540
▁vos 221123
▁Tout 220942
▁e 220865
▁thing 220848
▁mes 220777
▁sujet 220584
▁include 220451
▁Bureau 220276
▁result 220258
▁nationale 220242
▁ta 219573
▁Health 219399
▁Comment 219236
▁call 219235
▁communication 219164
▁11 219066
▁every 218675
▁vu 218573
▁great 218055
ure 217825
▁attention 217436
▁importance 217332
eau 216752
▁re 216666
ol 216414
▁pouvoir 216244
▁established 216109
▁believe 216055
▁addition 215827
▁current 215688
▁mal 215340
um 215287
▁besoins 215165
▁justice 215152
▁fonction 215093
▁Now 215071
▁When 214784
▁Loi 214680
▁draft 214522
▁relevant 214052
▁next 214025
▁Come 213930
▁following 213920
▁présente 213837
▁done 213785
▁developing 213441
▁celui 213280
▁together 212704
▁mission 212589
▁parce 212159
▁groups 211796
▁article 211767
▁therefore 211711
▁sommes 211619
ement 211583
▁famille 211457
▁Gouvernement 211234
▁example 211160
▁person 211093
9 210993
▁13 210989
▁special 210983
▁met 210196
▁14 210160
ante 209147
▁laquelle 209055
▁EU 208880
▁000 208781
▁Pas 208194
▁major 208090
▁pense 207401
▁visant 207395
▁quelques 207344
▁moyen 207050
▁organismes 207031
▁considered 206184
▁elles 206099
▁Article 206028
▁appropriate 205952
ique 205888
▁pourquoi 205633
▁Centre 205605
▁trade 205319
examen 205237
▁g 205168
▁publique 205141
▁nouveaux 205080
▁impact 204887
▁always 204040
▁Parliament 203670
▁r 203635
▁An 203593
▁Is 203476
▁requirements 203095
▁control 202917
▁related 202807
▁global 202789
▁prix 202707
▁— 202642
▁Alors 202533
▁approach 202451
▁effet 201257
▁staff 201027
▁Ch 200821
▁jours 200704
▁nécessaire 200657
▁various 200481
▁Que 200364
▁key 200360
▁celle 200238
▁dois 200136
▁gens 200000
▁ni 199850
▁Merci 199695
w 199555
id 199074
▁Development 198938
▁relations 198864
▁terme 198850
▁informations 198246
▁form 198221
▁Yes 197785
ro 197624
▁fais 197497
▁adopted 197396
▁16 197260
▁today 197020
▁able 196892
ts 196891
ia 196837
▁Service 196817
▁products 196808
., 196796
ot 196720
environnement 196455
▁four 196371
▁progress 196218
▁25 196043
▁dis 195917
▁certaines 195630
▁risk 195622
▁devraient 195582
▁contribution 195497
▁proposed 195442
▁small 195113
▁projects 194936
▁Hey 194686
▁femme 194403
▁partir 194336
utilisation 194306
▁developed 193801
▁crois 193607
▁name 193146
▁sure 192978
▁meet 192715
U 192349
▁co 192296
▁année 192194
▁rapports 192038
▁Parlement 191971
▁Security 191931
▁subject 191566
▁bonne 191451
▁Minister 191435
▁pu 191338
▁region 191223
▁ 191207
ating 191083
▁' 190725
▁règlement 190722
▁parler 190538
▁promotion 190278
▁discrimination 190198
▁Mme 189947
▁ayant 189865
▁financement 189663
▁Okay 189514
▁Department 189237
▁Where 188744
▁centre 188495
▁fonds 188162
▁child 188136
em 188122
▁love 187912
▁capacity 187831
▁provides 187805
▁trouver 187612
▁Y 187595
ins 186773
▁17 186433
▁donner 186431
avoir 185895
▁provisions 185752
ensemble 185557
▁reste 185478
▁mort 185301
▁sein 185289
▁jeunes 184946
▁quality 184935
▁levels 184848
▁Parties 184335
▁agreement 184190
▁problem 184114
▁away 183578
▁actions 182944
ag 182682
▁forces 182603
▁sens 182378
emploi 182338
ul 181787
▁address 181655
▁Mon 181615
▁Agency 181420
▁Dr 181381
▁affaires 181345
▁Office 181342
▁coordination 181321
▁few 180884
▁things 180769
▁account 180617
▁significant 180407
▁federal 180333
▁Conference 179964
▁With 179852
▁communauté 179795
▁thought 179691
▁persons 179686
▁least 179514
ous 179466
ard 179446
▁aller 179430
▁Court 179069
▁$ 178957
▁1. 178906
▁received 178756
▁industry 178729
▁avaient 178612
▁veut 178498
▁vote 178418
▁Republic 178347
▁particularly 178190
▁framework 178102
up 178032
▁aujourd 177885
▁common 177864
▁matter 177797
ates 177688
ti 177679
▁font 177517
▁culture 177246
▁One 177133
▁environment 176995
▁Secretary 176883
▁sûr 176793
les 176761
▁vertu 176525
▁five 176455
▁anything 176363
ity 176283
▁terms 175960
▁authorities 175950
▁real 175940
accès 175638
▁obligations 175584
▁valeur 175572
▁aspects 175556
▁peace 175368
▁parents 175249
▁soutien 175107
ac 174925
▁systems 174761
▁costs 174720
▁collaboration 174680
▁clear 174612
▁policies 174406
▁less 174372
▁U 174367
▁relatives 174338
▁passé 174198
▁several 174185
▁24 173712
▁environmental 173456
▁risque 173446
▁days 173394
▁money 173279
▁talk 173270
▁took 172990
▁souvent 172862
man 172853
▁May 172699
▁dialogue 172525
▁conformément 172271
om 172108
ist 172088
▁men 171979
( 171923
▁due 171486
me 171322
▁heures 171235
▁however 171089
▁interest 171079
ite 170973
▁become 170771
▁Just 170660
▁2005 170348
▁seul 170333
K 170197
op 169780
▁́ 169597
▁réunion 169506
▁member 169162
▁night 169160
▁concerned 169089
▁problems 168816
General 168812
W 168630
▁direction 168525
▁using 168277
▁nombreux 168263
▁nécessaires 168099
▁called 167859
▁ever 167840
▁increased 167519
▁v 167484
▁quatre 167358
▁until 167303
j 167230
▁making 167133
▁tenu 167123
▁aucune 166807
▁France 166749
▁reports 166748
▁traitement 166600
▁structure 166586
▁II 166516
ordre 166516
▁sources 166347
▁private 166152
▁capital 166061
Organisation 165941
▁school 165832
▁Are 165777
▁far 165694
▁having 165400
▁cannot 165321
éducation 165320
▁cost 165274
and 165168
▁produit 165023
▁whole 164985
▁européen 164962
▁liste 164783
▁normes 164726
▁individual 164700
▁100 164597
▁dernier 164572
air 164413
Europe 164345
▁ch 164066
▁consultations 164007
▁systèmes 163982
▁solution 163972
▁final 163960
▁keep 163895
ian 163851
▁commercial 163736
ité 163567
▁minutes 163545
▁paragraph 163430
▁performance 163401
▁autorités 163327
▁legislation 163180
▁demandé 163083
▁pay 163029
▁Not 162725
▁création 162692
res 162205
▁commerce 162168
▁accordance 161878
▁aucun 161858
x 161666
▁permis 161521
▁moyens 161501
agit 161318
ta 161265
▁progrès 161216
▁étant 161012
▁Secrétaire 160837
▁additional 160755
▁petit 160736
▁noted 160636
▁2004 160607
▁lorsque 160222
▁initiative 160183
▁study 160116
▁above 160098
▁changes 160017
▁First 160014
ne 159828
▁charge 159826
▁involved 159812
▁source 159781
▁programs 159726
▁funding 159678
▁amount 159471
▁technologies 159445
ance 159415
▁Ministère 159341
▁knowledge 159310
▁cinq 159010
▁forme 159010
▁kind 158974
ors 158896
▁capacité 158887
.1 158642
▁field 158628
▁left 158603
▁open 158598
▁told 158596
▁délégation 158361
▁growth 158325
▁lot 158308
après 158308
▁renforcer 158308
▁communities 158306
aire 158280
▁ré 158047
▁rules 158045
▁croissance 157915
▁Cela 157831
▁devant 157762
▁food 157697
▁society 157635
▁tax 157624
▁air 157544
ary 157516
▁fournir 157497
▁2000 157449
▁dernière 157446
▁internationales 157341
▁décisions 157300
ise 156992
▁éléments 156980
▁months 156822
▁techniques 156812
▁rate 156798
▁hommes 156626
." 156622
▁19 156515
▁show 156496
▁pratiques 156277
année 156251
▁chance 156109
end 156061
▁Can 156037
▁père 156031
▁Al 155996
▁potential 155985
de 155910
▁proposition 155851
▁sorry 155670
▁procédure 155449
▁standards 155311
▁old 155205
▁okay 155099
▁21 155053
▁eux 155052
▁celles 154975
▁job 154914
▁leave 154879
▁recommandations 154799
▁aider 154646
▁June 154409
▁République 154256
▁past 154219
▁domaines 154210
▁taking 154191
▁mondiale 154158
▁2006 154040
▁hand 153939
▁responsible 153816
▁plupart 153759
▁contributions 153252
▁Rights 153166
▁2003 152982
isation 152975
▁ensemble 152890
▁understand 152826
▁December 152586
▁Plan 152458
▁représentants 152171
▁seule 152163
▁régions 152126
▁50 152125
ici 151974
▁Your 151905
▁environnement 151766
▁technical 151764
▁canadien 151635
▁différents 151550
▁aurait 151532
▁direct 151527
% 151167
▁Z 150840
▁sites 150821
▁feel 150772
▁Web 150742
ut 150651
▁construction 150641
▁dépenses 150630
▁lutte 150617
▁included 150547
▁evidence 150495
▁types 150380
▁décembre 150282
▁won 149874
▁porte 149811
▁clients 149645
▁recommendations 149120
▁civil 148955
administration 148871
▁employment 148773
▁Internet 148717
▁canadienne 148698
▁juin 148697
ue 148666
▁instruments 148505
▁March 148472
▁free 148392
▁mandat 148366
▁upon 148344
▁particul 148274
▁Look 148218
ab 148125
▁young 147983
▁develop 147931
▁responsabilité 147835
▁improve 147832
▁durable 147826
▁près 147716
▁value 147660
▁Human 147629
▁often 147427
use 147426
▁Cour 147406
ièrement 147282
▁assessment 147104
objet 147018
▁soins 147008
▁déclaration 146808
▁discussion 146774
▁montant 146765
assurer 146763
▁yet 146669
▁31 146623
▁line 146574
▁relative 146564
▁technique 146550
ig 146457
▁vrai 146444
▁effets 146291
ans 146189
▁stratégie 146078
▁maison 145845
urs 145801
▁spécial 145757
ting 145503
▁play 145456
▁experience 145364
▁sub 145154
▁ai 144997
iques 144974
ings 144877
té 144664
ONU 144473
▁responsibility 144412
▁choses 144376
▁sociale 144017
UE 143875
▁list 143756
▁opérations 143746
▁court 143429
▁nothing 143360
▁needed 143313
▁office 143230
▁ville 143091
▁St 143089
▁Allez 142983
▁existing 142862
▁1, 142710
▁consultation 142682
▁pouvez 142674
▁permet 142593
▁state 142566
▁test 142461
▁2002 142451
▁World 142429
▁came 142307
▁organization 142182
▁prises 142050
J 141918
▁contact 141913
▁coûts 141895
▁ex 141779
▁2001 141764
▁Or 141746
▁God 141697
st 141689
▁proposal 141622
▁distribution 141496
▁assurer 141365
▁vas 141222
▁fins 141093
▁mars 141075
▁suivi 140938
élaboration 140845
▁Community 140774
▁Code 140744
▁age 140707
▁règles 140630
ities 140598
▁quelqu 140554
▁surveillance 140522
▁deuxième 140362
▁économiques 140263
▁Who 140095
", 139944
▁Thank 139941
oc 139880
▁déterminer 139847
▁request 139834
▁Conférence 139711
ens 139651
▁land 139641
▁seen 139556
▁power 139425
▁ministre 139394
▁energy 139302
▁ci 139197
▁enough 139195
▁Qui 139192
▁Toutefois 138848
▁September 138826
▁permettre 138700
▁condition 138580
▁Special 138428
▁submitted 138408
▁tard 138272
▁[ 138066
▁auprès 137963
▁coming 137928
▁rendre 137773
▁septembre 137726
antes 137663
ri 137562
▁début 137323
▁mère 136925
▁zone 136847
▁passe 136788
AC 136753
▁technology 136745
▁ministère 136744
▁third 136726
tic 136591
industrie 136589
importance 136440
▁2007 136352
▁response 136347
▁please 136281
▁safety 136166
▁égard 136115
▁across 136078
▁membre 136024
▁either 135821
Y 135741
▁risques 135591
▁operations 135577
ez 135460
▁body 135270
▁effect 135244
▁Sh 135208
▁devons 135132
▁grâce 135009
▁consideration 134958
▁guy 134758
▁opportunity 134705
▁province 134588
▁early 134445
▁positive 134444
▁nationales 134414
▁towards 134261
▁dû 134168
▁context 133952
▁crime 133756
▁recent 133658
▁importante 133608
▁benefits 133586
▁centres 133515
▁military 133385
ass 133287
▁actuellement 133267
▁expected 133136
▁unique 133074
▁ligne 133024
▁once 132913
od 132763
▁Ma 132554
ap 132476
▁especially 132420
▁22 132408
▁représentant 132173
▁room 132132
▁nationaux 131954
▁objectives 131866
▁hope 131865
▁agreed 131808
▁bring 131798
▁gouvernements 131745
▁wanted 131726
▁everything 131630
▁mai 131607
▁Quoi 131184
▁agencies 131098
▁post 131036
étais 130950
▁Some 130923
▁Public 130804
▁articles 130775
▁bureau 130769
▁demander 130663
▁Canadians 130647
to 130545
ton 130480
] 130395
▁principes 130350
▁Please 130336
▁goods 130301
▁tels 130260
▁greater 130226
▁Africa 130017
▁Ontario 129960
▁providing 129630
ell 129602
▁Monsieur 129572
▁strategy 129493
▁réponse 129429
▁demandes 129411
▁analysis 129350
our 129332
▁pourraient 129212
ables 129193
▁doesn 129165
▁property 129054
▁23 129020
▁relation 128950
▁efficace 128942
▁April 128903
als 128890
▁vigueur 128841
▁populations 128780
▁améliorer 128666
▁solutions 128558
▁créer 128410
▁active 128322
▁live 128319
tiques 128284
▁head 128237
▁2005, 128215
▁start 128080
▁changements 128058
▁prise 128025
ES 127949
▁house 127929
▁ailleurs 127906
▁table 127837
▁others 127830
▁Quand 127799
▁representative 127712
▁réduire 127623
▁donne 127609
▁consider 127565
▁partenaires 127538
▁davantage 127430
▁preuve 127275
exercice 127254
▁decisions 127221
▁plutôt 127202
▁page 126958
▁January 126954
▁répondre 126933
im 126889
▁Services 126878
▁While 126868
▁ask 126838
▁2004, 126752
▁trouve 126738
▁deal 126633
▁autochtones 126470
▁Où 126451
▁company 126443
avais 126374
▁tel 126371
▁light 126332
▁focus 126200
▁promote 126063
▁fille 126036
▁asked 125714
▁pratique 125682
▁phase 125675
▁procédures 125569
▁accord 125433
▁directive 125264
▁aura 125224
▁wish 125220
▁régime 125197
▁close 125187
▁homme 125127
▁Re 125054
▁principe 125018
se 124982
▁provinces 124905
▁personal 124814
▁Good 124809
ay 124789
ah 124763
1. 124610
▁É 124544
▁activity 124534
▁procedures 124444
je 124381
▁passer 124323
▁janvier 124242
▁frais 124091
tes 124031
▁October 124011
▁2003, 123978
▁treatment 123929
▁différentes 123880
▁Program 123660
▁later 123628
▁sorte 123619
Office 123516
▁experts 123490
▁lorsqu 123275
▁faites 123204
▁practice 123102
▁concern 123063
IS 123002
▁representatives 122897
ization 122783
▁fully 122693
appui 122679
▁administrative 122523
▁low 122436
▁version 122406
▁status 122356
▁secteurs 122299
▁propre 122269
▁range 122127
▁avis 122124
▁communications 122094
▁purpose 122065
ments 122062
▁domestic 122044
▁tenir 121959
term 121855
▁reported 121809
ally 121794
▁allow 121789
▁agenda 121551
▁times 121504
▁termes 121489
▁November 121455
▁simple 121372
▁Nord 121368
▁40 121309
▁French 121284
▁building 121210
▁train 121174
▁apply 121167
▁cultural 121162
▁principal 121078
▁York 121075
▁currently 120978
▁conflict 120853
▁dernières 120807
▁capacités 120749
▁discussions 120702
.2 120679
▁poste 120672
ateur 120650
▁faveur 120516
one 120511
▁2006, 120480
▁semble 120471
▁puis 120414
▁guerre 120409
ph 120357
▁adopté 120294
▁regarding 120246
▁législation 120236
▁promouvoir 120210
▁July 120190
▁études 120141
▁reçu 120004
qu 119951
▁2. 119721
3. 119705
▁zones 119688
ted 119467
▁practices 119398
▁aide 119259
▁revenu 119241
▁delegation 119214
▁commune 119188
▁team 119154
égard 119149
▁novembre 119138
based 119086
▁identified 119064
▁looking 119051
▁Get 119049
▁foreign 118972
▁Canadiens 118925
▁haut 118601
▁commission 118416
▁mind 118409
▁provincial 118320
ill 118300
▁27 118297
ang 118257
▁employés 118247
▁planning 118243
▁Selon 118228
▁continued 118181
▁sent 118128
▁Working 118093
▁stop 118084
▁disposition 117902
▁choix 117850
▁Ms 117848
▁contexte 117591
▁w 117502
▁language 117446
▁marchés 117437
▁monitoring 117394
▁hear 117250
▁débat 117228
▁living 117217
▁partners 117016
▁présenter 116928
ien 116901
▁ait 116855
▁obtenir 116821
▁effects 116800
▁central 116773
▁juillet 116768
▁short 116767
▁2002, 116726
argent 116715
▁divers 116695
▁venir 116638
▁concerning 116571
▁situations 116571
ré 116490
▁outside 116431
all 116339
▁nécessité 116320
▁income 116280
▁serious 116278
ec 116246
▁nombreuses 116234
▁niveaux 116170
▁move 116126
▁sustainable 116117
5. 115894
▁meetings 115689
▁milieu 115640
▁natural 115604
▁protéger 115500
▁k 115418
ents 115404
▁opportunities 115375
▁big 115357
▁26 115314
▁investment 115137
même 115128
▁assez 115057
▁follow 114991
▁28 114938
▁exigences 114905
che 114587
▁telle 114429
▁hours 114410
▁avril 114402
▁possibilité 114356
▁evaluation 114331
EC 114277
▁By 114269
▁Did 114251
ative 114208
4. 114172
▁2001, 114169
▁lead 114140
00 113952
▁rather 113890
▁forward 113790
1, 113726
▁single 113674
ère 113666
▁wrong 113606
▁expressed 113591
ge 113541
per 113509
▁reason 113498
▁happened 113463
▁Mar 113460
els 113425
▁product 113398
▁provision 113360
▁commitment 113343
▁Go 113320
▁armes 113295
IC 113292
▁Après 113257
▁bad 113199
ak 113198
aime 113196
▁anti 113188
▁durant 113103
▁idea 113020
▁octobre 112961
▁citoyens 112899
▁internationaux 112803
▁statement 112617
▁strong 112557
▁rest 112477
▁similar 112474
▁opinion 112468
▁missions 112410
▁guys 112390
▁decided 112366
▁week 112313
▁nuit 112299
▁décidé 112229
▁effort 112215
▁minimum 112189
▁benefit 112169
▁Then 112126
▁authority 112050
▁soir 112023
▁Dieu 112013
▁stay 111929
▁constitue 111877
▁Our 111843
iser 111841
2. 111817
▁trying 111815
▁texte 111789
intérêt 111634
▁fédéral 111554
▁vois 111530
▁Cependant 111466
▁companies 111441
▁2000, 111373
▁Because 111370
▁conséquent 111334
▁Division 111164
que 111083
▁procedure 111055
▁limited 111036
▁share 111014
▁Since 110959
▁principles 110918
2, 110914
▁war 110762
▁someone 110755
ines 110725
▁comité 110721
▁indiqué 110699
▁challenges 110698
▁existe 110680
▁conclusions 110650
pe 110327
▁réseau 110279
– 110216
▁went 110138
▁known 110100
▁accès 110067
▁father 109971
▁hard 109913
état 109894
out 109889
▁voie 109879
▁lequel 109858
ry 109852
▁Est 109828
▁higher 109820
▁ago 109552
▁Section 109498
ner 109477
ane 109395
▁genre 109363
▁parti 109270
▁tes 109179
▁Depuis 109158
▁chef 109151
▁Information 109150
▁reporting 109126
▁sh 109073
efficacité 108971
▁transition 108895
▁2005. 108785
og 108769
▁individuals 108756
▁getting 108636
cher 108556
ain 108516
établissement 108496
▁employees 108488
▁else 108479
ets 108437
▁funds 108400
ide 108336
▁victimes 108287
avez 108259
▁return 108197
5, 108197
▁essential 108156
ats 108101
▁observations 108053
▁makes 108045
▁annual 107994
▁recours 107991
▁financière 107971
▁voudrais 107949
3, 107927
▁difficult 107915
▁difficile 107905
▁Aboriginal 107901
▁carried 107900
▁président 107819
▁participer 107702
▁agents 107666
ized 107641
▁séance 107583
▁réduction 107571
▁telles 107543
▁2, 107511
▁pre 107178
▁prévention 107105
▁comprendre 106995
▁official 106942
▁priority 106830
▁run 106745
▁Agreement 106729
énergie 106675
0 106634
▁paid 106614
▁economy 106574
▁trouvé 106567
▁Air 106502
▁oeuvre 106327
▁John 106143
aires 106127
▁along 106093
▁mondial 106012
la 105959
▁presented 105946
▁présenté 105935
▁o 105853
▁Social 105839
▁death 105754
▁department 105465
▁soon 105379
▁self 105356
▁agreements 105334
organisation 105292
▁juridique 105211
▁heard 105097
▁permanent 105091
toi 105076
▁standard 105071
▁confiance 105051
▁lack 105012
▁itself 104885
ateurs 104813
ca 104736
▁etc 104667
▁UN 104619
▁petite 104596
égalité 104576
▁Maybe 104507
▁dé 104507
▁surtout 104482
▁i 104470
▁applications 104363
▁girl 104363
ov 104362
▁requested 104234
▁mother 104231
▁pauvreté 104194
avis 104171
▁objective 104087
▁civile 103984
▁See 103969
▁Constitution 103905
▁offer 103879
▁60 103874
▁nuclear 103839
▁species 103773
ty 103755
▁bar 103726
▁talking 103706
▁succès 103700
▁dead 103659
▁concerns 103585
4, 103577
CE 103548
▁citizens 103543
▁jouer 103535
▁message 103374
▁parmi 103341
▁former 103227
▁privé 103200
▁2004. 103137
▁voulez 103129
0. 103114
▁travailler 103033
▁code 102998
▁Organization 102979
▁protect 102958
▁Affairs 102941
activité 102852
▁directement 102799
▁al 102780
▁try 102755
▁méthodes 102752
▁quel 102712
▁fonctions 102699
av 102695
▁biens 102540
▁compétences 102529
▁saw 102496
▁longer 102459
▁lois 102435
▁Management 102412
▁Here 102411
▁complete 102403
▁maintien 102394
▁conclusion 102327
▁approche 102268
▁South 102259
▁African 102234
▁associated 102148
▁principaux 102094
▁bas 102089
▁modèle 102067
▁brought 102037
▁changement 102024
▁priorités 101964
▁publics 101946
▁achieve 101804
▁tête 101800
▁figure 101761
▁sociaux 101683
▁Québec 101660
▁propositions 101648
▁territoire 101588
▁Inc 101533
origine 101530
én 101522
▁organisation 101513
▁require 101503
▁2006. 101478
▁environ 101448
▁comprehensive 101139
▁2008 101090
▁rates 101069
ille 101068
ex 101028
▁kill 100859
▁fine 100828
▁remain 100793
▁Ca 100789
▁commun 100767
▁Sud 100741
abord 100715
entre 100704
économie 100692
▁understanding 100688
▁responsable 100667
▁actually 100637
▁propos 100471
art 100464
▁valeurs 100436
▁diverses 100403
▁Of 100389
▁sait 100323
▁establish 100210
▁encourage 100206
▁below 100203
tions 100191
▁poverty 100124
▁coup 100014
▁Sur 99928
▁After 99895
▁Bon 99889
▁applicable 99852
▁Mission 99804
▁2007, 99793
▁29 99775
▁Secretariat 99765
▁America 99756
▁fond 99651
▁overall 99648
▁half 99632
▁notes 99625
X 99353
adoption 99342
▁model 99271
▁equipment 99261
▁prepared 99258
▁publication 99120
▁état 99111
▁record 98981
▁create 98961
avait 98955
▁2003. 98923
▁mandate 98898
▁offre 98890
iens 98865
AL 98853
▁February 98694
▁dès 98670
▁bodies 98630
▁appel 98552
7, 98482
▁includes 98478
0, 98476
▁toutefois 98452
▁Ouais 98416
▁licence 98319
isme 98306
▁side 98280
▁1999 98214
▁principle 98178
▁établi 98169
ues 98141
▁Commissioner 98059
▁entendu 98036
▁act 97964
▁facteurs 97890
▁relating 97813
▁maximum 97782
▁turn 97733
▁workers 97643
▁traité 97640
▁conducted 97499
▁sp 97485
▁instrument 97443
▁prend 97437
▁durée 97354
▁propriété 97348
▁ins 97341
8. 97248
▁content 97219
▁reform 97199
intention 97191
ism 97124
▁Research 97112
ions 97050
▁North 97002
▁Plus 96997
▁establishment 96955
▁His 96864
▁contained 96809
ages 96682
▁text 96681
▁février 96643
▁Although 96613
▁côté 96592
▁vient 96561
ux 96559
exécution 96527
▁présence 96419
▁strategic 96358
▁previous 96255
▁labour 96146
▁committed 96116
▁faible 96096
▁directly 96017
▁thus 96014
▁behalf 96009
▁reduce 95983
analyse 95836
▁likely 95821
▁isn 95693
▁material 95624
▁American 95599
▁term 95598
▁Son 95597
led 95593
▁rural 95530
É 95526
▁meilleure 95518
▁planification 95518
▁examen 95517
▁proposals 95512
▁issued 95512
▁savez 95509
▁studies 95500
▁design 95452
▁Economic 95451
▁US 95449
▁terrorisme 95331
▁conseil 95324
▁woman 95322
6, 95263
▁liberté 95211
▁Treaty 95194
▁regions 95136
▁Elles 95102
▁nations 95094
▁critères 95038
▁throughout 94988
▁réunions 94972
▁DE 94888
▁supported 94871
étude 94767
▁fils 94760
▁patients 94758
▁État 94748
▁success 94652
▁gender 94584
▁reference 94545
ver 94536
▁technologie 94531
▁sociétés 94507
▁route 94506
▁regulations 94406
▁salle 94369
▁Règlement 94285
iste 94237
exploitation 94224
AS 94187
6. 94133
par 94131
▁», 94123
ade 94119
▁rule 94106
▁convient 94073
▁criminal 94033
aider 94032
▁themselves 94022
▁série 94007
▁conférence 94005
▁designed 94004
▁renforcement 94001
ical 93962
▁Fund 93950
▁prison 93939
iez 93939
its 93830
enfant 93818
▁city 93815
▁connaissances 93792
ités 93788
▁During 93721
▁yourself 93717
▁thank 93712
ence 93682
▁propose 93680
▁langue 93651
▁Avec 93647
▁directeur 93637
▁financières 93493
▁determine 93456
▁référence 93420
▁states 93409
▁approved 93400
▁imp 93359
ire 93344
▁consensus 93291
▁alone 93215
▁quant 93164
▁joint 93159
ion 93105
istes 93105
▁sir 93102
▁propres 93088
7. 93080
▁client 93060
▁élevé 93060
▁aid 93046
▁rendement 93033
▁receive 93024
▁rapidement 93016
▁indicated 93015
▁remember 92919
▁processes 92914
▁media 92890
▁increasing 92767
▁prévoit 92728
▁late 92648
▁radio 92565
▁Bank 92501
▁prevent 92444
éc 92333
▁structures 92329
▁financiers 92309
▁utiliser 92308
▁modifications 92298
▁comprend 92133
the 92102
ler 92035
▁continuer 91910
▁medical 91875
▁ensuite 91855
▁adoption 91840
▁killed 91831
▁travailleurs 91827
▁Enfin 91794
ures 91792
▁applied 91705
ER 91703
▁clairement 91674
▁semaine 91631
▁infrastructure 91630
▁Tous 91597
▁friend 91568
▁purposes 91568
▁stated 91518
▁almost 91467
▁utilisé 91401
▁3. 91334
▁longtemps 91327
▁implement 91295
▁ready 91271
ish 91228
▁space 91157
▁puisse 91143
▁interests 91087
▁basic 91073
iers 91058
▁internal 91014
▁fl 91013
▁négociations 90990
▁rester 90983
yl 90979
▁conflit 90967
▁numéro 90953
ements 90932
▁possibilités 90602
ach 90531
▁debate 90529
▁clearly 90517
▁HIV 90515
▁importants 90428
▁grandes 90425
▁2002. 90389
ator 90382
▁factors 90323
▁liés 90254
▁défense 90251
▁hold 90208
▁mer 90091
▁permettant 90086
▁lost 90078
rait 90053
▁conflits 90032
enseignement 89978
▁substances 89973
▁according 89962
▁proposé 89959
▁initial 89938
▁Under 89906
▁fil 89840
-1 89791
▁cl 89753
▁created 89716
▁August 89708
▁mécanismes 89676
pl 89668
▁true 89625
▁facilities 89565
▁corps 89533
nous 89499
▁coût 89485
▁Ar 89468
▁déclaré 89375
▁administration 89365
▁normal 89357
avenir 89357
AP 89340
▁ad 89316
▁communautés 89312
▁values 89273
8, 89268
▁China 89251
▁contribute 89190
year 89144
▁actuelle 88953
▁peur 88932
▁Car 88928
▁British 88871
▁vise 88858
ore 88805
▁dés 88716
▁convention 88712
ches 88656
," 88652
▁event 88650
▁minute 88643
objectif 88627
▁remains 88608
uses 88606
▁students 88602
▁2007. 88518
▁Fonds 88441
▁circumstances 88384
▁sélection 88380
▁garantir 88355
▁wasn 88340
▁Force 88339
▁implemented 88325
▁Be 88293
AT 88286
▁manque 88261
▁postes 88171
▁Se 88097
AR 88087
▁faisant 88082
ose 88059
▁governments 88051
▁voulais 88010
▁step 87965
▁disponibles 87965
▁wait 87963
▁humaines 87953
▁gaz 87907
▁crimes 87825
▁Me 87761
governmental 87733
▁ministères 87718
▁responsables 87717
▁matters 87687
▁objectif 87683
▁priorities 87625
▁hell 87558
▁Rapporteur 87531
▁violations 87499
tr 87411
Afrique 87350
▁communautaire 87327
▁file 87327
Agence 87316
▁Donc 87315
▁. 87226
▁matériel 87201
▁vision 87194
▁vont 87168
▁marchandises 87167
▁identify 87153
▁canadiennes 87148
▁concept 87119
▁prévu 87078
▁sang 86986
ères 86950
▁liées 86897
▁tour 86879
▁prior 86871
▁meilleur 86747
améliorer 86725
▁relationship 86642
▁completed 86627
▁ways 86577
▁Ministry 86567
▁average 86463
if 86449
» 86416
▁price 86387
▁intérêts 86332
▁competition 86299
ienne 86253
▁Même 86249
▁film 86204
▁Director 86195
▁Secrétariat 86151
▁peine 86132
intérieur 86127
▁réforme 85964
▁leadership 85898
entreprise 85893
▁fight 85870
▁vérification 85836
▁faits 85835
be 85827
▁heart 85826
▁2001. 85679
▁Action 85676
▁réalisation 85649
▁events 85631
▁ground 85564
ber 85549
▁gave 85549
▁Santé 85528
▁Regulations 85506
ys 85451
di 85415
▁operation 85387
ente 85378
▁langues 85258
▁Law 85089
appel 85046
▁combat 84963
▁exchange 84895
ow 84839
heure 84793
▁options 84782
▁morning 84771
▁étude 84719
▁grands 84718
▁Ottawa 84707
▁Am 84678
▁raisons 84602
▁statut 84562
ase 84552
▁faciliter 84517
▁suivre 84487
▁though 84472
▁chacun 84464
▁supplémentaires 84417
▁institution 84414
▁Sa 84411
▁Peut 84386
▁réserve 84379
ness 84370
▁quelle 84345
▁devait 84324
▁knew 84321
▁weapons 84274
▁Justice 84261
ile 84225
▁terrain 84173
▁addressed 84125
▁loin 84123
▁filles 84097
ters 84065
▁referred 84049
▁requires 83972
▁University 83951
ke 83815
▁voiture 83798
▁sol 83774
▁primary 83696
expérience 83680
▁X 83674
▁manner 83618
▁history 83618
ette 83614
▁stage 83532
▁super 83506
▁forms 83481
▁Cet 83416
▁assist 83370
▁humanitarian 83277
▁informed 83264
▁tuer 83210
▁surface 83178
▁é 83177
▁accords 83147
▁reduction 83141
▁gars 83120
▁crise 83116
▁transfer 83112
▁laisser 83075
▁stratégique 83038
▁criteria 83001
▁stratégies 82961
occasion 82959
ley 82927
▁paper 82922
▁reasons 82883
dessus 82880
▁cycle 82863
▁méthode 82841
▁-- 82829
▁travers 82703
▁affected 82669
tif 82616
EN 82529
▁candidats 82504
▁strengthen 82450
équipe 82434
▁item 82413
▁science 82404
▁avantages 82327
AN 82299
▁regular 82251
▁créé 82229
▁oui 82138
▁whose 82112
▁ab 82082
▁canadiens 82074
▁conduct 82049
▁réglementation 82020
▁Ad 81999
▁responsabilités 81991
▁percent 81950
▁chargé 81795
▁soumis 81774
▁departments 81750
urgence 81722
▁sc 81705
9, 81701
tique 81662
▁top 81622
▁0 81602
▁tenue 81598
▁operational 81594
▁Kosovo 81594
". 81540
▁families 81508
Q 81504
▁Co 81496
▁successful 81459
▁financier 81451
si 81410
▁allez 81405
▁positions 81400
▁friends 81291
▁arrangements 81288
▁says 81277
▁militaire 81227
▁Dis 81211
annexe 81164
▁2000. 81037
▁autant 81031
▁network 81019
▁read 81015
▁multi 81000
▁extent 80995
▁1998 80930
ib 80925
▁plein 80908
▁majority 80906
▁independent 80905
échelle 80873
▁High 80840
▁Paris 80827
▁doute 80782
▁fort 80777
▁majorité 80683
ice 80661
▁lettre 80625
IN 80604
ks 80486
ong 80410
ina 80405
▁publiques 80391
▁strategies 80387
▁delivery 80316
▁st 80233
▁nice 80207
king 80106
▁started 80104
▁régional 80078
assurance 80077
-- 80028
▁works 79921
▁fut 79901
▁drug 79890
co 79861
▁Forum 79856
▁représente 79851
▁mine 79736
▁lower 79708
tive 79674
▁portant 79644
▁ability 79617
▁Chine 79570
30 79546
▁laws 79492
▁achieved 79467
▁lives 79464
assistance 79415
▁Maintenant 79409
ess 79387
▁Ainsi 79384
ques 79374
▁steps 79363
are 79303
▁Women 79267
▁troisième 79232
▁located 79108
▁negotiations 79098
▁parle 79084
absence 79039
▁vol 79023
com 79010
▁Iraq 78986
▁check 78982
▁généralement 78969
▁professional 78894
ps 78874
▁intended 78797
▁safe 78731
▁chercher 78635
▁sort 78591
▁sectors 78580
▁guide 78519
▁West 78466
▁sortir 78441
▁rapide 78407
▁although 78398
▁volume 78383
intégration 78370
▁wouldn 78311
▁évaluation 78275
▁collectivités 78247
▁contract 78246
▁letter 78245
▁espèces 78241
▁supply 78173
ob 78161
▁wife 78155
▁retour 78089
ites 78029
▁critical 77980
▁pêche 77959
▁délai 77944
▁Party 77912
▁VIH 77900
▁arrive 77792
▁idée 77740
▁takes 77732
▁demand 77727
▁bl 77712
▁OK 77694
he 77682
▁1999, 77660
▁mechanisms 77646
▁obligation 77628
▁crisis 77620
▁trust 77606
▁Notre 77547
▁Report 77510
▁committee 77493
▁analyse 77484
▁relatifs 77458
▁Inter 77433
▁East 77404
▁secrétariat 77403
▁militaires 77396
▁Membres 77362
▁Mrs 77347
▁importantes 77336
▁conservation 77296
° 77220
▁participate 77187
▁& 77177
▁fire 77169
iv 77131
li 77091
▁bit 77078
▁baby 77073
▁4. 77069
▁cependant 77067
▁road 77064
▁fonctionnaires 77039
▁front 77022
▁porter 77007
▁visit 76943
▁presque 76942
▁viens 76937
▁déc 76934
▁victims 76924
▁boy 76919
▁Votre 76915
9. 76868
▁compliance 76859
▁generally 76853
▁satisfaction 76846
ud 76814
▁quite 76782
▁From 76754
ér 76729
▁attend 76706
▁trait 76692
▁candidates 76657
▁markets 76653
▁build 76601
▁concurrence 76580
▁impossible 76574
▁fonctionnement 76561
▁collection 76509
▁balance 76486
▁tiers 76484
CC 76431
▁cover 76426
▁nord 76408
▁station 76350
▁estime 76338
▁locaux 76332
▁5. 76321
▁serve 76258
▁determined 76244
▁août 76244
/2 76158
▁libre 76140
▁aim 76136
▁Ah 76054
▁offices 76033
▁girls 76033
▁prevention 76009
▁parts 75993
▁maybe 75987
▁entreprise 75985
ole 75977
▁relativement 75966
▁familles 75955
▁terre 75944
▁ensuring 75925
▁con 75922
▁blood 75909
▁awareness 75895
âge 75817
▁elements 75813
▁conseils 75758
▁commencé 75746
▁exercise 75732
▁caractère 75729
land 75704
▁travel 75690
▁double 75666
▁comes 75647
▁probably 75642
él 75598
▁bi 75594
▁everyone 75510
▁essentiel 75487
▁électronique 75447
▁peuple 75344
▁led 75332
ip 75332
▁priorité 75323
▁perspective 75314
▁anyone 75264
▁board 75226
▁Saint 75217
▁pouvait 75199
▁location 75190
-2 75146
▁climate 75126
▁contrat 75113
▁mêmes 75084
▁appeal 75022
▁vente 75022
▁methods 74973
▁locales 74954
▁wants 74905
▁connaître 74874
ves 74858
▁proportion 74843
/1 74836
▁recognized 74812
▁integrated 74809
▁equal 74808
auteur 74749
amélioration 74705
▁enfant 74695
▁engagement 74607
▁Toronto 74581
▁sense 74553
▁écrit 74512
Amérique 74492
▁Forces 74481
▁terrorism 74449
▁recommended 74435
▁guidelines 74398
enquête 74378
▁contribuer 74371
▁Policy 74349
des 74342
▁difficultés 74304
▁poursuivre 74282
▁amendments 74261
▁importe 74253
▁seraient 74253
▁Ok 74178
▁Executive 74157
▁described 74156
▁ass 74132
▁According 74014
▁English 73966
ich 73944
▁partnership 73941
▁Protocol 73895
▁continues 73822
▁comptes 73785
▁collective 73771
▁sound 73749
ati 73721
▁directives 73720
▁200 73671
▁pré 73659
▁claim 73644
▁3, 73628
ED 73608
▁billion 73605
▁émissions 73604
▁moyenne 73579
▁III 73564
▁influence 73543
▁di 73528
▁établir 73493
▁liens 73460
▁Th 73448
▁hotel 73440
▁gra 73367
▁myself 73317
▁facilitate 73301
▁stakeholders 73260
▁House 73177
aurais 73174
▁médias 73173
▁pension 73165
▁constituent 73122
& 73095
▁written 73081
▁danger 73038
▁pleinement 73033
▁welcome 73027
▁pouvoirs 72978
▁worked 72966
▁secret 72965
aw 72964
▁conséquences 72920
▁saying 72908
▁Etats 72893
▁récemment 72866
▁fundamental 72857
▁sanctions 72828
▁tra 72798
▁consistent 72702
▁original 72691
▁micro 72665
ars 72660
▁sign 72637
▁answer 72632
▁réfugiés 72626
▁tribunal 72608
▁documentation 72607
▁rec 72597
▁semaines 72585
▁youth 72561
▁Association 72512
▁contenu 72507
▁utilisés 72485
▁rendu 72405
▁suivant 72396
▁centrale 72358
▁materials 72344
▁2008, 72322
▁amis 72304
▁Afghanistan 72290
▁tableau 72268
▁veiller 72208
▁modification 72111
▁traditional 72105
▁recently 72069
▁responsibil 72021
▁organes 72021
▁prochaine 71959
▁grave 71928
▁skills 71851
▁établissements 71837
▁Her 71835
▁juridiques 71825
▁guess 71817
▁torture 71805
▁comments 71720
▁Federal 71712
▁creation 71682
▁approval 71675
▁Quebec 71626
▁dix 71541
▁violation 71534
▁gros 71503
ois 71460
▁undertaken 71427
▁petits 71379
▁destruction 71370
▁carry 71359
▁Quel 71323
▁maintain 71322
▁gone 71279
▁chambre 71221
der 71206
▁servir 71163
▁examiner 71160
▁cross 71131
IT 71109
▁sessions 71076
▁discussed 71068
▁poor 70976
▁pied 70963
▁dispose 70921
▁interne 70912
▁integration 70904
▁lignes 70892
▁ongoing 70831
▁cour 70818
▁dossier 70806
▁stand 70803
▁published 70803
▁complex 70791
ides 70778
▁transfert 70773
▁sud 70746
▁maladie 70711
attention 70709
▁implementing 70699
▁plaît 70648
▁respecter 70645
▁pretty 70624
▁... 70610
▁enhance 70600
▁Russie 70573
▁introduced 70553
▁associations 70551
▁aimed 70532
▁pouvons 70529
▁Right 70500
▁définition 70490
▁Très 70487
▁Such 70452
▁juge 70447
▁spéciale 70419
erait 70406
▁goals 70397
▁town 70384
▁pourra 70361
▁défis 70352
▁Institute 70337
▁Trade 70327
▁scope 70316
▁freedom 70304
là 70276
▁souligné 70254
▁pl 70179
▁challenge 70145
▁> 70141
▁Have 70118
▁rep 70110
▁allowed 70080
ris 70072
entrée 70054
▁weeks 70049
▁partenariat 70037
▁investigation 70031
▁fall 70028
mes 69993
▁resource 69988
▁devenir 69986
▁considérable 69980
▁utile 69942
▁causes 69889
▁ami 69888
▁fiscal 69845
mer 69802
▁behind 69742
ON 69718
▁recherches 69702
▁pro 69687
▁size 69656
▁physical 69645
▁mécanisme 69626
▁Palestinian 69610
▁languages 69607
▁Other 69606
▁500 69544
ok 69538
▁Du 69491
▁demain 69448
▁agree 69416
▁near 69405
▁thinking 69403
▁déclarations 69390
▁res 69378
▁shown 69361
bl 69356
▁easy 69290
▁lesquels 69288
école 69283
onn 69278
▁produced 69257
▁vis 69236
teur 69226
▁formes 69211
ful 69186
▁Central 69180
▁chapitre 69168
▁entire 69161
io 69161
▁Ou 69146
ium 69143
50 69078
▁enable 69074
▁Ex 69035
▁Eh 69025
▁démocratique 69018
RC 68979
▁Lorsque 68965
▁Man 68963
▁connection 68935
▁actes 68930
▁mot 68919
▁covered 68905
by 68903
▁Uh 68850
▁terres 68838
▁réaliser 68821
▁Environment 68781
▁jeu 68764
▁die 68743
▁regulatory 68740
▁fish 68739
▁spécifiques 68734
▁35 68702
▁2008. 68698
▁El 68685
histoire 68680
▁présentation 68641
▁derniers 68622
▁credit 68621
▁comp 68608
▁lesquelles 68577
▁atteindre 68564
▁presence 68543
experts 68512
▁reach 68499
▁words 68485
▁Furthermore 68480
tra 68398
▁tools 68316
▁feu 68313
▁series 68305
▁happen 68210
▁devez 68171
▁officers 68163
▁mar 68127
▁mentioned 68117
▁sociales 68105
▁raised 68103
espère 68096
▁prêt 68094
▁beginning 68055
établir 68048
▁became 68031
▁audit 68017
▁obstacles 67848
▁examiné 67840
uc 67793
▁faite 67765
▁montre 67741
▁CO 67690
▁connais 67684
▁month 67672
▁Members 67635
▁happy 67622
▁délégations 67599
▁improved 67594
▁bureaux 67591
▁conclu 67557
▁consommateurs 67552
▁Israel 67538
▁Any 67525
▁signed 67488
ten 67459
▁tient 67415
10 67365
▁statements 67364
▁cancer 67349
▁engagements 67348
▁ten 67323
▁vite 67285
▁traite 67265
ff 67260
SC 67190
eur 67162
▁fair 67156
▁schools 67143
▁parfois 67118
iss 67080
▁net 67019
▁effectively 67012
▁tirer 66963
▁goal 66915
▁wanna 66892
ial 66868
Ontario 66859
ast 66804
▁selection 66804
ana 66787
▁phone 66776
▁crédit 66765
▁Sam 66743
▁garde 66742
▁truc 66729
▁volonté 66729
▁traités 66708
▁yeux 66695
▁village 66642
▁revenus 66637
▁fédérale 66618
▁petites 66591
▁Voilà 66562
▁views 66552
▁1997 66543
IP 66483
▁maladies 66426
▁payment 66386
▁useful 66358
▁growing 66335
▁Regulation 66335
▁tué 66294
▁Russian 66277
▁simplement 66274
▁Bar 66268
ators 66263
▁régionaux 66259
▁beyond 66250
▁armed 66222
▁résultat 66220
▁export 66150
▁gas 66145
tion 66143
▁choice 66131
▁defined 66113
entes 66091
▁cut 66067
▁haven 66059
▁tests 66003
▁detailed 65972
▁contient 65909
▁nation 65891
▁parlé 65890
▁nucléaires 65880
▁speak 65844
▁officials 65800
▁loss 65797
▁word 65795
▁rend 65783
▁régionales 65778
of 65776
▁élections 65765
▁croire 65765
▁approximately 65762
ind 65762
IR 65730
▁agent 65721
▁caractéris 65720
ble 65686
ize 65636
▁Pro 65592
▁description 65589
▁statistiques 65528
▁measure 65504
▁connaissance 65499
▁door 65396
▁uh 65377
▁couple 65370
▁seems 65315
▁acts 65270
▁comprends 65238
▁limit 65221
▁inform 65196
▁wide 65185
cl 65167
▁mode 65144
▁advice 65132
▁forte 65130
▁humains 65128
less 65087
▁sufficient 65072
▁electronic 65060
▁web 65058
▁stabilité 65027
TI 65024
▁People 64976
▁Thanks 64972
▁restrictions 64952
▁learning 64947
▁ro 64925
▁red 64872
ances 64862
▁interested 64856
▁compared 64838
▁examine 64778
▁perdu 64748
▁; 64742
▁principalement 64722
▁journée 64698
▁Protocole 64665
▁capable 64647
time 64643
▁relatif 64636
▁reached 64591
▁entitled 64572
▁option 64525
▁installations 64522
▁promoting 64511
▁matin 64489
ari 64485
▁tomorrow 64475
investissement 64450
▁aware 64445
évolution 64424
▁soutenir 64421
▁consultatif 64407
▁Many 64406
dire 64392
▁Charter 64341
_ 64331
▁voyage 64308
▁permettra 64306
▁lumière 64300
▁km 64279
▁organized 64203
▁alternative 64194
▁consommation 64187
▁Royaume 64129
obtenir 64124
▁appelé 64107
▁conséquence 64107
▁patient 64106
▁Certains 64089
▁payer 64088
▁90 64082
▁anglais 64060
▁claims 64035
▁accident 64028
▁endroit 64007
▁Wait 63937
▁fun 63915
▁instance 63904
▁sexual 63897
▁portée 63879
▁brother 63871
▁followed 63862
▁broad 63846
▁hands 63846
▁formal 63843
▁expertise 63802
▁compétence 63800
▁inside 63799
teurs 63796
▁compter 63786
▁peuples 63774
way 63734
▁signature 63699
▁Moi 63695
▁invited 63692
▁consiste 63665
▁sex 63648
▁conference 63647
▁function 63628
tis 63612
▁arrivé 63567
▁1990 63559
▁maintenir 63522
▁français 63492
▁modern 63453
▁improving 63450
▁Take 63436
▁indique 63416
▁appui 63412
▁proceedings 63385
▁survey 63373
▁CN 63348
▁45 63342
▁gotta 63304
▁adequate 63241
ub 63240
▁réponses 63196
▁devrais 63188
▁leaders 63187
▁vivre 63185
ory 63168
ger 63120
▁étrangers 63078
▁disease 63066
her 63058
▁requirement 63030
▁concentration 63002
▁Two 62989
▁augmentation 62966
▁Will 62959
▁principales 62950
▁fera 62945
▁effectiveness 62931
▁reduced 62895
▁notice 62880
▁Banque 62874
az 62872
alité 62854
vis 62838
▁efficaces 62830
▁carte 62798
▁taille 62765
▁favoriser 62764
▁hospital 62749
▁judiciaire 62740
▁profit 62707
▁trans 62695
▁permettent 62673
aine 62648
▁More 62625
▁distance 62623
▁ar 62616
▁estimated 62600
▁téléphone 62595
iz 62589
▁risks 62578
▁uniquement 62565
▁oil 62517
▁strengthening 62476
▁activité 62474
▁expert 62450
ma 62450
▁occasion 62435
▁Finally 62433
▁bois 62353
▁prices 62344
ient 62325
▁Parce 62311
ID 62308
uer 62298
▁enforcement 62279
▁développer 62276
▁fini 62192
▁souhaite 62172
▁». 62154
▁composition 62150
▁rapporteur 62133
▁interventions 62126
▁leading 62085
▁classe 62054
▁absence 62051
▁Governments 62042
▁scientific 62024
▁stress 62005
▁operating 61963
▁tr 61951
▁added 61935
▁press 61932
▁offers 61924
▁sl 61922
▁scientifiques 61921
▁submit 61904
▁external 61833
▁mises 61825
▁lien 61767
▁enter 61728
▁intervenants 61727
▁news 61712
▁game 61689
▁humanitaire 61667
ug 61605
▁fucking 61604
▁80 61598
▁maintenance 61579
▁mener 61578
▁secretariat 61576
▁book 61519
▁transports 61503
▁unit 61447
▁Table 61434
▁Q 61412
▁shit 61365
▁1996 61355
▁provenant 61355
▁legislative 61348
▁offered 61333
▁mechanism 61333
▁Chaque 61319
▁target 61300
▁Like 61200
▁story 61183
▁Chief 61167
▁intérêt 61106
▁territory 61073
▁send 61072
▁chemin 61068
▁prestations 61043
▁intérieur 61009
▁avoid 61001
▁rem 60971
▁départ 60968
▁places 60949
▁affaire 60922
▁dur 60919
▁suggested 60901
▁suppose 60877
▁élément 60845
▁emploi 60832
20 60808
▁annex 60786
min 60777
▁circonstances 60766
:// 60730
▁add 60716
▁marque 60704
rom 60667
▁suit 60662
▁fourni 60651
▁crucial 60572
▁procès 60558
▁peoples 60554
▁shows 60552
▁évaluer 60545
▁supporting 60544
▁requests 60534
▁participé 60525
Uni 60517
▁intervention 60459
eux 60438
espace 60391
▁Directive 60347
ologie 60319
▁functions 60312
▁arms 60306
▁courant 60208
▁longue 60200
▁probablement 60187
▁investissements 60155
ology 60148
▁couldn 60104
▁règlements 60015
▁origin 60006
▁concluded 59997
iner 59973
▁regulation 59970
▁industrial 59969
▁records 59936
▁traiter 59935
▁learn 59934
▁tonight 59927
▁corruption 59923
▁jeune 59903
▁compensation 59880
▁Even 59876
▁milliards 59825
▁earlier 59798
▁commitments 59788
tant 59788
importe 59763
▁4, 59758
imp 59757
▁separate 59745
izing 59723
▁signifie 59695
▁changed 59694
▁(1 59663
ling 59606
▁catégorie 59542
▁Protection 59519
▁sport 59504
▁employee 59497
making 59472
▁vehicle 59460
▁Therefore 59455
ET 59453
▁indicate 59449
▁réseaux 59425
▁Kingdom 59411
▁felt 59400
▁retard 59398
— 59384
▁class 59345
▁author 59310
SP 59285
▁chercheurs 59279
): 59246
▁bord 59229
▁Over 59220
▁financing 59220
▁Congo 59115
initiative 59103
▁beautiful 59071
▁substance 59058
▁facile 59057
▁Most 59050
▁Sp 59050
engagement 59047
ash 59037
accent 58995
▁task 58989
▁break 58966
ics 58964
▁voix 58910
▁highly 58873
▁Those 58870
▁obtained 58866
▁prévues 58814
40 58812
▁supposed 58795
▁reflect 58786
▁fer 58743
▁diffusion 58740
▁giving 58722
▁knows 58666
related 58635
▁laisse 58595
▁Direction 58589
▁eaux 58575
▁enquête 58570
▁/ 58568
▁dehors 58525
▁visite 58454
▁industries 58448
▁publié 58442
affaire 58425
▁diversité 58383
▁pressure 58381
▁travaille 58352
▁assess 58323
pp 58283
ém 58283
▁prestation 58261
▁préoccupations 58259
AM 58255
▁partout 58244
▁stability 58234
▁partner 58217
▁Moreover 58215
tent 58211
▁calls 58199
OR 58194
▁penser 58193
▁mari 58191
▁variety 58180
▁commence 58176
▁pensais 58161
aimerais 58155
▁users 58145
ière 58126
▁frère 58121
▁communautaires 58117
illes 58093
▁équipe 58092
▁duty 58087
▁mec 58086
▁intention 58073
▁campagne 58067
▁recevoir 58063
▁stuff 58061
▁paiement 58056
éd 58054
quer 58019
▁Project 57985
▁recommande 57979
ven 57951
▁puissent 57933
.3 57889
▁practical 57880
▁changer 57843
▁moitié 57724
▁parole 57670
▁Gu 57666
▁mariage 57653
▁Rien 57644
▁menace 57633
▁Manitoba 57625
▁equality 57606
▁charges 57600
▁commencer 57597
▁recommandation 57585
▁véhicules 57529
▁ministres 57523
▁cultures 57514
▁pollution 57513
▁prêts 57510
▁préparation 57503
▁governance 57499
ists 57498
ron 57472
▁devra 57442
(1) 57415
▁goes 57384
▁bank 57369
oy 57365
▁fondée 57342
▁emergency 57323
▁su 57315
▁Great 57296
ises 57288
off 57280
▁agricultural 57277
line 57255
▁applicant 57243
▁conception 57218
ond 57197
utiliser 57167
▁Con 57166
▁Département 57160
▁expérience 57130
▁seven 57103
▁hors 57103
▁1998, 57087
▁pursuant 57024
▁died 57010
▁insurance 56993
▁limite 56985
▁Tell 56981
▁actuel 56980
ik 56954
▁placed 56929
▁supérieur 56923
sh 56895
bas 56860
▁territoires 56856
▁Hotel 56839
▁efficient 56819
aise 56818
▁sal 56813
▁contains 56808
▁particuliers 56794
Z 56767
▁differences 56762
onne 56761
▁emissions 56742
étranger 56738
▁venu 56738
▁City 56694
ST 56690
AIDS 56688
▁produce 56687
ends 56662
▁annuel 56654
▁Colombie 56645
▁accept 56644
▁WIPO 56642
▁parc 56635
▁computer 56634
▁method 56631
▁democratic 56604
▁désolé 56602
▁haute 56566
▁professionnels 56536
▁disponible 56525
▁médicaments 56520
▁exactly 56518
UN 56478
▁désarmement 56478
▁produire 56458
▁transactions 56437
▁transmission 56435
été 56430
▁definition 56394
▁concentrations 56369
informations 56364
US 56358
▁stable 56340
applique 56308
▁CF 56290
▁Cl 56286
▁premiers 56284
▁discuss 56278
▁étrangères 56243
old 56235
▁excellent 56181
▁sales 56173
ann 56171
impact 56115
▁election 56109
ences 56097
▁accepted 56093
PS 56062
armes 56058
▁preparation 56047
▁possibility 56038
▁began 56033
▁treaty 55994
▁limites 55981
ust 55973
▁recommendation 55963
▁auteurs 55962
ace 55957
▁degree 55955
▁River 55953
▁commerciales 55922
▁partage 55915
▁plant 55913
▁Quelle 55910
▁looks 55906
▁pass 55903
▁simply 55882
ung 55861
▁caused 55853
▁supports 55837
▁prévenir 55827
▁mention 55823
▁appear 55811
-3 55809
▁1999. 55796
▁globale 55792
▁faudrait 55789
▁search 55788
▁items 55764
▁parvenir 55722
▁tôt 55713
▁actual 55704
▁sexes 55693
▁Per 55688
ene 55678
▁kids 55643
ots 55641
▁jury 55611
▁publications 55595
▁étudiants 55595
AD 55589
ick 55537
▁format 55511
▁Ministre 55503
▁pourrais 55498
▁kid 55443
▁tandis 55429
▁elections 55428
▁sections 55417
▁tried 55414
▁developments 55399
▁particulière 55394
▁atteint 55378
▁Viens 55368
▁indigenous 55358
▁hein 55350
▁Ben 55311
▁obtenu 55304
▁respond 55293
▁release 55266
▁Germany 55261
▁dossiers 55250
▁Review 55245
▁Alberta 55225
ign 55186
▁70 55179
▁seem 55171
▁fournit 55135
▁OF 55125
▁th 55117
échange 55110
▁outils 55106
▁assets 55100
▁significantly 55071
▁ouvert 55068
▁immediately 55054
▁matières 55052
▁européens 55049
▁modifier 55045
▁numbers 54987
▁ha 54887
▁debt 54880
▁Deux 54861
examiner 54854
▁impacts 54841
▁Sub 54832
▁Montréal 54822
ress 54812
▁réalité 54807
ards 54799
▁195 54790
▁institutional 54788
▁usually 54777
ours 54752
▁sale 54650
▁photo 54639
▁Japan 54631
▁educational 54570
▁district 54569
▁6. 54541
▁Ministers 54532
▁devoir 54527
▁observed 54518
▁connu 54503
▁camp 54486
Accord 54468
▁concours 54464
▁écoles 54452
▁organisé 54433
Ouest 54431
▁registered 54422
ét 54418
▁apporter 54417
▁Only 54412
▁sciences 54403
EP 54402
▁Sous 54368
▁complète 54360
▁courts 54358
▁scientifique 54353
▁allons 54353
inter 54332
▁delegations 54318
▁sometimes 54317
▁Charte 54315
▁194 54264
▁démocratie 54257
▁régionale 54216
ological 54214
▁registration 54211
▁setting 54209
www 54200
▁Sch 54183
▁husband 54172
for 54169
▁Arab 54143
app 54139
▁efficiency 54133
▁nor 54081
augmentation 54075
enfants 54071
▁graves 54055
▁Vice 54042
▁shared 54042
▁Afrique 54014
▁conventions 54004
▁accessible 53995
▁principale 53988
red 53970
▁offrir 53968
▁suffisamment 53941
▁stratégiques 53906
▁music 53893
▁website 53865
ox 53860
▁sept 53838
▁tellement 53825
issement 53815
▁5, 53808
▁champ 53804
▁movement 53773
ché 53772
▁clair 53769
▁unless 53766
▁cons 53756
▁bed 53741
▁obtain 53704
▁port 53686
▁affect 53678
▁demeure 53668
▁communiquer 53667
▁closely 53665
▁inc 53664
▁naturelles 53646
▁establishing 53634
▁modèles 53614
ains 53602
▁acceptable 53583
▁Part 53556
▁alimentaire 53549
▁hit 53539
▁éviter 53531
▁app 53528
eng 53503
▁granted 53495
▁Haut 53490
▁threat 53476
▁represent 53467
$ 53452
▁civils 53448
▁Education 53433
▁seek 53418
▁partenariats 53385
▁pose 53378
▁component 53373
ces 53368
▁amendment 53350
esprit 53343
▁Columbia 53332
/3 53301
▁nucléaire 53297
▁candidate 53287
ze 53285
▁humaine 53279
▁begin 53275
▁planned 53270
▁lit 53265
ule 53260
▁règle 53240
▁Ab 53239
▁Red 53199
▁Each 53194
PA 53175
▁reconnu 53169
▁indicators 53140
▁specifically 53103
▁Sorry 53075
▁reasonable 53047
▁David 53038
▁300 53024
▁arriver 53013
▁Regional 52991
▁seconde 52977
con 52966
existence 52964
étaient 52951
appelle 52914
▁exige 52914
▁perte 52911
▁Regarde 52909
▁appellant 52899
▁exist 52891
▁truth 52889
▁combien 52878
ere 52840
▁jobs 52809
ath 52797
▁mauvais 52775
▁provisoire 52755
let 52724
▁approuvé 52717
▁classification 52714
▁card 52712
▁advance 52709
▁0, 52704
▁augmenté 52696
▁details 52671
▁procéder 52668
▁outcome 52662
▁physique 52628
▁via 52626
▁Toutes 52618
▁ahead 52617
▁passage 52606
▁revoir 52597
▁resulting 52560
▁mass 52553
▁contraire 52546
▁dimension 52545
▁THE 52542
▁favour 52526
▁histoire 52483
▁http 52476
▁rev 52451
▁voilà 52443
▁cœur 52402
▁aircraft 52400
▁assure 52391
▁hearing 52388
▁art 52375
.4 52361
▁fund 52331
▁tool 52310
▁puisque 52305
▁entry 52304
▁cap 52299
▁Chairman 52289
▁ren 52281
▁immédiatement 52267
amb 52252
▁cool 52237
▁Communauté 52226
hôtel 52208
▁urban 52174
▁drugs 52168
▁réalisés 52167
▁Personne 52134
▁ind 52117
▁Tr 52117
▁commentaires 52028
▁Japon 52024
▁min 52017
▁joue 51990
▁waiting 51983
rac 51974
ras 51958
activités 51929
▁officielles 51918
▁voulait 51915
▁aliments 51913
▁difference 51906
rent 51888
▁circulation 51871
ié 51849
▁Hé 51842
▁comportement 51837
ith 51824
▁vaste 51782
▁reconnaissance 51771
▁PR 51765
▁lieux 51758
int 51756
eront 51737
▁IN 51717
▁dealing 51702
avons 51697
appro 51672
▁innovation 51662
▁aff 51651
▁gr 51632
-9 51620
▁announced 51594
▁factor 51568
▁conformité 51568
▁marche 51565
▁gl 51554
▁chefs 51540
tor 51537
▁invite 51532
▁précis 51529
▁informal 51477
▁2009 51469
▁aspect 51468
▁units 51465
▁regime 51443
org 51438
▁eyes 51431
▁dad 51429
▁vérifier 51425
▁vieux 51415
▁transparence 51408
▁considère 51406
▁trafic 51394
▁Asia 51381
▁jurisdiction 51367
▁Panel 51366
▁involvement 51360
▁• 51351
▁utilisées 51345
▁montrer 51338
ying 51318
▁yeah 51317
▁autour 51315
▁sauf 51300
gc 51278
▁mains 51263
▁em 51259
▁officer 51255
ric 51219
▁signal 51181
▁dépend 51158
▁eight 51157
ellement 51157
▁Pakistan 51156
▁continuing 51151
▁shot 51149
▁fondamentaux 51147
▁adopt 51143
▁ratification 51127
▁guidance 51122
intervention 51120
alement 51120
▁aient 51107
élimination 51093
▁présidence 51057
▁intellectuelle 51042
▁CD 51037
impôt 51027
alisation 51006
idée 50982
▁$1 50967
▁considéré 50966
▁extra 50961
▁mines 50931
level 50923
▁Conformément 50921
▁Paul 50920
▁Grand 50910
▁prévue 50900
▁observer 50897
▁marine 50882
▁personnels 50874
▁Advisory 50842
▁recommandé 50842
▁reviewed 50840
▁stock 50839
tre 50833
▁représentent 50814
▁définir 50812
▁involving 50808
▁gérer 50781
▁worry 50754
▁196 50750
▁Jack 50744
▁savais 50698
▁Cuba 50697
▁Avant 50676
apprentissage 50670
▁Western 50662
▁Children 50648
▁huh 50626
innovation 50609
ational 50599
▁gouvernance 50596
▁, 50595
èrent 50579
enregistrement 50570
▁faisait 50554
▁waste 50536
▁sexe 50528
▁adoptée 50525
▁tâches 50525
▁built 50499
▁vérité 50489
▁copy 50459
▁himself 50452
▁fou 50452
▁EC 50434
ties 50428
ouverture 50428
▁clés 50427
▁veulent 50424
▁1995 50390
▁migrants 50390
ville 50386
▁bébé 50386
▁suivants 50385
▁bou 50373
▁stocks 50349
▁32 50326
▁garder 50305
▁tendance 50286
▁negative 50279
▁approaches 50258
▁Pl 50246
ct 50206
▁consequences 50196
▁revised 50194
▁pe 50158
▁euro 50153
▁Déclaration 50151
▁religion 50121
ode 50118
▁Afin 50101
EM 50091
▁préparer 50074
▁command 50056
▁siècle 50042
▁Strategy 50038
▁core 50027
EL 50024
▁événements 49998
▁medium 49995
▁married 49974
▁Foreign 49956
▁Pendant 49941
table 49926
PC 49925
affaires 49923
▁photos 49908
▁régler 49883
▁running 49860
▁round 49845
ied 49842
-4 49824
▁siège 49818
▁gives 49817
▁senior 49807
▁encouraged 49804
▁réussi 49786
▁Police 49776
▁Atlantic 49714
▁walk 49714
▁menées 49678
▁improvement 49669
-0 49662
▁Saskatchewan 49661
▁producteurs 49658
▁black 49647
▁pression 49636
ino 49617
▁trouble 49613
▁conf 49609
▁cr 49606
▁selected 49582
▁payments 49578
▁Timor 49576
isé 49563
▁bonnes 49550
ira 49544
autorité 49542
▁damage 49540
▁= 49527
▁plainte 49489
▁dev 49479
effet 49477
▁daughter 49476
▁cop 49471
▁trafficking 49468
▁Bill 49447
ically 49407
agriculture 49398
Université 49386
▁Business 49368
OS 49349
▁tribunaux 49302
▁catégories 49285
▁image 49277
▁lancé 49262
Institut 49258
▁counter 49216
▁Vancouver 49211
▁George 49206
▁advantage 49188
▁pénale 49147
sida 49143
▁Representative 49113
▁noté 49081
▁prochain 49076
ép 49074
▁democracy 49072
▁ones 49059
▁potentiel 49045
ern 49038
▁increasingly 49013
atif 49001
▁consolidation 48988
▁implications 48973
▁fournisseurs 48955
asse 48938
▁listen 48936
▁monsieur 48878
▁mo 48837
▁century 48807
inc 48749
▁contacts 48748
▁moving 48737
OM 48723
▁cra 48701
▁association 48696
▁judicial 48660
▁Allons 48612
▁division 48611
▁messages 48601
▁listed 48580
▁migration 48568
▁forum 48565
▁ver 48564
ax 48561
▁Puis 48557
▁confidence 48552
OC 48484
▁www 48482
▁refer 48476
▁tâche 48472
▁watch 48468
af 48467
▁San 48418
▁chances 48411
▁considérée 48399
▁1997, 48393
▁Sans 48383
▁focused 48380
▁36 48357
▁components 48351
▁quickly 48341
uk 48340
▁entier 48314
▁heure 48286
▁border 48279
▁nouvel 48276
▁highest 48266
▁System 48262
▁hurt 48217
▁join 48210
▁Stop 48198
▁exc 48191
▁Declaration 48146
IM 48142
▁ref 48137
▁Excuse 48131
▁Hello 48125
▁rappelle 48116
▁recognition 48115
atrice 48114
ég 48110
ka 48102
▁prepare 48090
cer 48079
▁clean 48076
▁Lake 48074
hip 48067
▁urgent 48059
▁decide 48058
pé 48045
raient 48025
▁gets 48005
▁totale 48005
oire 48001
▁doctor 47979
▁Sir 47959
▁released 47958
▁Salut 47953
▁ship 47936
▁thanks 47933
▁Another 47931
▁Br 47931
▁taxes 47909
lé 47899
▁Plusieurs 47897
▁kept 47866
▁gun 47863
▁Premières 47843
▁privée 47837
▁vital 47831
▁résoudre 47827
▁findings 47823
▁ordre 47822
agissant 47812
▁organisme 47802
agent 47797
▁analyses 47796
ulation 47780
ability 47779
▁creating 47771
▁parent 47741
obligation 47738
▁Madame 47729
▁professionnelle 47711
▁tiens 47694
▁commerciaux 47671
▁largement 47665
▁utilisateurs 47665
▁sea 47664
▁Nouvelle 47660
80 47647
▁businesses 47634
▁premières 47631
▁save 47617
▁perspectives 47588
▁largest 47568
▁enjoy 47551
▁communes 47551
▁chambres 47544
▁heureux 47538
▁cell 47537
ae 47517
▁floor 47456
▁bases 47445
▁allows 47444
▁machine 47440
▁achieving 47424
▁déf 47424
ges 47408
▁abuse 47400
▁hot 47393
▁indicateurs 47393
▁désormais 47393
000 47384
▁Jean 47378
▁Désolé 47368
▁pages 47366
▁transformation 47361
▁conduite 47361
IL 47341
▁biais 47333
CN 47315
▁op 47301
▁duties 47298
▁housing 47283
▁utilisée 47261
▁mark 47257
▁pain 47248
lement 47217
iles 47205
tifs 47191
▁guarantee 47177
▁monitor 47176
19 47164
▁37 47143
▁élèves 47137
▁instructions 47131
▁eligible 47121
▁Delegation 47100
▁hour 47089
▁mom 47081
itation 47063
▁sensibilisation 47057
aud 47056
▁Federation 47031
▁Miss 47026
▁link 46996
▁amounts 46981
AF 46978
▁différences 46948
▁certaine 46936
UR 46926
▁afraid 46895
▁humain 46889
▁remained 46867
▁territorial 46865
und 46852
▁online 46842
▁forget 46840
▁sujets 46833
▁Bonjour 46811
,000 46781
▁associés 46758
▁appointed 46742
▁presse 46727
/4 46725
▁Voici 46725
▁Resources 46712
▁sleep 46710
▁War 46704
▁musique 46698
▁directrices 46694
ord 46690
▁Vraiment 46681
▁Bay 46655
▁Michael 46612
▁Once 46611
approche 46605
▁recovery 46598
▁cash 46594
▁lines 46590
▁pilot 46585
essai 46583
▁Sal 46580
▁agricole 46568
▁partnerships 46563
▁33 46562
▁française 46556
▁animaux 46535
▁ouverte 46490
▁Also 46478
▁dirigeants 46478
▁auront 46468
▁secure 46461
tez 46461
▁contribué 46457
▁com 46438
▁devient 46419
▁consent 46402
▁révision 46398
▁différence 46393
▁completely 46374
▁leaving 46358
▁represented 46356
mêmes 46356
▁complaint 46337
▁socio 46334
oll 46333
▁Park 46331
▁race 46312
▁whom 46310
▁constitu 46294
▁explain 46269
▁crazy 46237
▁fuck 46235
▁huit 46228
▁livre 46209
▁auxquels 46187
▁animal 46177
▁Give 46175
OMPI 46173
▁enquêtes 46166
du 46153
rer 46151
▁remercier 46151
yn 46128
▁buy 46116
▁pauvres 46108
▁agency 46104
▁Nothing 46092
ène 46072
appliquer 46059
▁launched 46044
extérieur 46042
▁lutter 46041
IF 46030
▁India 46024
▁commissions 45998
▁donnée 45997
▁exception 45975
▁meilleurs 45956
▁drogues 45947
▁resolutions 45943
▁yes 45931
ms 45922
q 45902
▁LA 45895
▁restaurant 45876
▁merci 45866
▁trial 45862
▁villes 45856
▁générales 45852
▁attack 45841
▁présentés 45841
▁club 45820
▁forest 45817
▁dirait 45811
▁considerable 45808
▁belle 45807
▁played 45804
▁UNDP 45801
▁Annex 45758
/9 45752
▁Global 45747
▁fédéraux 45735
▁incidence 45701
iennes 45686
▁compagnie 45677
▁appears 45666
▁située 45658
building 45640
TA 45623
▁north 45621
delà 45620
▁appliquer 45619
▁express 45616
ality 45604
▁effectué 45600
▁reconstruction 45597
▁inf 45588
▁nomination 45581
▁drink 45573
▁vivant 45568
▁expect 45562
▁except 45555
pos 45554
▁Indian 45541
▁conforme 45536
▁Environmental 45532
iller 45526
▁essentiellement 45520
▁eat 45512
▁Mexico 45508
▁modalités 45490
▁vehicles 45483
▁pertinentes 45479
▁engage 45472
▁processing 45467
▁Voir 45453
iter 45427
▁z 45417
▁Thus 45414
ommunications 45400
200 45393
▁ag 45386
▁pourront 45375
▁Nos 45371
adresse 45371
▁agriculture 45353
▁élevés 45349
▁complet 45340
tives 45331
▁diversity 45312
▁campaign 45309
▁specified 45290
▁envers 45290
▁supplémentaire 45282
▁illegal 45239
▁primarily 45231
▁TV 45229
▁sit 45221
▁réserves 45184
▁defence 45142
▁` 45134
▁raise 45125
▁agricoles 45098
▁appointment 45094
▁Guide 45088
▁participating 45083
▁considération 45075
atory 45070
▁extended 45059
▁Traité 45056
▁powers 45050
▁worth 45041
▁quantité 45030
▁whatever 45018
▁entrer 45004
▁minorités 44989
▁otherwise 44968
▁voulu 44954
▁Mac 44926
ute 44860
▁Aux 44848
ank 44838
pro 44831
▁détention 44824
▁Officer 44823
iant 44822
nes 44820
▁marketing 44819
▁penses 44802
ail 44796
▁véhicule 44787
▁transparency 44780
isés 44771
▁pièces 44767
▁délais 44758
CR 44746
ros 44742
▁recommends 44737
▁manage 44727
▁stations 44717
▁comprennent 44702
▁plaisir 44682
▁auquel 44676
▁difficulties 44668
▁susceptibles 44657
▁br 44647
▁refugees 44638
▁Island 44636
▁virus 44628
▁introduction 44624
isse 44618
▁draw 44614
▁showed 44612
ome 44610
▁existence 44609
▁testing 44597
▁delivered 44596
▁welcomed 44590
▁accroître 44572
▁failure 44537
▁Mal 44529
▁operate 44526
ack 44524
▁voit 44522
études 44511
▁collectivité 44474
▁souligner 44455
▁Terre 44431
▁IV 44426
▁ban 44424
▁spent 44419
▁derrière 44395
dessous 44371
▁auraient 44366
▁joué 44365
Britannique 44355
▁élaboré 44339
▁summer 44337
▁correspond 44336
év 44335
ification 44329
▁religious 44329
▁ethnic 44326
▁consumer 44299
▁ép 44285
▁resulted 44273
▁spirit 44268
▁Framework 44264
▁décrit 44260
▁helping 44229
offre 44226
▁répartition 44216
▁éc 44200
tée 44190
▁rise 44185
▁maritime 44172
▁closed 44150
▁Financial 44116
ging 44104
▁participant 44100
▁cor 44053
▁régulièrement 44035
▁félicite 44035
▁contrats 44033
▁Authority 44004
▁served 43989
▁précise 43981
iti 43980
▁Child 43972
▁6, 43966
▁relatively 43963
▁adopter 43958
▁proper 43953
▁retraite 43947
▁destinés 43943
▁Summit 43934
▁informé 43932
▁fishing 43918
▁mainly 43911
ote 43906
esse 43879
▁élaborer 43866
▁neuf 43864
▁logement 43858
▁PNUD 43855
▁previously 43853
▁laissé 43851
▁possibles 43848
▁mourir 43844
▁notification 43826
▁fournis 43783
▁drive 43779
▁mod 43778
▁contain 43770
▁enfin 43766
▁étape 43751
▁changé 43738
▁Trans 43736
▁plaintes 43728
atifs 43701
▁dated 43697
aff 43694
▁indispensable 43672
▁deliver 43672
▁mots 43671
▁collecte 43658
▁suivante 43632
▁ideas 43630
▁48 43627
▁poids 43619
▁degré 43614
▁internes 43604
▁Peter 43599
évaluer 43598
▁applicables 43575
▁anymore 43538
▁corporate 43526
▁addressing 43518
▁échanges 43514
▁CP 43513
▁instead 43500
ha 43496
▁signé 43495
▁character 43494
▁administratives 43479
▁devenu 43474
▁band 43468
▁faute 43452
Est 43447
▁networks 43441
▁substantial 43429
▁element 43416
▁amended 43407
▁Rapport 43398
arrive 43394
▁finally 43385
▁concernés 43379
▁choisir 43371
▁dette 43361
▁names 43357
▁reducing 43344
è 43340
▁def 43320
▁av 43310
▁répercussions 43288
▁destination 43287
▁consumers 43285
▁Its 43282
▁finding 43280
0,000 43280
▁pouvant 43277
▁cul 43254
▁ac 43244
▁facteur 43243
▁locale 43228
▁protected 43216
▁correct 43209
▁détail 43204
▁Fédération 43197
orientation 43191
▁recognize 43186
▁Frank 43149
‐ 43140
▁images 43134
▁starting 43114
aries 43114
▁Fais 43093
▁writing 43092
▁Rome 43085
▁européennes 43085
anc 43084
▁disc 43083
val 43074
▁34 43069
▁déchets 43048
▁rés 43047
▁liaison 43042
▁trouvent 43023
▁entered 43016
▁po 42990
▁fa 42986
▁immediate 42981
▁crédits 42980
tie 42952
▁acteurs 42932
In 42931
▁linked 42929
▁réalisé 42924
▁path 42920
▁vulnerable 42906
avant 42903
och 42852
▁style 42836
arn 42834
▁continent 42830
▁annexe 42828
▁Criminal 42824
▁recorded 42781
▁Meeting 42781
▁7. 42771
ost 42767
gu 42765
▁fallait 42751
over 42746
▁réformes 42730
▁victim 42729
▁daily 42719
▁débats 42714
ara 42699
▁grounds 42695
▁lose 42689
▁expression 42664
▁complaints 42663
▁boys 42652
▁white 42608
▁sw 42600
▁présentées 42599
▁bientôt 42578
▁courses 42575
▁Bl 42570
▁employer 42566
▁match 42555
▁extremely 42554
▁pick 42540
▁Bo 42533
▁competitive 42520
▁female 42508
▁outcomes 42497
oph 42496
▁tend 42486
▁traffic 42482
▁grant 42481
▁applies 42477
rais 42462
▁fabrication 42461
▁frontières 42461
▁Grâce 42460
▁chimiques 42459
▁settlement 42446
▁rue 42444
▁dessus 42441
▁Israël 42419
▁généraux 42415
ese 42413
▁formulaire 42413
▁extrêmement 42411
ised 42392
▁devront 42384
▁helped 42378
▁commissaire 42378
▁bande 42370
amour 42363
▁1996, 42361
▁failed 42356
▁transportation 42354
▁copies 42353
▁filed 42342
60 42340
▁suggest 42336
aut 42335
▁détails 42328
▁entièrement 42321
▁Pr 42311
MC 42310
▁relever 42307
▁consulter 42304
▁App 42303
▁estimé 42302
ame 42301
▁elected 42285
▁faudra 42282
▁accounts 42270
▁Russia 42244
▁despite 42242
▁represents 42230
▁véritable 42228
▁Cor 42227
ave 42208
▁terroristes 42200
▁telling 42194
exportation 42194
3) 42194
▁Company 42192
▁murder 42189
vel 42184
▁regards 42178
enne 42170
hi 42169
▁situé 42131
▁ain 42128
▁picture 42124
▁tradition 42118
▁holding 42096
▁figurant 42095
▁managers 42089
▁permit 42057
▁host 42035
▁scale 42033
▁clé 42032
▁innovative 42010
▁appuyer 42005
▁Room 42004
▁asking 41999
* 41977
▁accountability 41952
▁conscience 41947
▁uns 41943
▁software 41931
▁présentée 41930
▁beau 41897
▁hier 41895
SA 41875
▁remaining 41846
▁Tom 41844
▁baisse 41831
▁manger 41802
▁envoyé 41791
▁examination 41776
arm 41772
▁col 41753
▁Second 41749
▁acting 41738
▁larger 41737
▁researchers 41737
▁arm 41708
expression 41701
éré 41696
▁bout 41691
▁efficacement 41684
ieux 41637
▁Ton 41630
▁chacune 41628
▁dépôt 41613
▁donateurs 41610
▁Both 41608
▁certainly 41600
▁commerciale 41573
▁questionnaire 41572
▁Dad 41565
▁2009. 41560
▁satellite 41558
▁voluntary 41520
▁75 41519
▁German 41510
▁étais 41507
▁Corporation 41498
▁collègues 41493
▁utilisation 41491
achat 41490
oo 41488
▁encourager 41478
▁recettes 41450
▁Pacte 41442
▁victime 41436
▁Ed 41435
▁cherche 41414
▁traitements 41405
▁pleine 41402
▁défi 41397
▁Attends 41397
▁membership 41388
▁peacekeeping 41388
▁textes 41361
▁choisi 41352
▁respective 41351
▁gamme 41348
▁finance 41344
▁malgré 41337
▁Sierra 41316
▁CC 41304
we 41297
ely 41279
▁souligne 41257
▁flow 41256
▁hausse 41252
▁idées 41236
▁Northern 41219
amp 41217
▁perform 41210
▁répond 41209
▁1994 41206
▁gain 41203
▁gagner 41182
▁perdre 41171
▁norme 41142
▁calling 41118
▁montré 41103
▁Mes 41090
day 41078
▁activement 41072
ules 41060
▁2009, 41051
▁choose 41045
▁pièce 41035
▁Partie 41026
.1. 41013
▁leader 41007
▁évaluations 41005
▁rich 41004
▁exploitation 40986
▁Res 40984
▁occurred 40983
▁files 40977
▁Food 40974
▁partis 40965
▁essais 40964
á 40961
▁ferme 40950
br 40946
▁Val 40940
▁engaged 40937
atives 40932
▁boulot 40899
▁continuent 40896
▁tomber 40883
▁fuel 40881
▁Administration 40881
▁invité 40853
▁Justification 40822
▁statistics 40820
environ 40819
▁multilateral 40807
▁lac 40793
▁Royal 40788
▁distinction 40781
▁plants 40772
▁designated 40767
▁targets 40757
▁confirmed 40756
▁pourcentage 40741
iés 40736
organisme 40735
▁Listen 40732
▁playing 40713
adhésion 40681
▁séances 40680
▁7, 40674
▁paragraphes 40666
▁appelle 40665
▁appris 40656
▁concrete 40642
▁preuves 40640
▁mérite 40638
▁born 40635
▁prie 40608
▁calcul 40602
▁Va 40555
bs 40543
▁résolutions 40543
▁raisonnable 40533
▁terrorist 40531
▁ONG 40524
▁complexe 40520
▁identification 40500
▁scène 40478
êtes 40465
▁cro 40444
▁uses 40437
▁producers 40433
▁rooms 40419
▁occur 40409
▁Sc 40392
oir 40384
▁Tra 40372
▁limits 40355
▁Israeli 40345
▁département 40329
▁learned 40322
▁hate 40298
oul 40290
son 40282
▁poser 40282
▁adoptées 40275
▁sert 40266
oss 40246
▁Papa 40240
DC 40237
CO 40216
▁sérieux 40210
▁fast 40206
▁doubt 40202
▁relève 40201
▁tri 40193
▁contributed 40179
ids 40174
▁relief 40159
voir 40154
▁Hi 40148
▁mid 40118
▁maintained 40117
▁accrue 40111
▁Col 40086
▁opinions 40076
5) 40070
ATION 40068
existe 40063
▁fields 40060
▁cur 40041
▁contracts 40037
-5 40023
▁commis 40022
▁mouvement 40016
▁Gra 40010
▁minority 40006
▁numerous 40002
▁vit 39989
▁career 39976
▁garantie 39969
▁ph 39957
▁submission 39956
▁territories 39942
▁médecin 39942
▁box 39940
▁décider 39934
▁55 39925
▁attendre 39912
▁vice 39909
approbation 39898
▁increases 39891
▁détermination 39874
▁continuera 39866
▁touch 39841
▁entend 39828
▁perhaps 39811
▁39 39808
ix 39805
▁Parmi 39804
TE 39802
70 39802
▁managed 39790
pes 39781
ep 39770
▁weight 39759
▁Sommet 39729
▁noter 39724
tait 39723
▁officielle 39685
ls 39680
.5 39679
▁James 39660
▁disarmament 39659
▁conflicts 39653
uss 39643
▁suivantes 39638
ème 39617
▁facility 39612
▁habitat 39608
▁spécifique 39606
▁entrepris 39603
▁bus 39598
▁sister 39592
▁pr 39589
▁sample 39589
▁utilisant 39563
▁Prime 39555
tionnelle 39551
▁(2 39549
ck 39532
où 39524
▁extensive 39507
▁opposition 39498
▁cellules 39493
ater 39488
1) 39478
▁seuls 39475
▁King 39472
▁Every 39465
enn 39460
▁établie 39458
▁Civil 39454
▁bal 39452
ena 39443
UNICEF 39443
▁animals 39435
▁bilateral 39427
ata 39423
▁CR 39406
▁déployés 39402
▁identity 39392
▁dangerous 39383
ME 39382
▁reflected 39372
éri 39370
▁400 39364
▁remplir 39361
▁expenses 39331
▁rappeler 39331
2) 39323
▁rencontrer 39320
▁1998. 39319
infrastructure 39319
▁Ass 39316
▁Defence 39292
▁Pacific 39284
▁Cons 39263
▁Today 39255
▁historique 39249
▁spéciales 39249
▁suffit 39246
▁allait 39245
▁devaient 39236
▁nine 39234
▁ill 39231
▁disabilities 39220
▁erreur 39210
▁meilleures 39198
rez 39195
▁Laisse 39194
▁Gaza 39190
PP 39188
▁track 39186
▁établis 39172
▁examined 39171
▁gains 39168
▁soutenu 39156
▁interview 39155
▁Compte 39155
The 39150
▁alive 39150
▁Really 39146
▁moved 39143
tics 39136
ront 39134
▁surprise 39133
▁intégrée 39127
ano 39122
▁Leone 39097
pr 39083
▁conclure 39074
▁carrière 39071
▁complètement 39046
▁comply 39035
▁opening 39028
▁Ceci 39027
▁conférences 39017
▁Does 39006
▁paiements 39000
rie 38993
▁EUR 38984
▁Initiative 38981
▁presentation 38980
▁subventions 38954
form 38949
▁Entre 38946
▁(199 38945
▁intellectual 38937
25 38933
▁feeling 38926
▁meant 38908
ices 38879
isée 38869
▁south 38848
▁facilement 38841
▁changing 38829
▁prends 38821
▁models 38820
▁northern 38811
▁bénéficier 38785
▁Support 38782
▁emplois 38780
▁interpretation 38772
▁aren 38762
▁Would 38757
▁determination 38757
▁comités 38753
▁Lors 38717
▁bo 38716
▁constitution 38699
▁réaction 38675
▁Lorsqu 38672
▁provinciaux 38669
élaborer 38662
▁firm 38648
▁obtenus 38641
▁compréhension 38631
▁fête 38615
RE 38610
▁bag 38601
▁essayé 38580
▁reconnaît 38571
▁availability 38567
▁user 38566
fer 38555
▁transit 38548
▁package 38530
▁civilian 38523
▁miss 38515
▁Following 38503
▁estimates 38481
▁promise 38478
▁connexes 38474
▁Ta 38463
▁expenditure 38458
▁reconnaître 38446
▁economies 38437
▁immigrants 38430
SS 38425
▁subsection 38416
▁temporary 38398
▁Democratic 38397
ible 38388
▁stade 38383
▁économies 38382
▁certification 38371
▁Pat 38368
ock 38355
▁timely 38335
▁UNICEF 38335
ual 38329
▁soumettre 38328
▁portion 38320
▁somebody 38291
▁becoming 38290
(2) 38272
▁passed 38267
▁exercice 38261
▁sold 38260
fin 38254
▁subsequent 38242
▁lie 38235
▁Premier 38235
▁dites 38230
iné 38209
▁entendre 38206
.) 38196
▁Te 38195
ica 38185
▁Étant 38185
▁rel 38182
▁Washington 38181
▁mental 38178
▁enc 38163
▁regarde 38163
▁log 38156
▁exposure 38140
▁climat 38134
qué 38133
ably 38125
▁sharing 38119
accueil 38093
▁Amendment 38090
▁cartes 38089
iquement 38089
usage 38086
ren 38079
▁actively 38073
▁Deputy 38070
▁cré 38069
▁poly 38055
▁télévision 38054
▁links 38053
▁Safety 38049
▁(200 38048
▁cold 38041
-200 38038
▁indeed 38018
▁revenir 38011
▁retrouver 38004
tées 37998
▁CH 37993
▁Maman 37988
▁motifs 37984
▁bat 37983
▁Mom 37978
ières 37978
▁carrying 37974
▁sec 37972
visionnement 37968
▁sm 37966
▁qualifications 37951
01 37947
uré 37942
▁budgets 37939
▁essentiels 37935
▁speaking 37932
ort 37930
▁Millennium 37911
▁rurales 37911
▁codes 37900
▁collected 37897
anti 37896
▁merde 37895
▁speed 37890
▁pleased 37884
▁Tax 37883
▁accepté 37871
▁length 37867
▁keeping 37851
▁classes 37847
DP 37843
▁ceci 37835
▁Aucune 37833
▁ser 37831
▁enhanced 37827
▁occasions 37816
▁maman 37816
unité 37806
▁consumption 37805
▁exactement 37803
vers 37790
▁usage 37780
▁instances 37769
▁0. 37768
▁laid 37766
▁exportations 37765
▁perfect 37763
▁latter 37748
▁seat 37743
▁prévus 37733
▁discuter 37713
▁solid 37705
ades 37691
▁emb 37687
▁déposé 37673
▁Their 37666
▁bons 37645
immigration 37640
▁Toute 37631
▁star 37625
autorisation 37613
▁stressed 37610
▁contenant 37610
▁annoncé 37607
▁chiffres 37601
ones 37599
▁investments 37598
▁percentage 37596
▁Transport 37591
▁category 37588
▁infrastructures 37579
▁looked 37574
exposition 37571
▁bringing 37569
▁containing 37556
▁recrutement 37554
▁dates 37513
▁formulation 37502
▁authorized 37500
ui 37493
▁assessed 37488
▁Turkey 37475
▁Geneva 37470
▁Trésor 37467
▁valid 37458
▁dollar 37457
▁adultes 37451
▁turned 37448
▁performed 37436
▁demonstrated 37434
▁empêcher 37429
erie 37420
tés 37418
▁procédé 37410
▁42 37399
enti 37387
▁missing 37380
ning 37377
▁School 37373
▁receiving 37370
▁lo 37360
▁requis 37360
▁papa 37359
▁aims 37356
▁multiple 37350
omb 37341
erez 37341
▁Chinese 37329
▁Iran 37329
▁journal 37324
▁pertes 37316
▁older 37314
▁patrimoine 37311
▁193 37294
▁happens 37292
▁Yukon 37289
▁strongly 37288
▁Veuillez 37285
▁patent 37278
ores 37270
▁expansion 37262
▁taxe 37247
▁database 37238
▁fixed 37222
▁supervision 37221
▁ca 37214
pt 37210
▁categories 37168
4) 37168
▁competent 37160
▁soldats 37160
parle 37155
ged 37149
▁Com 37138
ret 37137
▁concert 37130
▁deep 37129
▁EN 37129
▁responses 37126
▁respectively 37125
▁reality 37119
▁suggestions 37115
▁professionnel 37107
emb 37099
▁étapes 37092
▁pensé 37078
▁NGOs 37067
▁Quelqu 37042
interprétation 37042
▁pensez 37034
15 37030
▁Which 37022
aller 37019
▁pointed 37018
▁ball 37018
▁IP 37015
▁coeur 36999
12 36987
▁Cal 36984
.- 36981
▁engagé 36962
▁unités 36958
▁examples 36956
▁treated 36949
▁regarder 36942
▁complexes 36941
▁improvements 36937
▁Italy 36935
▁programming 36935
LE 36918
▁detention 36913
▁65 36913
▁gouvernementaux 36907
▁yours 36904
▁exécutif 36902
▁video 36900
issent 36886
ular 36873
▁el 36861
attend 36861
aj 36854
▁sick 36850
▁Industry 36843
▁rencontre 36843
▁culturels 36831
▁figurent 36821
▁features 36803
▁opened 36792
▁Chair 36777
uring 36777
▁équitable 36777
▁Nice 36765
▁convenu 36755
▁serais 36749
▁limitée 36748
▁38 36741
▁spread 36726
▁Middle 36723
urer 36721
TS 36717
▁island 36713
bre 36709
▁strength 36689
identité 36666
▁garçon 36661
ê 36659
▁Unit 36657
▁everybody 36648
▁Bonne 36643
▁enterprises 36628
TC 36618
▁ET 36613
▁actuelles 36604
▁déterminé 36590
▁budgétaire 36581
▁notion 36578
▁Ltd 36573
▁acte 36571
▁terrible 36566
▁instant 36566
▁44 36560
▁Chambre 36538
▁subvention 36530
▁prennent 36530
▁rémunération 36525
▁réel 36502
▁cadres 36497
▁Robert 36495
▁mentionné 36492
▁Mor 36467
▁possession 36454
▁noms 36453
▁combined 36449
▁gestionnaires 36449
▁Treasury 36430
▁characteristics 36420
▁emphasis 36415
▁vouloir 36398
▁Official 36393
▁properly 36387
Asie 36379
▁SC 36376
ester 36373
▁Directeur 36360
▁indiquer 36346
ailleurs 36340
▁Employment 36338
▁stages 36315
▁comporte 36315
▁Further 36311
▁précédent 36284
▁utiles 36274
▁tasks 36273
11 36272
▁reforms 36270
Ch 36242
▁behaviour 36236
▁crises 36234
▁réception 36209
▁Australia 36200
▁incident 36195
▁acquis 36184
▁figures 36177
▁Ukraine 36170
▁préoccupation 36162
▁spending 36157
▁garanties 36157
▁win 36144
▁exprimé 36082
▁dinner 36081
▁Aucun 36068
▁Aujourd 36060
Association 36039
▁Genève 36038
▁armés 36016
▁Work 36011
go 35990
▁réduit 35990
berg 35988
▁protocole 35986
▁utilise 35983
men 35963
▁arts 35957
ink 35932
▁relationships 35917
▁finances 35907
▁travaillent 35898
▁tort 35878
▁Nation 35871
▁sought 35862
▁Pe 35858
▁Spain 35844
▁Given 35843
▁modifié 35841
▁souviens 35839
arg 35833
tage 35826
▁drawn 35821
▁tenant 35821
▁Es 35813
▁Despite 35803
▁obstacle 35797
▁television 35776
SI 35774
▁obligatoire 35774
▁transaction 35764
▁ice 35763
▁constitute 35756
wood 35755
▁involve 35747
▁forced 35743
▁massive 35737
▁Network 35722
▁transparent 35720
▁diseases 35712
▁sexuelle 35704
accroître 35701
▁remboursement 35700
▁independence 35684
▁mauvaise 35671
▁demonstrate 35667
▁considers 35665
▁Budget 35659
▁paragraphs 35654
▁assume 35652
▁Commissaire 35652
▁chômage 35652
▁température 35652
/0 35629
▁rang 35613
né 35606
▁rentrer 35596
▁mutual 35591
7) 35587
acc 35585
▁marriage 35578
▁sac 35575
▁entrepreneurs 35572
issant 35571
▁décès 35567
▁ent 35562
▁psych 35557
▁1995, 35555
▁morts 35548
espèce 35536
tical 35529
ya 35524
▁motion 35517
▁summary 35508
▁permanente 35503
▁Ses 35498
▁CE 35497
IA 35496
▁préalable 35480
▁grow 35477
▁pur 35471
▁pénal 35471
DE 35469
▁sets 35468
▁culturel 35459
▁invités 35454
aurait 35437
▁exemples 35436
▁Ré 35430
▁incidents 35428
iées 35417
armée 35408
ider 35397
▁park 35396
▁pol 35389
dy 35387
▁américain 35386
va 35377
▁respectivement 35375
▁revenue 35365
▁chargée 35359
den 35347
▁bet 35334
▁enregistré 35326
so 35324
▁banques 35319
ising 35313
▁allocation 35299
mp 35284
▁middle 35273
▁sauver 35263
▁menaces 35255
▁dangereux 35247
éviter 35240
▁Three 35231
▁régimes 35222
▁Pays 35218
ération 35206
.. 35202
▁sell 35199
▁funded 35195
▁Joint 35194
▁piece 35192
▁experiences 35176
▁birth 35166
▁servi 35165
Al 35159
▁seeking 35151
▁futur 35151
▁fasse 35149
▁Mary 35139
▁unable 35135
▁répondu 35132
▁indépendant 35131
▁mm 35124
▁amendements 35122
▁Malgré 35116
▁Certaines 35107
▁sports 35105
▁présentent 35096
▁FC 35086
▁Covenant 35082
▁exp 35080
▁Prince 35077
▁participated 35071
▁returned 35063
▁41 35052
MP 35051
▁interesting 35050
▁Mexique 35048
▁expenditures 35017
▁fit 35014
▁apporté 35014
▁thème 35006
▁municipal 35003
▁integrity 34995
▁radi 34979
▁fees 34979
▁somme 34974
▁quatrième 34968
att 34963
▁né 34945
▁Society 34942
▁emerging 34942
▁maintaining 34935
▁bear 34925
ature 34918
▁Juste 34916
▁Labour 34915
ran 34907
▁dém 34906
▁négociation 34905
▁appropriées 34896
▁incorporated 34872
▁imposed 34867
▁climatiques 34865
▁Ag 34856
▁secondary 34849
▁Port 34844
▁Représentant 34827
▁chemical 34812
▁vivent 34810
▁fear 34794
▁facing 34792
▁pos 34789
▁Technology 34785
Ar 34785
ush 34782
▁vulnérables 34781
ication 34776
lo 34776
mail 34773
▁procurement 34771
érer 34769
▁meaning 34762
rons 34751
▁eau 34740
▁vaut 34739
▁London 34724
▁stupid 34716
▁mobile 34702
▁coverage 34695
▁controls 34692
▁substantive 34670
atic 34670
▁démarche 34665
oud 34662
quent 34658
▁completion 34654
▁extend 34645
▁$2 34633
▁cells 34621
▁représentation 34618
▁experienced 34617
▁médicaux 34616
appelant 34616
▁dispute 34599
▁Turquie 34585
encontre 34583
▁valoir 34581
▁argent 34558
▁possède 34539
▁tiendra 34539
▁Min 34533
▁Branch 34524
▁cou 34523
▁acc 34511
▁arrêter 34508
▁firms 34497
tit 34490
▁tendances 34490
▁1993 34480
oth 34478
▁explained 34469
▁arrêté 34469
▁pertinents 34460
▁street 34458
▁équipes 34455
▁Fr 34454
▁CIHR 34449
▁trends 34441
▁fondé 34438
ouest 34436
ition 34426
▁montrent 34425
▁Land 34417
▁mené 34404
▁heritage 34358
▁communs 34356
▁juges 34347
▁constant 34346
▁coin 34345
▁Toi 34344
▁sûreté 34329
▁poursuite 34329
▁films 34319
▁diminution 34317
ey 34316
▁sois 34315
▁proche 34310
▁habitants 34306
▁drop 34295
▁désolée 34293
▁connaît 34290
▁entities 34278
▁sé 34266
▁ge 34265
▁quitter 34249
▁Spanish 34248
▁eye 34245
▁considérer 34219
équipement 34212
lui 34199
▁âge 34190
▁visible 34186
▁terminé 34184
▁culturelles 34178
▁dog 34177
▁objet 34175
▁qualified 34163
▁Cap 34157
▁arabe 34151
▁threats 34145
aï 34135
▁naturel 34132
▁financer 34126
▁viol 34120
▁constaté 34109
▁1992 34105
▁organisée 34101
▁menée 34096
▁budgétaires 34089
▁loc 34085
▁extension 34084
▁accordée 34083
▁essayer 34079
▁attacks 34066
▁tonnes 34065
▁input 34061
ama 34060
▁conduit 34060
▁adolescents 34057
▁prévoir 34055
▁contrôler 34053
ives 34030
▁présentes 34029
▁approprié 34025
▁accomplis 34018
▁representation 34005
▁customers 34001
▁échéant 33986
▁indicates 33983
▁easily 33981
▁union 33974
▁peaceful 33969
▁continué 33965
▁licences 33964
▁chair 33963
▁élevée 33963
▁vitesse 33960
▁Ge 33956
▁DES 33940
▁Bi 33933
▁inclusion 33932
▁individus 33931
▁detail 33924
▁culturelle 33918
avaient 33912
▁treaties 33910
abilité 33897
▁limiter 33895
▁Har 33894
ï 33892
▁Laissez 33892
▁lire 33886
▁dén 33884
▁2010 33875
▁fortement 33875
▁accepter 33863
ple 33857
▁établies 33849
▁sûre 33835
gra 33830
▁compar 33827
uit 33819
▁Black 33812
▁populaire 33808
▁Green 33785
▁couverture 33785
▁étroite 33782
▁soi 33774
▁Mark 33771
row 33763
▁voice 33748
▁frontière 33743
tier 33739
▁Arrête 33736
▁attempt 33735
▁gentlemen 33718
▁appropriée 33703
▁telephone 33700
▁auxquelles 33700
OMC 33696
▁write 33694
▁initiated 33686
▁150 33684
▁hair 33678
▁che 33665
II 33662
▁spécialistes 33661
▁believes 33644
▁remercie 33634
▁continu 33633
▁porté 33629
▁flux 33621
▁nommé 33616
Allemagne 33613
▁actuels 33608
▁spéciaux 33607
ked 33605
▁électroniques 33591
▁background 33588
▁banque 33587
▁effectivement 33577
île 33576
▁récente 33546
▁healthy 33541
▁Several 33538
▁livres 33535
▁visent 33535
IE 33533
▁gé 33527
▁Through 33515
▁favorable 33514
▁temperature 33506
▁reading 33505
▁Regardez 33502
▁workshop 33500
▁indiquent 33489
rit 33484
▁forêts 33478
appliquent 33474
▁Statistics 33465
▁témoins 33459
▁multiples 33452
▁voulons 33443
▁Water 33432
▁considering 33429
▁économie 33421
▁candidat 33420
▁hôtel 33418
▁Hold 33415
erg 33398
▁papier 33397
▁spend 33396
▁Netherlands 33395
▁Day 33389
Orient 33379
▁wishes 33378
▁investigations 33370
▁purchase 33368
▁Portugal 33350
▁targeted 33347
▁drogue 33346
▁rencontré 33345
▁pouvaient 33342
▁undertake 33339
▁pire 33338
▁soil 33337
▁greatest 33334
▁courage 33327
▁sk 33320
▁vidéo 33303
▁nearly 33299
▁dose 33299
▁prochaines 33292
▁damn 33288
▁arguments 33276
▁Millénaire 33271
▁bro 33256
uel 33256
▁détenus 33249
▁institu 33248
rou 33237
▁alimentaires 33225
atoires 33205
▁marques 33199
▁43 33187
▁achievement 33181
opinion 33174
▁ventes 33168
▁destinées 33137
ited 33134
▁augmenter 33124
chez 33121
PR 33120
adopter 33113
▁mineurs 33105
▁8, 33099
▁latest 33098
▁scheduled 33094
▁travaillé 33090
▁Rem 33087
▁avais 33086
▁humanitaires 33079
gh 33068
▁profiter 33059
▁téléc 33045
▁concernées 33023
▁futures 33018
SE 33017
▁slow 33009
▁assigned 33003
▁offerts 32988
▁liée 32988
▁dig 32978
▁believed 32962
ight 32953
▁cities 32948
▁seriously 32945
▁familiale 32945
▁PC 32927
▁offert 32917
▁fourniture 32917
ford 32916
impression 32914
▁Heritage 32910
▁lecture 32905
BC 32870
▁named 32861
▁annuelle 32860
▁delay 32858
▁café 32856
▁cru 32847
▁sortie 32843
▁catch 32830
▁pres 32828
▁verre 32827
▁orders 32817
intermédiaire 32804
▁naissance 32802
▁prête 32795
▁universal 32789
ear 32758
▁Corée 32753
▁gauche 32751
wide 32746
▁existants 32736
ettes 32735
▁heavy 32715
▁refus 32714
▁viennent 32708
▁appuie 32705
▁glad 32697
▁season 32697
▁milliers 32690
▁judge 32689
▁unemployment 32675
ki 32674
▁employed 32673
▁brevets 32672
▁valuable 32669
vi 32651
▁Peace 32647
▁panel 32640
▁er 32639
▁Form 32629
▁decline 32624
▁boss 32624
▁Martin 32607
▁Super 32606
▁banks 32596
▁constituer 32595
ète 32586
▁professionals 32581
ager 32578
▁poisson 32576
▁Mike 32572
▁espèce 32563
PI 32562
▁distinct 32561
▁statistical 32553
▁abroad 32549
ery 32548
▁directe 32545
▁Acc 32532
ablement 32530
▁assessments 32512
▁donnent 32497
▁preliminary 32495
▁essentielle 32479
▁professionn 32473
▁modes 32460
▁satisfaire 32457
▁committees 32452
â 32451
DI 32447
▁év 32438
▁Training 32432
orte 32432
▁serai 32427
ING 32423
▁Korea 32415
▁vues 32414
ili 32408
▁Before 32407
offrir 32397
▁vingt 32396
▁él 32390
▁touche 32379
▁Brazil 32378
▁95 32368
75 32352
FC 32338
An 32334
▁77 32332
▁sentiment 32331
▁importations 32325
▁protecting 32320
▁Ph 32317
TR 32312
▁192 32305
▁dimensions 32299
▁calme 32295
▁demi 32286
▁expliquer 32280
▁8. 32277
▁venue 32256
▁dynamique 32245
▁1997. 32243
▁Ver 32243
▁mor 32241
▁expériences 32223
▁specialized 32215
▁dra 32205
▁supérieure 32204
▁namely 32191
▁Mont 32187
onner 32187
▁Merde 32187
▁Société 32186
▁Ac 32183
▁portent 32180
▁cuisine 32178
▁standing 32172
▁argument 32168
▁sta 32161
▁− 32147
œuvre 32144
ony 32127
▁législatives 32125
▁contribue 32125
▁privés 32120
▁critique 32115
▁student 32110
▁totalement 32105
▁reviews 32104
▁import 32102
▁savons 32086
▁poissons 32085
EA 32084
▁acid 32084
▁accordé 32083
▁sou 32078
▁periods 32059
iée 32052
quée 32049
▁foot 32047
í 32046
▁sensitive 32043
▁hom 32040
eurs 32031
▁IRSC 32021
▁sommet 31999
▁Inuit 31996
▁proposée 31996
▁incidences 31994
▁partager 31982
▁largely 31980
vent 31980
▁administrations 31977
▁LE 31971
▁distributed 31963
aines 31949
▁Cooperation 31931
intégrité 31926
elling 31913
▁touchant 31898
▁soin 31888
▁camps 31882
▁Combien 31877
hôpital 31872
▁rapid 31849
); 31846
ologiques 31840
-6 31837
▁allant 31830
arrêter 31829
▁médecins 31824
▁états 31823
▁variables 31817
▁directed 31813
▁intéressés 31789
▁Ste 31777
CP 31762
▁actors 31744
▁neither 31737
operation 31726
▁navires 31716
▁burden 31712
▁suspect 31706
▁Ann 31687
▁pilote 31687
▁restent 31685
▁Control 31676
▁évident 31670
▁advanced 31662
▁Foundation 31661
▁participent 31661
▁injury 31659
▁indication 31657
▁dream 31657
▁allocated 31652
▁determining 31640
▁Faites 31623
▁widely 31616
▁exposé 31612
▁cher 31611
▁composé 31611
▁meurtre 31609
opération 31608
▁concepts 31603
▁Chamber 31601
▁bénéficiaires 31600
▁gar 31598
▁Put 31596
+ 31596
▁Indeed 31581
▁conserver 31572
▁university 31571
ani 31571
▁involves 31565
▁electoral 31565
▁prove 31559
▁inclus 31559
DA 31554
▁Palestine 31551
▁outil 31550
ologique 31540
▁appreciation 31539
▁soutient 31534
entretien 31518
▁proud 31505
▁entités 31504
oun 31501
▁semblent 31499
▁refuse 31492
▁résidence 31487
▁Vas 31479
▁scolaire 31473
OL 31471
▁exports 31470
▁séjour 31463
▁préciser 31451
▁Pacifique 31445
▁accession 31437
incidence 31420
▁inspection 31417
▁navigation 31415
▁faibles 31415
CT 31408
▁flight 31401
▁offrent 31397
▁IT 31394
oles 31381
▁becomes 31379
▁députés 31379
ians 31370
/6 31368
▁complainant 31367
▁WTO 31366
▁remise 31352
▁Charlie 31350
▁demands 31346
oi 31342
Bas 31335
ark 31332
▁bras 31327
▁seeing 31303
▁destiné 31298
▁explique 31291
▁resolve 31283
ect 31282
▁routes 31278
▁fr 31270
▁proposées 31269
▁chapter 31267
▁chaîne 31255
▁Assessment 31250
▁technological 31247
▁quelles 31239
▁occupation 31231
ture 31229
OP 31215
▁intégré 31208
▁van 31192
▁souci 31192
6) 31188
▁posts 31187
ires 31171
▁tourisme 31171
/5 31170
UT 31165
ult 31160
▁Very 31155
ume 31154
▁fourth 31152
▁31, 31148
acquisition 31133
▁finale 31128
▁attached 31126
▁rare 31126
ori 31121
▁officiel 31113
▁accounting 31107
▁Family 31106
▁residence 31105
▁Stratégie 31098
▁dommages 31098
▁digital 31090
▁judges 31078
▁transferred 31076
▁Pre 31074
▁river 31074
▁secours 31074
▁fighting 31063
8) 31041
▁generation 31035
▁sn 31033
▁africaine 31033
▁montants 31032
▁voies 31024
▁formed 31021
▁AND 31017
▁joined 31016
▁secondaire 31007
▁rivière 30993
▁Excusez 30993
▁lié 30991
▁puisqu 30988
▁moral 30985
-8 30969
▁adjoint 30968
▁mettant 30966
▁CS 30965
▁contrôles 30964
▁masse 30962
▁Rec 30942
cul 30935
▁Sure 30935
▁précisément 30926
▁constructive 30920
▁rendez 30915
▁étiez 30914
oe 30912
▁effectuer 30910
▁universités 30905
▁dispositif 30900
identification 30892
▁Del 30878
▁1991 30878
port 30873
▁dec 30870
▁bill 30867
▁facts 30851
▁conçu 30840
▁outstanding 30835
▁Call 30826
▁preparing 30820
▁9, 30806
isées 30801
▁appels 30795
▁10, 30775
époque 30768
▁inv 30765
quant 30762
▁exposés 30748
▁quartier 30744
▁âgées 30744
▁uniform 30743
▁thereby 30741
▁arrest 30733
▁mondialisation 30730
▁Ireland 30722
HR 30704
▁toward 30690
itée 30685
▁Comp 30676
▁Latin 30673
▁autorisé 30672
▁attitude 30659
▁surveiller 30659
▁marks 30645
ending 30643
▁introduce 30639
▁visés 30625
▁10. 30621
▁néanmoins 30620
▁remettre 30620
▁declaration 30612
», 30598
▁particulières 30594
▁carbon 30585
▁sun 30576
▁limité 30564
▁criminalité 30557
▁voyez 30556
▁structural 30547
▁handicapées 30545
▁flexibility 30541
▁disposer 30530
▁pan 30525
▁admissibles 30517
▁énergétique 30504
ender 30499
▁closer 30484
▁Rules 30470
▁fisheries 30457
▁Task 30442
rés 30442
▁li 30440
▁Nova 30437
▁dumping 30435
▁weak 30432
exception 30429
▁calendrier 30421
▁PME 30418
▁moteur 30416
▁wall 30406
▁Brésil 30406
▁outlined 30401
▁signe 30399
▁conc 30387
▁worse 30379
▁minorities 30376
▁Moyen 30369
▁tabac 30362
▁roles 30359
▁Burundi 30356
atteindre 30354
▁trend 30353
▁customs 30343
lin 30340
▁anciens 30338
▁appreciate 30322
▁willing 30315
▁mat 30306
▁device 30297
▁Charles 30294
▁dealt 30292
▁dép 30288
▁Help 30280
▁installation 30279
▁copie 30273
▁effectuées 30263
qués 30247
▁Region 30244
▁trip 30244
ished 30214
90 30210
▁anyway 30206
▁wh 30186
▁Autochtones 30183
sible 30179
▁x 30172
▁soldiers 30168
▁préserver 30164
▁imports 30163
▁retourner 30163
arch 30159
▁fruit 30156
▁Ter 30154
ving 30149
▁envie 30149
▁faced 30147
▁lettres 30139
hor 30131
ended 30128
▁teams 30103
▁teachers 30101
▁handle 30098
oin 30096
▁cal 30092
▁déclare 30087
▁viable 30083
▁ratio 30081
▁rock 30072
▁fee 30065
▁ob 30061
▁clause 30060
%) 30058
▁strengthened 30057
▁understood 30057
isant 30057
alimentation 30057
▁chargés 30051
house 30048
▁Lord 30048
▁différent 30048
born 30040
▁85 30024
▁découlant 30013
▁departmental 29995
▁combattre 29993
▁Di 29992
uck 29986
tte 29980
issue 29975
▁Joe 29969
▁div 29963
▁accidents 29962
▁books 29951
bo 29945
▁twenty 29941
▁pétrole 29932
▁capitale 29931
appuyer 29928
side 29914
▁funny 29906
▁happening 29902
▁évidence 29902
▁map 29892
▁Use 29884
▁tables 29881
▁recruitment 29877
▁coll 29871
▁suspension 29868
▁actifs 29868
▁cong 29867
▁avantage 29859
▁Was 29848
▁Home 29840
▁ment 29838
▁permission 29837
▁réussite 29834
Iraq 29821
▁éliminer 29813
▁mortalité 29809
▁tourism 29808
▁updated 29800
▁puissance 29797
itor 29794
cadre 29794
▁formule 29783
ram 29777
▁storage 29768
▁invitation 29763
▁directeurs 29756
▁mad 29744
▁brain 29743
DS 29728
▁effectuée 29728
▁voisins 29724
▁titulaire 29723
ç 29719
erai 29719
▁* 29701
▁coordinated 29692
▁esprit 29683
▁plate 29675
▁développés 29675
▁ourselves 29674
▁ok 29660
▁existantes 29656
▁lady 29655
▁agir 29652
▁conformes 29638
▁bâtiment 29622
▁residents 29621
▁historical 29617
▁southern 29601
inquiète 29596
▁fix 29589
▁Earth 29587
▁bitch 29580
▁shut 29578
▁solide 29578
▁Attendez 29575
▁providers 29568
mar 29567
▁Rwanda 29566
▁Data 29566
▁phénomène 29557
▁Out 29551
▁cinquante 29545
▁morte 29543
▁administratif 29536
▁privées 29531
▁anniversaire 29528
▁Customs 29525
avec 29519
observation 29519
indépendance 29513
▁Long 29511
▁contribuent 29503
▁evening 29502
▁Henry 29502
ga 29497
▁sorti 29496
GE 29487
▁farm 29485
erais 29481
▁PCT 29477
▁putting 29475
▁smaller 29474
pri 29466
▁About 29462
▁intéressant 29461
▁rédaction 29448
▁partenaire 29447
▁occupé 29444
▁Néanmoins 29437
▁schedule 29427
▁Max 29420
▁interdit 29415
▁9. 29404
▁nourriture 29404
▁Open 29400
▁mesurer 29398
▁Fisheries 29393
▁allowing 29391
▁identifying 29386
▁title 29383
▁brut 29383
▁fruits 29369
MA 29363
IV 29362
▁Everything 29358
ries 29352
▁Nouveau 29346
▁cible 29342
▁Richard 29340
▁favor 29339
▁regret 29334
▁inclure 29322
▁Finance 29318
▁quick 29305
▁driving 29299
13 29299
▁removed 29296
za 29296
▁parlementaire 29293
inal 29291
▁appeler 29290
▁careful 29286
▁expectations 29281
▁Got 29279
▁ve 29277
▁Captain 29263
▁consacré 29260
ky 29259
▁apparent 29249
entreprises 29247
▁immigration 29246
▁farmers 29243
▁conversation 29232
▁undertaking 29231
@ 29208
sions 29201
ering 29198
▁Ber 29196
▁moindre 29190
▁realize 29188
▁pool 29178
cu 29176
▁measured 29162
▁mémoire 29142
alcool 29141
▁charged 29131
illé 29131
▁Science 29124
▁confirm 29117
▁ownership 29114
▁privacy 29110
▁blanc 29110
▁moderne 29109
kes 29107
▁proposer 29107
▁Switzerland 29106
▁bra 29105
inscription 29101
▁officiels 29100
▁visage 29099
▁anybody 29096
ister 29092
▁Fl 29090
▁vendre 29084
▁employé 29073
▁cycl 29072
▁organizational 29043
▁habituellement 29041
▁1994, 29035
▁répondants 29035
▁supplies 29031
▁sentence 29025
▁retrait 29023
▁repose 29020
▁pal 29019
= 29016
45 29012
▁Headquarters 29001
▁avenir 28999
▁visées 28999
▁périodes 28995
ü 28983
Inde 28972
▁Chapter 28968
▁harm 28964
▁pensions 28963
▁Première 28961
enc 28957
hn 28947
▁Accordingly 28943
▁dos 28940
▁exists 28938
▁considérés 28934
▁mur 28932
▁fault 28930
▁Dès 28911
▁del 28902
ss 28898
▁réellement 28898
▁Pardon 28879
▁Trois 28875
occuper 28869
▁signalé 28866
▁lancer 28858
▁wind 28855
orn 28851
▁conduire 28836
▁Ici 28832
▁claimant 28814
▁White 28802
▁tire 28801
arc 28801
▁établissement 28794
atoire 28791
▁discours 28789
▁pouvais 28770
▁huge 28766
▁Energy 28757
▁Venez 28754
▁hor 28753
▁gross 28745
▁male 28742
▁impose 28741
▁devices 28739
lle 28736
ella 28733
▁periodic 28729
▁teaching 28719
▁affairs 28716
▁décide 28715
▁Six 28709
emp 28705
▁Louis 28704
▁donors 28703
▁quit 28697
ham 28693
.2. 28675
▁fell 28671
▁dedicated 28665
▁pat 28665
affectation 28663
▁chosen 28653
▁fresh 28652
organisations 28644
▁den 28643
▁constate 28640
ately 28627
▁totally 28622
▁Team 28622
▁traditionnels 28621
▁depend 28601
▁flexible 28586
▁liability 28586
▁Jusqu 28576
▁Sea 28564
▁permettrait 28562
▁barriers 28561
eck 28555
▁manifestations 28555
▁Appeal 28553
▁payé 28550
see 28548
▁compétitivité 28544
▁placement 28521
▁croyais 28500
▁Trust 28499
▁envisage 28498
35 28494
▁AC 28489
▁aérien 28485
▁libertés 28484
▁ferait 28484
▁store 28475
▁ir 28457
▁certainement 28454
▁arme 28444
▁estimations 28438
▁ressort 28437
▁échange 28433
▁reproduction 28430
key 28426
▁collect 28425
▁putain 28421
▁witness 28414
▁suicide 28404
▁54 28403
economic 28397
fully 28395
▁Cas 28395
▁primaire 28394
ange 28385
▁saison 28384
▁DU 28375
▁exclusive 28363
▁Permanent 28356
▁récentes 28340
▁subs 28334
gl 28333
▁shoot 28332
▁shouldn 28329
▁palestinien 28318
▁traditions 28315
rage 28309
▁Order 28304
▁Legal 28295
sc 28295
▁Decision 28285
▁orientation 28276
▁encouraging 28268
▁bateau 28262
▁Street 28255
▁Mc 28253
▁présents 28246
▁Nevertheless 28242
▁manager 28241
▁VI 28240
▁foi 28240
▁honor 28236
▁Outre 28236
▁arrangement 28221
▁thousands 28213
▁internationally 28210
▁rouge 28210
▁decrease 28209
▁améliorations 28206
▁Agriculture 28205
▁%, 28201
▁regularly 28198
▁ST 28186
▁difficiles 28179
▁successfully 28177
pol 28166
▁budgetary 28164
▁Dites 28163
▁Bra 28162
▁2010. 28150
▁faux 28147
ding 28144
▁191 28125
▁easier 28120
▁étroitement 28114
▁conseiller 28104
tin 28099
▁droite 28099
▁découvrir 28092
▁buildings 28071
▁combination 28071
▁mg 28059
▁CEE 28057
▁intitulé 28054
▁salaire 28052
▁consentement 28050
▁drinking 28042
▁president 28041
▁pursue 28030
▁offence 28027
asile 28009
entente 28007
▁follows 28006
▁étudier 28006
ows 28001
ened 27996
▁fournissent 27990
▁dear 27989
ishing 27988
▁fondamental 27986
▁étrangère 27986
▁productivité 27979
ency 27977
inspection 27966
▁feet 27961
▁alleged 27961
▁reb 27960
▁GR 27956
▁reflects 27949
▁broader 27947
apporter 27940
ily 27938
▁foster 27936
▁1996. 27924
▁excessive 27917
▁planète 27904
▁equivalent 27892
▁Mo 27892
introduction 27881
▁brief 27877
▁concrètes 27874
iling 27862
no 27860
▁workshops 27859
usion 27856
▁allé 27855
▁none 27839
▁provisional 27838
équité 27838
▁quarter 27834
▁côte 27830
▁exact 27828
▁consult 27820
interdiction 27815
▁Euro 27813
▁Keep 27810
▁domicile 27799
érée 27784
ech 27779
▁ira 27763
ola 27762
▁49 27760
▁avions 27752
▁certificat 27748
▁opération 27745
▁confirmé 27738
▁Operations 27735
▁contrary 27730
igne 27727
▁deemed 27724
▁worldwide 27708
▁employers 27703
▁Could 27691
ening 27681
▁offences 27674
▁visiteurs 27673
▁corporation 27672
▁indications 27672
▁clinical 27664
▁orientations 27664
▁chérie 27664
ense 27653
▁46 27652
® 27645
Canada 27643
▁ordinaire 27642
▁fondamentales 27636
▁correspondant 27631
▁Amérique 27624
▁dîner 27621
▁adverse 27620
isent 27617
til 27615
▁chien 27611
▁jugement 27607
Internet 27606
▁constitué 27605
▁accorder 27601
▁Based 27597
▁wood 27592
▁universities 27589
▁mi 27577
DR 27575
▁soirée 27571
quées 27568
agir 27554
▁gre 27551
▁Affaires 27546
▁armées 27544
▁Sustainable 27537
États 27535
▁Gr 27534
▁noir 27534
AB 27531
▁axée 27526
▁Youth 27520
▁mess 27517
▁infractions 27516
▁oublié 27509
▁highlighted 27507
▁counsel 27506
-19 27506
▁ring 27497
▁civilians 27497
▁Sudan 27493
▁amie 27493
▁perd 27488
▁Winnipeg 27478
▁dépit 27477
pre 27473
gr 27470
▁coffee 27469
▁apprendre 27462
habitat 27462
▁normally 27450
▁rose 27436
▁(3 27430
▁fournies 27427
▁endroits 27423
▁popular 27421
▁12, 27402
▁dry 27395
TM 27379
▁welcomes 27371
▁visites 27359
▁exceptions 27356
▁thèmes 27350
▁Là 27349
▁Main 27342
atch 27340
▁tiré 27330
▁Fort 27329
▁Encore 27329
uch 27328
▁donor 27325
Add 27325
▁effectués 27319
bes 27313
▁° 27313
▁constater 27312
▁57 27309
▁ferai 27309
▁mortality 27305
▁1990, 27303
rant 27298
▁luck 27292
▁requises 27292
▁spring 27291
rop 27283
▁résistance 27283
▁Friday 27273
met 27272
▁Kenya 27267
act 27266
▁précédente 27261
▁reserve 27252
▁honour 27247
▁Ray 27246
ala 27241
▁statistique 27239
▁Mil 27234
▁motif 27231
▁intéressées 27229
▁army 27223
▁racial 27222
▁profession 27212
▁absolument 27209
▁témoin 27208
▁Scotia 27207
▁jeunesse 27200
▁initiale 27195
▁idiot 27194
▁revenues 27191
▁Should 27188
ö 27188
▁conserv 27185
▁visits 27185
▁publicité 27184
▁%. 27182
▁variation 27172
▁representing 27171
▁requérant 27169
▁enjeux 27164
▁Access 27163
▁géographique 27162
▁tenus 27158
▁subsequently 27154
▁speakers 27147
▁powerful 27145
▁quels 27144
▁Bosnie 27138
▁probable 27135
▁straight 27133
14 27131
ert 27130
▁%) 27123
MS 27120
▁emphasized 27109
▁faith 27108
▁suprême 27103
▁hyper 27102
Etat 27097
▁hang 27093
itaires 27092
▁define 27091
onné 27082
▁climatique 27079
free 27078
back 27078
▁helps 27075
▁suitable 27072
▁fixe 27072
▁patron 27070
▁voting 27063
▁fixé 27063
▁reprises 27062
▁claire 27052
▁offering 27049
▁Care 27044
▁aidé 27041
▁football 27039
▁couleur 27038
▁yesterday 27026
▁remplacement 27021
GR 27012
▁mont 27011
▁essentielles 27002
UL 27000
▁Chef 26996
▁défaut 26994
▁perfectionn 26990
▁inscrits 26987
osi 26985
▁productivity 26984
▁proceed 26979
▁disability 26966
▁Journal 26963
▁Bosnia 26962
▁Montreal 26959
▁respondents 26959
▁Contracting 26957
▁machines 26951
▁garçons 26951
▁biennium 26940
▁scheme 26932
▁milieux 26927
▁avocat 26921
▁till 26906
▁bu 26906
field 26906
erv 26905
▁Nunavut 26904
▁award 26902
▁disposal 26899
▁cre 26892
rée 26891
▁Luxembourg 26890
▁Hall 26886
▁programmation 26883
honneur 26869
▁depends 26868
assi 26868
▁américaine 26865
▁Suisse 26864
▁positif 26864
▁entrée 26861
▁susceptible 26860
▁applying 26857
▁managing 26856
▁Museum 26856
▁malade 26850
ays 26833
00. 26832
▁Peu 26832
▁villages 26824
▁Côte 26823
▁honey 26793
▁trou 26788
▁15, 26784
▁proximité 26784
endant 26777
▁dommage 26772
▁russe 26770
Ex 26758
▁permettront 26756
Alberta 26755
ious 26751
▁winter 26749
istic 26748
installation 26744
rai 26743
▁interaction 26741
▁Su 26728
▁Um 26728
▁song 26726
▁limitations 26724
▁waters 26718
▁11, 26714
▁vin 26703
▁suffering 26700
▁Smith 26696
itch 26684
▁dark 26674
▁loved 26672
▁Ke 26670
▁judiciaires 26670
adaptation 26656
▁ladies 26650
▁functioning 26650
▁Eastern 26644
arrêt 26627
▁historic 26625
▁Sweden 26623
▁audience 26623
▁evaluate 26623
WP 26621
▁actif 26620
esp 26619
▁mail 26616
▁argued 26606
▁solidarité 26599
▁suggests 26596
▁56 26586
▁compromis 26580
ications 26579
▁similaires 26576
▁tariff 26574
ols 26566
▁monétaire 26563
▁Ni 26560
acquitter 26551
▁défendre 26550
mm 26541
▁parlementaires 26541
▁1980 26540
▁lawyer 26536
▁titres 26526
ive 26524
▁600 26522
▁Monday 26520
▁variations 26519
▁pun 26507
▁Grande 26504
▁parfait 26501
▁entière 26498
endroit 26492
▁utilisent 26488
▁laboratoire 26487
▁voyages 26473
▁capabilities 26471
▁Jo 26470
alisé 26459
▁lessons 26457
ands 26449
▁Last 26443
fl 26443
▁88 26438
▁disponibilité 26437
LA 26431
▁reprise 26425
▁rail 26419
▁tobacco 26415
▁governing 26412
▁cat 26405
▁lived 26400
rid 26392
▁manufacturing 26379
ake 26379
▁gap 26375
occupation 26374
▁competitiveness 26371
▁imm 26371
▁ran 26365
▁enhancing 26360
ney 26357
▁couvrir 26355
▁revient 26354
▁segment 26351
iel 26350
▁Supreme 26349
▁feed 26345
▁str 26344
▁appartenant 26343
▁pieds 26341
▁supérieurs 26336
▁congé 26332
▁consists 26331
▁Directorate 26328
▁profil 26326
▁mettent 26311
▁fonctionne 26306
▁disaster 26305
▁Nick 26305
▁58 26299
▁executive 26297
▁Implementation 26292
▁dance 26291
-7 26284
▁conjoint 26275
▁bizarre 26270
▁binding 26269
▁Av 26267
▁asylum 26267
▁Mer 26261
▁Fe 26260
▁Nor 26257
▁sitting 26252
électricité 26242
enfance 26241
▁ressemble 26239
▁ride 26236
▁green 26235
▁futurs 26233
▁diverse 26231
▁commande 26228
▁sanction 26227
▁master 26224
▁médical 26216
▁biennal 26210
▁énoncés 26209
▁trained 26208
▁discipline 26207
▁52 26202
▁caught 26200
▁informer 26189
▁penalty 26181
▁prioritaires 26181
▁RE 26174
▁cach 26171
▁EX 26169
▁gentil 26168
▁prévisions 26166
vez 26159
▁Strategic 26158
▁proof 26152
▁qualités 26150
▁recommend 26145
▁os 26143
aujourd 26143
▁approches 26133
▁docteur 26129
▁temporaire 26128
▁pêches 26124
▁covers 26123
▁infection 26123
▁scared 26119
▁satisfied 26114
▁Ins 26109
▁explore 26106
▁propriétaire 26103
▁lay 26095
▁réelle 26086
aucune 26086
▁Major 26082
▁eliminate 26081
▁mouth 26081
▁contributing 26078
▁Bal 26076
dis 26073
▁majeure 26073
▁envisager 26068
▁formulées 26058
▁habit 26057
▁affecting 26049
▁Réunion 26047
▁croit 26033
▁index 26032
▁displaced 26031
aster 26027
▁rappelé 26026
▁necessarily 26015
▁innocent 26009
:00 26007
▁américains 26006
▁indépendante 26005
▁assurance 26002
▁matériaux 25998
▁catastrophes 25994
▁weather 25993
▁constitutional 25988
▁blue 25987
▁patterns 25984
ura 25977
▁devriez 25976
▁conclude 25975
▁cod 25971
▁covering 25971
▁$3 25969
▁answers 25965
uns 25963
▁lacunes 25963
▁Hy 25957
▁considérables 25957
▁controlled 25953
ved 25947
▁acquisition 25945
▁gu 25943
▁Something 25943
uv 25941
own 25936
chée 25935
▁College 25932
▁finds 25931
▁excuse 25930
▁observation 25929
▁heads 25922
▁sad 25920
alis 25918
▁employeurs 25917
▁profile 25913
▁serving 25910
▁extraordinaire 25908
▁nationalité 25894
▁borders 25890
tem 25888
▁carefully 25884
▁launch 25879
▁Présidente 25869
▁mètres 25862
▁Défense 25861
▁finir 25853
▁numérique 25853
▁correction 25852
▁finalement 25850
▁conver 25847
▁certificate 25843
▁UNCTAD 25843
▁hydro 25842
▁faim 25833
▁capitaine 25831
▁internet 25816
▁aime 25811
▁médecine 25799
▁sing 25794
▁mouvements 25789
▁compétentes 25787
▁résumé 25786
▁modified 25783
▁attentes 25779
ring 25778
▁oral 25770
▁alcohol 25764
▁minor 25763
chent 25761
▁update 25751
▁disposent 25746
ination 25742
▁Jim 25741
▁sensible 25740
▁presents 25737
▁William 25736
cent 25735
▁jugé 25730
▁plantes 25722
na 25721
ases 25719
▁losses 25716
▁votes 25715
▁difficulté 25712
▁négoci 25708
étique 25703
eries 25701
ope 25689
▁sustainability 25684
▁comparable 25684
▁lou 25683
ba 25683
▁corresponding 25682
usement 25682
ja 25680
▁chap 25675
▁servent 25673
▁Consequently 25664
▁equity 25657
▁(1) 25651
▁por 25651
▁chaud 25646
▁expanded 25643
oon 25640
▁reçues 25638
aises 25632
ès 25631
▁capitaux 25629
▁reçoit 25627
▁expand 25626
▁lies 25625
▁intelligence 25625
▁fifty 25610
▁coordonner 25604
▁engagés 25601
▁severe 25600
▁Li 25599
▁appar 25599
omm 25596
▁trucs 25591
▁ajouté 25588
▁legitimate 25587
▁Brunswick 25585
lu 25583
▁remplacer 25581
IG 25580
▁norm 25569
▁killing 25566
▁fraud 25554
humanité 25554
▁Italian 25553
▁treat 25551
▁colleagues 25540
▁Amendement 25535
▁Labrador 25528
▁awarded 25525
▁Caribbean 25510
▁diss 25508
▁Bob 25507
ographie 25499
▁acheter 25498
▁Staff 25495
▁permitted 25489
▁Make 25485
▁pull 25483
▁britannique 25474
▁perception 25469
▁locations 25468
▁observe 25466
ified 25458
▁ple 25454
▁attitudes 25453
▁depending 25450
▁Durant 25449
ita 25446
▁continuous 25445
▁différente 25441
▁Avez 25437
▁devrions 25437
▁jouent 25434
▁législatif 25433
▁Madrid 25423
importation 25421
▁trouvera 25421
▁identifier 25419
ured 25405
▁fédérales 25398
▁applicants 25392
▁Celui 25392
rique 25388
▁claimed 25387
▁indépendants 25383
▁ports 25374
▁parliamentary 25372
▁violent 25371
▁sentir 25371
▁reçoivent 25366
▁53 25365
▁Met 25364
▁établit 25363
oré 25360
▁rain 25355
▁unité 25353
▁associé 25341
▁Gar 25340
▁entente 25340
▁CON 25340
▁47 25332
▁parles 25325
▁organe 25323
▁Hong 25322
▁évolution 25316
▁ajouter 25311
▁disent 25308
▁mistake 25305
▁quiet 25300
▁ferais 25293
▁imagine 25290
oid 25284
▁Perhaps 25281
▁Fin 25278
▁Asian 25276
▁conviction 25276
programme 25273
▁99 25262
▁optim 25259
▁atteinte 25249
▁branch 25247
▁prostitution 25247
▁attended 25243
▁disparu 25241
▁warm 25240
▁Philippines 25240
▁défini 25236
▁Cabinet 25218
▁headquarters 25217
▁papers 25210
▁enseignants 25187
▁Pol 25184
▁declared 25179
▁59 25178
▁+ 25177
▁demandeur 25172
▁TR 25155
▁letters 25154
▁rapidly 25145
▁inférieur 25133
▁payable 25123
zy 25123
▁devenue 25122
▁dem 25117
entendre 25117
▁scene 25113
▁11. 25112
iff 25111
oses 25108
▁nécessairement 25097
▁possibly 25093
▁anywhere 25092
▁appeared 25087
▁genetic 25075
euros 25074
▁voter 25067
▁ateliers 25062
▁somewhere 25060
▁considerations 25054
▁parking 25049
sp 25041
▁peau 25040
▁pourtant 25040
▁UNHCR 25039
agn 25037
▁pen 25035
▁decade 25027
▁entirely 25019
▁comparison 25017
▁Canadiennes 25014
▁gold 25013
engager 25013
▁stopped 25002
▁adult 24998
▁lancement 24983
board 24981
▁chain 24980
▁physiques 24976
▁phases 24974
mon 24971
▁construire 24958
▁Document 24955
▁apportées 24950
▁provenance 24943
▁truly 24942
▁chief 24936
▁foundation 24929
▁generated 24926
▁SP 24925
▁Em 24922
well 24919
urg 24916
▁alia 24914
▁screening 24907
▁convaincu 24906
ulaire 24897
▁dress 24896
▁affirme 24893
umb 24890
▁appliquées 24890
▁decades 24883
▁Within 24879
▁passant 24868
▁190 24863
alinéa 24863
▁Alex 24861
ored 24860
▁refugee 24859
imposition 24852
inn 24851
▁hoped 24851
ker 24846
uts 24846
▁comparaison 24846
▁estimate 24842
▁capacities 24839
▁finished 24839
▁trading 24836
▁rent 24834
▁nutrition 24830
▁Leur 24825
OT 24821
▁roi 24820
▁measurement 24819
▁Beaucoup 24810
▁calculated 24805
▁veuillez 24798
▁conferences 24797
▁trace 24795
▁Assistance 24791
▁talent 24791
▁800 24786
Le 24784
cal 24781
▁para 24779
▁africains 24778
▁AIDS 24770
tionnelles 24769
▁Without 24758
▁aut 24754
▁marked 24753
ution 24748
ouv 24747
▁duration 24746
▁Suède 24742
▁acquired 24738
▁reliable 24731
▁Transportation 24726
▁exercer 24725
▁déjeuner 24724
▁lat 24721
▁formuler 24714
▁Vis 24712
▁drôle 24703
SR 24701
▁transform 24699
▁Never 24695
▁window 24685
▁rejet 24678
▁register 24676
▁director 24674
▁allégations 24666
nel 24655
▁versions 24653
▁Point 24651
▁détaillée 24650
▁accurate 24647
▁char 24641
▁découvert 24641
▁welfare 24632
▁sides 24631
▁Communications 24631
▁fondées 24626
▁coast 24621
▁intr 24620
▁revue 24619
▁passagers 24615
▁wonder 24614
uf 24613
▁deployment 24611
▁portes 24603
▁connected 24599
▁normalement 24588
▁heading 24587
▁libération 24586
▁customer 24583
▁lists 24581
▁dispositifs 24581
▁adults 24580
▁Technical 24574
▁sweet 24573
▁Big 24573
▁lib 24569
▁productive 24567
▁equally 24566
▁mandatory 24560
▁remove 24555
opposition 24555
MD 24554
▁describe 24553
▁accused 24552
▁remis 24552
▁frequently 24545
▁îles 24545
▁Quelque 24545
▁Christ 24539
▁prescribed 24536
▁fra 24535
▁rêve 24534
▁studied 24532
▁topic 24530
▁fi 24529
▁participe 24528
▁révélé 24525
ares 24523
acy 24517
cause 24517
▁Note 24514
▁preventing 24511
▁aérienne 24505
▁ram 24499
imm 24492
aéroport 24489
▁fournie 24487
▁précises 24485
▁résidents 24467
▁fur 24460
▁airport 24455
ops 24455
▁inventory 24453
▁biological 24450
▁incombe 24448
▁block 24445
▁Vol 24444
▁compatible 24441
ela 24438
▁weren 24436
pping 24434
▁diminué 24425
RA 24423
▁mus 24416
ampleur 24408
▁conducting 24407
ENT 24404
▁14, 24401
being 24394
En 24393
ini 24386
ft 24384
▁Club 24381
▁bis 24366
▁volet 24363
▁rôles 24361
▁ordres 24359
mit 24355
▁count 24344
▁personnelles 24337
▁1992, 24336
▁pri 24335
▁tested 24334
▁télé 24329
▁conjointement 24328
▁1993, 24327
▁surveys 24324
▁homes 24321
▁stronger 24316
mis 24315
▁vêtements 24315
▁professeur 24308
NA 24305
point 24302
ouse 24301
▁logiciel 24291
▁autochtone 24290
▁occupied 24289
▁fréquence 24281
avance 24280
▁tension 24271
▁signs 24269
▁Im 24267
▁Kh 24264
▁tent 24261
▁officiellement 24261
▁enabling 24252
inf 24250
▁espérons 24243
▁convinced 24240
▁Quant 24236
▁compromise 24235
▁ap 24234
▁rad 24224
ué 24223
▁proposés 24223
aged 24216
▁savent 24216
▁restriction 24208
▁Sw 24207
▁Mod 24207
▁ét 24206
▁printemps 24202
SO 24200
▁Relations 24199
▁industrielle 24192
▁Anti 24190
▁Costa 24185
sion 24185
▁fournisseur 24185
▁préjudice 24185
▁sem 24181
▁divorce 24180
▁potentiels 24180
▁familiar 24177
▁guarantees 24172
▁carbone 24170
▁savings 24168
élargissement 24167
▁opérationnel 24165
▁boat 24163
▁spot 24159
orm 24153
▁désir 24151
▁Goals 24149
▁concernent 24149
▁51 24144
▁resident 24136
▁retirer 24134
▁HCR 24132
omp 24123
▁desire 24121
▁finish 24116
▁eastern 24112
▁réalisations 24111
Initiative 24107
▁occupe 24107
As 24096
▁registre 24095
▁confusion 24091
▁prom 24090
▁déploiement 24081
▁critiques 24079
▁poursuites 24078
▁Newfoundland 24074
uler 24066
▁paramètres 24063
▁DG 24062
tain 24061
▁Mat 24061
▁âgés 24059
▁démontré 24059
▁prime 24050
▁mentale 24050
FA 24044
ump 24043
▁grain 24039
▁biologique 24033
université 24025
▁rehabilitation 24024
audience 24017
▁western 24015
forme 24015
▁maisons 24014
▁ancien 23997
▁Ram 23991
▁Expl 23989
▁réglementaires 23985
▁solidarity 23982
▁samples 23979
▁Lieutenant 23979
▁Political 23977
") 23975
▁twice 23971
▁avancés 23965
▁communiqué 23960
▁plenary 23956
▁survie 23949
▁taxation 23946
ood 23944
ii 23940
▁arising 23939
ident 23936
▁Tim 23934
▁remote 23931
▁objection 23929
cons 23926
vin 23923
▁envoyer 23917
▁subi 23910
▁har 23907
▁durables 23906
▁prescriptions 23900
▁GST 23894
anes 23893
▁appropriés 23886
▁compagnies 23885
▁(2) 23884
image 23884
employeur 23880
▁fichiers 23871
9) 23870
▁Sk 23866
▁$. 23858
▁Four 23856
▁blind 23854
▁McC 23850
▁attendant 23848
ered 23845
500 23837
▁remédier 23828
▁directions 23824
▁Governor 23820
sie 23815
▁façons 23815
Ivoire 23812
ital 23811
uter 23807
▁wonderful 23807
▁refers 23805
▁Chairperson 23802
▁savait 23802
▁douanes 23799
reg 23797
▁wear 23795
nelle 23794
▁Introduction 23793
▁visitors 23789
itaire 23789
rin 23786
▁médi 23786
▁Norway 23785
▁weird 23785
anger 23775
▁bel 23773
AG 23772
▁hoc 23768
Atlantique 23764
▁étranger 23764
▁Kyoto 23760
▁silence 23759
ken 23759
▁250 23748
▁effectifs 23748
▁auparavant 23748
▁publiés 23748
▁observé 23743
▁vide 23738
▁strict 23732
▁Crown 23729
▁visa 23725
▁éventail 23720
▁préoccupé 23719
▁Among 23716
▁sounds 23712
oh 23703
▁Malheureusement 23701
▁Islamic 23697
▁Cam 23695
▁talked 23683
uis 23682
▁technologique 23679
▁historiques 23678
▁showing 23677
▁suffisant 23677
cle 23676
▁troops 23671
▁pot 23666
▁Kar 23665
▁Jan 23661
▁progressive 23654
▁dég 23650
▁fat 23647
▁Parks 23646
▁autrement 23645
▁fill 23643
▁prouver 23641
▁navire 23641
▁Evaluation 23640
▁Tony 23635
Australie 23632
ett 23631
▁Presidency 23630
▁reçus 23628
▁Description 23623
▁Post 23620
▁worried 23619
ami 23619
▁maximale 23608
▁Lebanon 23607
▁boire 23601
▁correctement 23591
▁arrived 23590
▁tiennent 23585
▁recognizes 23580
▁pattern 23577
▁variable 23560
▁suffered 23556
▁shift 23555
FP 23554
▁Asie 23540
▁accessibles 23539
exemple 23535
▁plane 23528
▁accommodation 23525
▁ended 23525
▁pregnant 23525
▁personnelle 23524
▁voire 23521
▁atmosphere 23520
▁arrested 23520
▁Tiens 23516
▁Tri 23512
▁prenant 23509
élection 23508
▁) 23503
▁Bro 23498
sid 23497
▁tenues 23492
▁demeurent 23492
émission 23485
▁Bangladesh 23465
▁gagné 23463
arr 23462
▁préparé 23461
▁motor 23460
▁retrouve 23459
▁owner 23447
▁| 23447
▁visée 23436
▁lu 23433
▁brings 23431
▁Thomas 23430
▁PE 23430
▁shares 23427
▁absolutely 23415
appar 23415
▁relevé 23415
tement 23412
▁sustained 23411
▁replaced 23408
amendement 23408
▁der 23406
▁soul 23398
▁examens 23389
association 23388
▁Dan 23387
éch 23376
▁Communication 23373
▁hundred 23371
▁pointe 23370
▁recueillir 23370
▁Time 23369
▁wine 23365
▁reaction 23361
▁nobody 23361
▁Victoria 23359
rick 23354
▁combating 23352
▁throw 23343
▁Site 23342
▁logique 23342
▁Sol 23339
▁Fine 23338
▁constante 23335
▁ententes 23324
▁Life 23323
▁saisi 23321
▁moments 23320
pper 23319
▁Dar 23315
▁échantillons 23314
▁Écoute 23314
▁rejected 23311
lic 23311
▁hauteur 23310
▁seemed 23309
▁Year 23308
▁troubles 23304
▁Power 23290
▁traditionnelles 23286
▁apartment 23285
▁IC 23282
▁Prevention 23279
▁GDP 23279
▁Class 23278
▁bottom 23277
▁Kong 23274
▁souhaitent 23274
▁conformity 23268
▁districts 23262
▁sûrement 23262
▁grants 23259
▁froid 23256
▁cooperate 23255
tir 23251
▁faisons 23251
▁diagnostic 23247
▁PIB 23247
▁lundi 23247
▁operators 23246
▁conversion 23246
▁dependent 23245
pu 23239
▁chinois 23239
▁acceptance 23235
Herzégovine 23231
eter 23230
▁indiquant 23228
▁vacances 23226
▁FBI 23225
▁complémentaires 23224
▁restricted 23219
▁Off 23216
cs 23212
▁ethniques 23203
▁obvious 23198
asser 23192
▁Donne 23189
▁replace 23188
▁quitté 23187
▁Guidelines 23186
▁geographical 23184
▁blow 23175
instruction 23167
▁railway 23164
▁flows 23159
▁appareils 23157
.10 23149
rim 23148
▁engine 23147
▁commandant 23139
▁derived 23137
atique 23135
▁SMEs 23132
▁cohérence 23128
emplois 23125
Iran 23121
▁explanation 23114
▁cm 23109
érés 23104
▁Zealand 23102
▁différends 23101
▁suivent 23101
▁Head 23095
▁latine 23094
obs 23093
▁driver 23077
ef 23074
▁reprendre 23073
▁annually 23071
▁arrivée 23062
Écosse 23061
▁skin 23059
▁CNUCED 23057
▁affirmé 23057
▁thinks 23049
▁Organisation 23049
▁Adoption 23049
▁greatly 23045
ined 23032
▁academic 23032
▁serv 23028
▁Administrative 23027
vant 23027
▁listes 23025
ev 23024
▁définis 23013
22 23012
▁afternoon 23010
▁classified 23010
▁broken 23006
▁heureuse 23004
▁Siège 23002
▁secrets 23000
èse 23000
▁transmettre 23000
▁plait 22987
▁methodology 22980
▁Marine 22979
hips 22977
euro 22969
▁couvre 22965
▁remarquer 22959
▁destroyed 22957
ila 22944
▁vent 22935
▁tensions 22933
▁exposed 22928
bi 22927
▁forth 22924
▁expliqué 22922
▁Sit 22921
▁relevance 22920
▁(19 22919
▁inspections 22916
▁étudié 22913
▁grateful 22912
ously 22908
▁1995. 22908
ali 22906
▁advisory 22906
▁réglementaire 22904
▁existent 22903
enses 22899
▁allegations 22892
▁Wh 22880
▁Appendix 22863
▁campagnes 22854
▁progresser 22849
▁Internal 22848
bed 22847
aucun 22846
▁enregistrés 22840
▁Gen 22832
▁speech 22823
▁instamment 22823
▁génération 22809
▁fus 22805
unes 22803
▁metal 22802
ènes 22801
▁imported 22797
▁composante 22796
▁désigné 22795
▁appartient 22790
ward 22785
exclusion 22783
▁vendredi 22781
▁Unfortunately 22778
▁Rh 22778
▁broke 22776
▁cry 22774
éra 22768
▁Sl 22760
tiv 22755
oz 22752
▁bénéficient 22749
▁bridge 22747
ieu 22746
▁élevées 22746
▁interim 22745
col 22743
▁objets 22740
▁vessels 22738
▁Système 22738
▁riche 22738
oke 22733
▁30, 22731
▁inscrit 22731
▁infraction 22729
▁volontaires 22729
▁watching 22725
▁clientèle 22725
PE 22724
▁currency 22721
▁opérationnelles 22721
▁120 22720
▁manufacturer 22717
▁ret 22716
▁lucky 22716
rol 22709
▁revanche 22701
▁Sm 22696
▁pleasure 22690
OSCE 22689
asses 22686
▁Ombudsman 22685
OV 22685
▁déterminée 22682
▁électorale 22678
▁soleil 22677
▁dangers 22674
bles 22672
▁corporations 22671
▁régissant 22668
▁proven 22667
▁espère 22666
▁Czech 22664
▁Calgary 22661
▁requiring 22659
▁racisme 22659
▁grown 22658
▁Londres 22658
▁plénière 22658
▁approfondie 22657
▁radiodiffusion 22656
▁buts 22655
▁obs 22653
▁Egypt 22649
▁duquel 22649
▁oublier 22647
▁symbol 22646
▁préliminaire 22639
▁entity 22637
▁62 22636
▁prisoners 22629
▁efficacité 22628
▁feature 22623
▁Everyone 22621
▁considérées 22615
▁beat 22610
tim 22607
▁Sun 22606
▁biologiques 22602
▁glace 22601
▁dormir 22600
iver 22596
▁theme 22590
▁Doha 22578
▁appliquée 22578
▁crew 22571
▁receipt 22570
▁memory 22566
▁Berlin 22563
▁NRC 22557
▁pi 22543
down 22542
▁Fuck 22539
▁Sta 22535
▁hum 22531
▁Insurance 22530
▁vols 22529
▁semblables 22526
▁players 22525
▁achievements 22525
▁normale 22519
▁steel 22517
actions 22516
▁Lisbon 22515
▁Roma 22505
▁prop 22499
▁dispar 22495
▁shape 22494
▁72 22494
▁Queen 22492
▁exceed 22491
▁rythme 22480
▁Nobody 22479
▁fac 22473
car 22471
▁fonctionner 22471
▁Caraïbes 22464
▁lands 22462
▁197 22461
▁competence 22457
▁chlor 22456
▁Bell 22456
▁augmente 22456
▁leads 22454
▁fulfil 22452
onc 22447
▁Performance 22447
▁assessing 22446
▁reg 22441
▁ratified 22439
▁63 22439
▁parfaitement 22438
▁balanced 22437
▁réflexion 22428
atis 22426
▁échelle 22425
espoir 22423
▁admissible 22419
▁jurisprudence 22417
▁positifs 22415
▁advertising 22413
▁disclosure 22408
EE 22407
▁wrote 22404
▁tre 22398
itions 22398
▁fier 22397
▁pont 22394
▁mondiaux 22393
ye 22390
eds 22383
▁composantes 22380
▁exclusion 22378
▁gard 22377
▁Partnership 22368
▁servant 22367
▁intégrer 22365
ds 22358
▁RCMP 22345
dé 22343
chant 22340
▁Bou 22339
tro 22338
▁loan 22338
▁créée 22333
▁soumises 22328
▁bio 22327
itées 22321
▁Georgia 22309
▁Revenue 22307
▁disp 22305
▁confirmation 22305
▁Jane 22302
WG 22300
▁coopérer 22300
écart 22295
▁administratifs 22292
▁tissus 22288
▁concentrer 22288
▁trouverez 22282
▁Noël 22281
▁appliqué 22280
tres 22279
▁Halifax 22278
▁repas 22276
▁dynamic 22273
▁Cross 22273
▁busy 22270
ancien 22270
▁mobilité 22267
▁Prends 22261
▁cards 22260
▁Stay 22258
éro 22258
▁limitation 22257
▁Province 22252
▁Yet 22242
éb 22241
organismes 22239
▁expressément 22233
med 22227
vé 22225
lan 22220
▁terminer 22219
▁brevet 22217
▁centr 22215
▁bound 22209
▁Inf 22206
▁Crime 22201
▁cohésion 22195
CI 22188
▁AM 22186
▁signer 22181
▁photograph 22180
▁croyez 22179
▁jet 22175
▁Bur 22173
ocation 22172
▁scolaires 22169
▁citizen 22166
octroi 22165
▁jeux 22164
▁battre 22158
▁ter 22156
▁removal 22153
▁saisir 22152
▁MP 22147
▁spoke 22145
▁Tour 22143
ô 22143
▁smoking 22134
OU 22133
appeler 22131
audit 22130
▁Dra 22129
▁equipped 22116
▁urged 22111
▁roll 22111
▁chat 22110
hum 22104
▁ev 22101
▁PDF 22101
▁moyennes 22099
▁object 22097
▁overcome 22092
▁1991, 22089
aur 22089
▁Ren 22089
▁significance 22085
▁Survey 22075
▁relate 22074
▁reply 22073
▁transmis 22066
▁énoncées 22063
▁spécialisés 22056
▁centaines 22054
▁posted 22052
▁wealth 22047
▁mène 22047
▁Army 22044
▁Whatever 22038
ray 22038
▁subjects 22035
▁exemplaires 22035
▁dél 22034
▁rendue 22032
▁bought 22029
▁worst 22027
uant 22027
▁poursuit 22024
▁illicite 22024
▁leg 22020
▁juridiction 22020
▁quantités 22016
▁systematic 22007
▁situés 22007
bil 22003
▁interactions 22002
▁systématique 21999
▁rétablissement 21997
▁telec 21992
▁Similarly 21989
▁Bel 21989
work 21985
▁Next 21979
▁pourrez 21972
▁présentant 21969
▁GRC 21967
▁bâtiments 21960
onnes 21959
▁Back 21956
▁apporte 21955
▁workplace 21953
▁accompanied 21953
▁examinées 21953
(3) 21951
▁pensons 21950
▁FAO 21949
▁Say 21945
▁plays 21942
▁flat 21942
▁gift 21941
▁Natural 21940
▁encourages 21940
sec 21939
▁weapon 21934
▁Daniel 21933
▁Aussi 21927
▁opportun 21924
▁anticipated 21923
▁erreurs 21922
▁prestataire 21921
▁voted 21913
▁stands 21911
aging 21909
▁Limited 21907
law 21903
▁esc 21899
eration 21898
▁submissions 21886
▁battle 21880
▁societies 21861
▁warning 21861
▁Tant 21861
▁ethnique 21861
▁CI 21858
▁Bas 21857
▁DNA 21856
▁autorité 21852
▁accorde 21851
adore 21847
▁promis 21841
▁résultant 21831
▁Dé 21828
▁relax 21827
▁adresse 21826
encourager 21821
▁accompli 21820
▁Ambassador 21819
▁opp 21815
▁rats 21809
▁déb 21807
▁cerveau 21805
▁Actually 21803
▁déplacées 21803
▁Van 21795
ask 21795
ining 21790
▁module 21788
uels 21784
▁generate 21780
▁modifiée 21777
▁tor 21766
▁rou 21766
roph 21763
▁wedding 21763
▁rat 21761
▁teneur 21758
ently 21744
▁jointly 21742
▁dep 21740
▁demandeurs 21739
▁Center 21737
▁dév 21736
▁voici 21736
uelle 21727
▁significative 21726
▁staffing 21723
water 21723
▁tree 21719
▁blog 21719
▁cont 21715
▁intent 21714
▁64 21710
▁révisé 21707
▁entraîné 21704
▁13, 21702
get 21702
▁technologiques 21702
▁contrast 21700
▁punishment 21698
▁particip 21698
oires 21692
ko 21688
IB 21686
ennes 21686
▁movie 21683
▁electricity 21680
▁existant 21675
gie 21673
▁mostly 21668
▁vast 21663
-199 21660
▁Medical 21658
head 21657
▁heat 21653
▁Dev 21651
▁Total 21650
▁Myanmar 21647
▁Jeux 21641
▁réfléchir 21640
▁Master 21639
▁accru 21638
▁boîte 21637
▁Norvège 21635
▁Chris 21634
éthique 21634
▁cheveux 21633
leur 21625
igh 21624
▁monetary 21623
▁stories 21622
▁Fondation 21621
▁justifier 21621
Israël 21616
▁calm 21613
▁modernisation 21610
▁paying 21605
▁Damn 21605
▁alternatives 21601
▁vies 21601
▁critère 21601
gg 21598
▁raciale 21593
▁chasse 21592
▁interviews 21590
▁Monitoring 21588
▁grade 21584
▁regardless 21582
▁vo 21582
intégrer 21582
▁marge 21573
▁secrétaire 21569
▁teacher 21568
▁TPS 21563
ARC 21553
▁croissante 21552
Espagne 21549
▁marry 21547
▁Herzegovina 21546
▁sat 21544
▁solides 21542
▁reaching 21536
employé 21535
▁dirige 21534
rain 21533
▁comfortable 21532
asing 21531
habitude 21528
▁gouvernementale 21525
▁eventually 21522
▁vary 21522
▁accéder 21520
▁saved 21518
▁diplomatic 21515
▁autorisée 21513
▁volontaire 21513
▁resistance 21511
▁requête 21509
▁Space 21505
alisée 21504
▁assumed 21501
▁compens 21496
ision 21486
▁horrible 21486
▁cinquième 21484
▁Sri 21482
▁reproductive 21478
▁Watch 21478
▁prof 21473
attendre 21468
▁êtres 21466
67 21465
▁leaves 21463
▁Attention 21463
▁OSCE 21458
instant 21458
▁aperçu 21457
▁PS 21455
▁offrant 21453
▁snow 21451
▁rég 21446
▁stri 21443
▁properties 21442
effectuer 21441
▁filing 21440
▁Congress 21440
spoke 21439
▁réparation 21439
▁Annual 21435
▁amend 21430
▁extreme 21422
▁val 21422
▁± 21417
▁Sometimes 21414
». 21409
▁guaranteed 21408
▁amazing 21408
ouvrir 21406
▁NATO 21403
▁Men 21400
▁whereas 21393
▁gay 21392
▁spécialisées 21391
▁dist 21389
▁capture 21389
▁externes 21389
▁ouvrir 21388
▁équipements 21386
▁pertinent 21380
▁Gazette 21380
▁dûment 21375
▁Small 21370
▁facultatif 21369
▁deposit 21368
▁realized 21361
▁crée 21361
▁fixer 21360
adapter 21359
▁constitutes 21358
▁titulaires 21356
▁cliniques 21354
▁carrier 21347
▁TO 21345
ove 21343
▁addresses 21338
▁Ro 21337
▁colère 21335
▁incurred 21334
specific 21332
Brunswick 21325
oms 21323
▁Belgium 21321
▁clinique 21307
▁justification 21305
▁loans 21303
▁égal 21301
scale 21300
ough 21296
▁décret 21296
Administration 21290
▁propriétaires 21289
▁μ 21288
▁emission 21287
▁Allemagne 21284
▁Désolée 21278
▁donnant 21274
▁Ceux 21271
chés 21271
▁lever 21269
▁fous 21269
▁Soudan 21261
\ 21259
▁totalité 21257
▁chiffre 21256
▁acknowledged 21255
▁album 21247
▁wished 21242
▁réalisées 21241
▁lying 21237
▁seed 21235
▁Exp 21232
▁revision 21229
▁topics 21229
▁lunch 21222
▁veille 21222
ners 21217
ball 21215
▁raising 21214
▁Someone 21213
empêcher 21209
▁Cultural 21207
kin 21205
▁kinds 21204
▁Lisbonne 21200
ior 21199
▁smart 21199
▁Mel 21199
▁PM 21197
▁Finland 21195
▁{\ 21193
▁Thursday 21192
▁Archives 21189
▁Ensuite 21187
▁arrière 21184
isez 21184
▁appuyé 21179
▁foods 21176
▁tough 21175
▁Islands 21173
organiser 21171
▁Radio 21164
▁sensibiliser 21159
▁Venezuela 21153
illon 21151
ä 21148
da 21148
▁Christian 21143
▁secondaires 21137
▁difficulty 21131
▁advised 21130
you 21127
▁entraîne 21125
appelante 21120
▁ém 21119
▁Cont 21113
▁Poland 21107
▁reflète 21101
▁CM 21100
▁blessures 21098
▁cars 21092
ams 21091
atiques 21090
▁tue 21089
▁touchés 21081
issements 21074
▁écrite 21073
▁insufficient 21070
ork 21067
▁rendus 21066
▁prohibited 21065
▁visited 21062
▁Pal 21056
▁exemption 21050
▁cesse 21040
▁FOR 21039
▁contamination 21038
▁disputes 21037
▁Belarus 21033
▁elsewhere 21026
▁prendra 21026
▁Liban 21021
▁amélioration 21021
aci 21012
rog 21011
▁paraît 21008
▁vraie 21006
▁collaborer 21003
▁wearing 21000
▁investigate 20992
cy 20990
▁UK 20987
▁sœur 20987
▁cit 20984
▁toxic 20984
▁observers 20984
▁miles 20980
▁medicine 20979
▁exclusivement 20978
▁agences 20977
▁harmon 20975
▁Remember 20971
▁household 20971
▁dissemination 20968
endra 20968
▁périodique 20962
▁génial 20959
accorder 20951
▁époque 20948
▁serez 20947
▁avocats 20946
lex 20943
▁(5 20941
▁rom 20940
▁complement 20936
▁Pet 20934
▁attaques 20933
▁cri 20932
augmenter 20930
▁habitats 20929
▁ordered 20927
entremise 20925
▁missed 20920
▁Char 20915
▁Romania 20913
anda 20910
teen 20909
▁constraints 20905
agissait 20903
▁signaler 20902
▁endorsed 20900
▁sondage 20900
▁riches 20892
▁salaires 20892
ded 20887
AV 20885
▁aides 20885
▁Arrêtez 20883
▁Countries 20881
▁Figure 20875
▁déplacement 20875
▁adjustment 20873
▁cheval 20870
▁plaignant 20868
▁annuels 20866
▁féliciter 20864
▁wider 20862
▁furent 20861
▁pros 20853
▁exprimer 20853
▁reserves 20851
▁Change 20843
▁Fre 20841
ection 20838
▁scientists 20836
▁trees 20834
ouer 20834
yer 20827
▁translation 20827
▁suppliers 20826
▁observ 20826
aménagement 20825
▁acheté 20824
▁détaillées 20816
ests 20814
▁Kazakhstan 20810
▁bless 20808
▁salary 20807
▁Third 20806
▁wild 20804
▁trente 20803
▁venus 20802
▁begun 20799
▁fichier 20799
▁CT 20795
▁obviously 20791
arrivée 20791
▁précédemment 20790
occupe 20788
discrimination 20787
▁Standing 20787
▁termin 20786
▁équilibre 20782
fort 20781
▁ministers 20777
▁District 20774
▁Assemblée 20773
▁judgment 20770
▁BC 20765
▁Five 20764
▁handicapés 20764
▁contraintes 20761
▁legally 20739
▁mobility 20737
oli 20737
ime 20736
▁marcher 20736
▁fondamentale 20734
▁potentially 20730
▁Mad 20727
automne 20723
▁profits 20722
▁handling 20721
▁communicate 20720
▁assuré 20719
▁Lanka 20718
▁18, 20716
▁joindre 20716
▁pressions 20703
▁# 20699
▁laboratory 20698
ètes 20696
▁intervenir 20696
▁connaissez 20691
▁coupable 20690
▁école 20689
▁destinée 20686
▁kilomètres 20683
▁college 20681
▁protocol 20680
▁error 20678
▁pourriez 20676
▁bomb 20667
▁earth 20667
▁tur 20662
▁mining 20660
ora 20658
û 20655
− 20649
tle 20648
▁newly 20647
▁excluded 20645
▁Hor 20645
▁rig 20643
▁feront 20641
▁proc 20639
▁déposer 20636
▁meets 20628
▁gel 20628
▁slightly 20621
▁friendly 20610
▁killer 20610
▁théorie 20610
▁deaths 20608
▁Gal 20605
▁survival 20597
▁inflation 20590
▁Lo 20588
▁Danny 20584
▁frequency 20579
Italie 20578
▁bulletin 20577
▁opérationnelle 20573
▁Deuxièmement 20573
▁organic 20571
▁composed 20570
▁med 20569
▁ICT 20567
▁Records 20566
▁arabes 20566
▁theory 20564
▁parliament 20558
▁east 20556
▁artistes 20556
▁globalization 20555
▁bassin 20555
▁couche 20553
▁overview 20552
▁IM 20550
▁Looks 20548
▁underlying 20542
▁fan 20538
▁church 20535
▁Welcome 20535
▁abus 20530
▁functional 20528
▁Road 20526
▁longueur 20526
▁CB 20524
▁Rob 20523
▁Results 20523
▁meat 20522
▁permanents 20511
▁promoted 20508
▁respected 20506
▁Tel 20505
▁agriculteurs 20502
%, 20500
▁comm 20499
Neuve 20498
OTAN 20494
▁20, 20493
▁réalisée 20492
▁indirect 20491
▁occurs 20491
équilibre 20488
65 20483
▁Standard 20482
acts 20482
▁seuil 20477
▁convergence 20476
▁industriels 20475
▁surrounding 20473
▁consultants 20471
▁Hill 20460
▁Jordan 20455
▁journaux 20455
▁illicit 20453
▁feels 20452
▁divisions 20450
infection 20445
zed 20441
▁Territories 20441
▁famous 20433
▁visual 20432
▁Isn 20432
▁vieille 20432
▁seeks 20430
▁magnifique 20430
▁fixés 20428
▁fly 20423
▁color 20420
▁Far 20418
▁formé 20416
▁soixante 20416
▁margin 20411
▁prenantes 20411
▁légitime 20408
▁sida 20407
▁renseignement 20402
▁suffisante 20401
▁god 20397
▁toucher 20395
▁61 20393
▁cam 20393
▁broadcasting 20388
▁12. 20387
▁suffer 20387
▁walking 20387
▁Products 20383
.1, 20378
prolifération 20377
▁favorables 20375
Ukraine 20372
ased 20371
▁merely 20370
▁passée 20368
▁laissez 20367
▁saisie 20366
▁widespread 20360
▁resolved 20358
▁Steve 20356
▁islamique 20349
▁gang 20348
TION 20343
▁légères 20342
▁um 20340
▁Scott 20336
▁démontrer 20336
▁selling 20333
uration 20333
▁▪ 20333
bert 20328
▁Putain 20321
Afghanistan 20312
▁Young 20308
▁compléter 20308
▁Mlle 20308
itz 20306
▁Vienna 20306
▁proches 20302
eth 20299
tivité 20299
hiver 20299
▁récupérer 20296
▁émis 20290
▁responsabil 20289
illa 20282
▁€ 20264
▁revealed 20260
▁définit 20258
▁catastrophe 20257
▁requise 20254
▁recall 20251
▁wake 20248
appareil 20247
▁189 20245
▁Check 20243
▁Games 20242
▁Edward 20242
▁custody 20240
arme 20237
▁CIC 20236
▁16, 20232
harmonisation 20230
▁Property 20227
▁spec 20221
ato 20220
including 20218
▁im 20215
▁majeur 20215
▁Belgique 20214
▁voyageurs 20212
▁Vienne 20210
▁précédentes 20208
▁Ali 20205
iting 20200
▁Rel 20198
influence 20198
▁breakfast 20195
▁seules 20193
▁gen 20192
akes 20190
▁déteste 20188
▁Agenda 20182
ired 20181
85 20180
▁capability 20178
▁west 20176
▁prés 20176
▁Commerce 20173
▁monter 20171
▁cibles 20171
▁trials 20165
▁Shut 20164
▁causé 20162
/200 20161
ook 20161
▁apart 20160
▁und 20156
▁Schedule 20149
identifier 20143
ieuse 20140
bor 20138
▁Optional 20138
▁pilotes 20138
▁cer 20127
▁UNEP 20126
▁cabinet 20122
▁appelée 20120
▁bilan 20116
8/ 20115
▁Mus 20112
▁Camp 20111
étudier 20110
▁News 20107
▁opérationnels 20106
▁Honourable 20104
▁Planning 20103
▁Brussels 20101
▁Harry 20101
▁naturels 20098
ograph 20097
▁dieu 20097
▁euros 20094
▁integral 20091
▁Guinea 20091
▁fail 20087
▁Fer 20086
ó 20084
▁int 20083
▁ordinateur 20082
CH 20076
▁asset 20071
▁courte 20068
▁afford 20067
▁tentative 20064
▁Indonesia 20056
▁(4 20053
▁quelconque 20053
▁authors 20049
▁fellow 20041
▁drawing 20038
▁Patrimoine 20038
▁reviens 20038
▁entraîner 20037
▁municipalités 20036
▁prié 20031
quet 20030
▁coordinate 20029
▁associées 20029
▁.. 20028
▁autorisés 20027
▁hall 20026
ull 20024
▁ultimately 20022
▁Roman 20020
▁Senate 20016
▁aver 20014
▁tourn 20010
▁manufacturers 20009
▁ya 20008
▁autorisation 20005
▁Ecoute 20005
ulations 20003
▁violences 20000
rib 19994
▁decreased 19993
▁drafting 19983
▁élu 19981
▁smoke 19979
tures 19979
çons 19976
▁SO 19975
▁Sign 19972
▁uniforme 19972
▁Réseau 19968
▁Politique 19967
▁visé 19964
▁minimal 19963
▁NO 19958
▁médicament 19954
▁owing 19953
▁artists 19953
TO 19948
▁Madam 19947
▁venez 19942
▁contents 19936
▁enterprise 19933
exc 19932
▁dou 19929
▁Coordination 19929
▁inquiry 19928
▁square 19928
▁tombe 19928
▁AR 19925
▁munitions 19924
▁démocratiques 19923
▁PWGSC 19921
▁teach 19920
▁DFO 19919
▁médicale 19915
▁$5 19914
▁prisons 19910
▁dr 19902
Pro 19898
▁17, 19894
▁Austria 19893
▁Olympic 19888
▁dignité 19882
▁Beijing 19881
▁Moldova 19880
urée 19879
duc 19867
Leste 19861
▁MIN 19858
▁forêt 19856
▁confirmer 19855
▁repro 19849
tively 19848
▁Field 19847
▁sil 19846
pa 19845
▁extérieur 19844
ada 19841
▁eff 19837
▁arise 19836
▁literature 19836
▁surmonter 19834
61 19831
▁monthly 19829
▁croissant 19824
Irlande 19821
▁transmitted 19820
▁fabricants 19819
▁fiscale 19819
▁universitaires 19818
▁Eric 19817
▁intégrés 19816
▁serves 19815
▁constat 19814
▁Sim 19813
▁passion 19809
▁Jesus 19807
▁bénéfices 19807
▁kidding 19802
▁1994. 19801
▁actu 19800
OD 19798
▁branches 19797
▁Audit 19796
▁hide 19791
▁peines 19788
ulé 19777
attaquer 19777
▁Roumanie 19777
▁prétend 19774
ories 19773
▁Area 19771
exercer 19768
▁aged 19765
por 19760
étape 19760
▁Dem 19757
▁sor 19753
▁Pologne 19753
HA 19752
▁définitive 19747
▁Cre 19742
▁définies 19741
▁rid 19738
▁Ha 19738
zz 19738
tat 19737
▁énorme 19735
▁conformer 19735
allais 19731
▁implique 19729
Am 19724
▁Standards 19722
expansion 19722
▁ships 19719
omy 19717
▁mas 19716
▁organiser 19714
▁gaps 19712
institution 19710
▁placé 19707
▁organisées 19706
▁HR 19705
▁witnesses 19704
▁ajoutée 19701
▁directs 19696
illage 19692
▁concerné 19692
▁admis 19692
▁Top 19691
▁observateurs 19691
uh 19689
▁Pan 19683
▁atelier 19678
▁planet 19677
▁Comm 19677
▁clothes 19675
▁pacifique 19671
▁minim 19669
▁Father 19668
▁choices 19651
ément 19651
▁fifth 19649
▁discovered 19649
▁pratiquement 19649
▁vaccin 19647
▁root 19641
▁menu 19639
▁destroy 19638
▁kg 19638
▁balle 19638
▁display 19634
▁connaissent 19634
▁truck 19625
EMENT 19624
ajouter 19621
▁limitées 19620
▁investisseurs 19619
▁policiers 19617
▁Status 19613
86 19607
▁thousand 19602
▁ON 19599
▁Messieurs 19599
erson 19598
▁march 19596
89 19594
hy 19592
▁achats 19589
▁List 19584
▁refused 19582
OCDE 19579
▁dotation 19577
▁(" 19576
▁livraison 19576
▁Key 19574
▁Alliance 19573
▁Articles 19565
▁complexité 19563
▁producing 19556
▁Star 19556
▁contest 19548
▁colour 19545
▁narrow 19544
rier 19543
onde 19540
oque 19539
ym 19534
▁côtés 19533
iment 19527
▁definitely 19519
▁suggestion 19518
sif 19514
▁games 19512
▁souhait 19511
▁récents 19509
▁mandats 19502
▁systém 19500
abri 19498
▁reconciliation 19497
anté 19495
issez 19495
ionn 19494
▁espace 19494
border 19492
▁Pres 19490
▁spécialement 19490
▁consacrée 19483
▁impression 19480
▁fondement 19480
gal 19479
▁sols 19478
intérêts 19477
▁forums 19476
▁devoted 19475
▁pair 19475
▁Still 19474
ther 19473
▁amb 19470
▁représenter 19470
▁industriel 19469
▁Gl 19463
▁Guatemala 19461
▁Congrès 19461
▁transferts 19459
▁reconnus 19455
ek 19453
▁Marie 19449
▁conform 19444
▁extérieure 19442
▁repos 19441
ulate 19439
▁tired 19439
▁anim 19438
▁cab 19436
oma 19435
ude 19434
▁volumes 19431
18 19431
▁bruit 19427
enf 19425
▁Building 19418
▁evolution 19415
▁gén 19415
▁intégrante 19413
▁focusing 19411
autonomie 19411
▁deviennent 19408
▁prob 19406
▁précision 19403
▁pictures 19399
éta 19399
▁Persons 19394
▁freedoms 19389
DF 19388
▁scrutin 19387
▁burn 19386
▁Assistant 19386
▁ideal 19381
▁examinés 19381
gen 19379
▁strike 19377
▁LES 19377
▁semi 19373
▁1987 19372
▁ménages 19371
▁verification 19368
▁candidature 19368
▁Think 19365
▁voudrait 19365
gan 19363
▁regulated 19361
▁logements 19361
excellence 19360
▁nationals 19349
▁Sarah 19348
▁combler 19345
opp 19344
▁clarify 19342
▁restaurants 19342
▁PA 19341
▁Procedure 19340
▁monnaie 19337
▁glass 19331
▁Greece 19328
▁reporter 19322
▁troupes 19320
▁Rio 19318
ison 19316
▁Japanese 19314
irs 19307
▁substantially 19304
▁Free 19304
cles 19304
▁Os 19304
▁magazine 19302
▁Ryan 19300
▁guilty 19299
ativement 19297
î 19293
▁pop 19288
▁refusé 19286
▁traduction 19283
▁integrate 19282
▁Hel 19275
eller 19270
▁CRTC 19263
▁dignity 19262
otes 19260
uff 19259
▁Merc 19256
▁individu 19251
▁1990. 19250
orts 19246
▁1989 19243
▁Quelques 19241
wing 19237
▁shop 19236
tera 19235
▁Ret 19232
▁Jimmy 19229
▁OECD 19225
▁guests 19224
▁infections 19223
▁squ 19222
▁Wednesday 19220
▁jurisdictions 19220
ANT 19217
▁viande 19217
▁parameters 19210
nelles 19210
▁Immigration 19208
▁recon 19206
▁Agent 19206
▁avion 19204
▁transfers 19200
▁décideurs 19200
érées 19198
▁saurait 19196
EU 19195
▁diffuser 19195
▁pa 19192
▁Notice 19192
▁arrival 19189
▁radiation 19188
▁regarded 19181
▁Questions 19178
▁avancer 19178
▁belong 19174
17 19170
▁éducation 19166
▁fiche 19162
▁Joseph 19161
▁occup 19160
▁PAR 19160
▁citizenship 19159
▁cart 19157
▁investi 19156
▁Quelles 19153
▁adaptation 19152
▁Process 19152
▁réconciliation 19147
oxy 19141
▁phot 19139
▁supp 19138
▁Christmas 19136
▁Tuesday 19135
▁parallel 19133
iable 19131
entends 19130
▁Bruxelles 19129
Autorité 19125
ny 19124
▁logiciels 19124
▁simples 19121
▁naturelle 19118
▁anniversary 19117
oking 19116
▁Ros 19112
▁conclut 19112
▁suggéré 19111
▁Has 19110
nement 19110
▁compl 19109
▁mobilisation 19105
midi 19105
▁surplus 19104
▁supprimer 19104
▁désignés 19103
▁ISO 19101
▁Market 19100
▁tableaux 19098
▁vert 19098
▁proved 19096
▁génie 19093
aps 19090
LO 19090
▁enrich 19088
▁67 19087
▁returns 19087
éf 19083
endre 19080
▁warrant 19077
▁Rica 19075
gé 19075
part 19074
▁Resolution 19072
▁Military 19070
bal 19069
▁fonctionnaire 19066
▁génétique 19066
▁hasn 19062
▁feedback 19060
▁évidemment 19060
rad 19057
oser 19057
▁conv 19050
▁exceptional 19047
▁gratitude 19046
pec 19046
▁MPO 19046
▁Arctic 19045
▁pén 19043
▁pauvre 19043
▁ministérielle 19041
▁facilitating 19036
▁responded 19032
42 19031
▁screen 19029
eler 19029
sur 19022
▁hauts 19020
▁jeter 19019
▁Mag 19016
▁refuser 19015
▁traitées 19014
7/ 19012
▁Prenez 19012
ape 19011
élément 19011
importantes 19010
▁ru 19009
▁Capital 19008
odes 19007
▁constamment 19002
▁cadeau 19001
▁center 18995
▁gestionnaire 18994
▁rely 18993
▁label 18991
▁quotas 18988
▁suivie 18987
▁organ 18985
▁disabled 18978
▁conseillers 18977
▁retourn 18972
▁Culture 18967
▁accordingly 18964
▁modernes 18961
erve 18960
SM 18959
▁satisfait 18956
▁prosecution 18953
▁houses 18951
osition 18947
▁tarifs 18942
▁serre 18938
▁ordinary 18928
UM 18928
OMS 18927
▁associée 18921
▁potable 18920
▁individuels 18919
▁print 18910
▁ramener 18908
▁créés 18901
▁permits 18897
▁nulle 18895
▁compare 18894
▁souveraineté 18893
▁événement 18885
▁adéquate 18880
▁attirer 18873
▁propriétés 18869
▁cote 18865
▁réactions 18865
▁contiennent 18864
▁cigarettes 18861
▁divided 18860
▁Serbia 18859
vie 18857
▁collections 18856
▁espagnol 18856
ament 18855
▁devais 18850
instrument 18848
▁provinciales 18848
iger 18847
économiques 18846
▁décennies 18841
▁onto 18840
▁herself 18840
▁Additional 18837
▁comportements 18836
nez 18830
▁vessel 18828
▁générations 18826
SD 18822
▁Procureur 18816
▁signes 18811
▁birthday 18809
▁inférieure 18809
▁grosse 18802
▁usual 18801
▁reductions 18798
▁mou 18797
▁passenger 18796
▁primaires 18795
▁Chile 18794
▁lots 18792
▁< 18788
▁CIDA 18784
▁RC 18782
▁tim 18773
▁Pierre 18771
▁multipl 18770
▁bond 18763
▁England 18760
▁stick 18758
▁aidera 18756
utes 18754
▁jou 18753
▁cycles 18748
▁movements 18746
▁tchèque 18742
▁brand 18741
▁travaillant 18741
▁relèvent 18740
▁retenue 18736
unch 18734
ression 18733
▁lait 18733
▁instruction 18726
▁fermement 18722
unt 18721
▁développé 18716
▁renouvellement 18716
▁genuine 18712
▁abouti 18712
▁Norm 18706
▁talks 18704
▁camera 18703
CA 18697
ander 18694
▁Vos 18694
▁libres 18693
▁rede 18691
alle 18681
▁automatically 18680
▁éclair 18679
', 18674
ared 18672
▁promised 18670
▁maîtrise 18667
▁rechange 18664
tically 18659
▁cultiv 18656
ji 18656
▁milliard 18653
▁renewed 18652
▁ouvre 18650
▁mountain 18648
Équipe 18648
▁mut 18646
▁détruire 18646
▁opposed 18644
expliquer 18644
▁formats 18642
▁player 18639
▁rendent 18637
échelon 18636
▁plage 18633
▁Transports 18632
▁alter 18631
▁consequence 18621
▁soci 18619
▁owned 18612
▁engineering 18609
▁Environnement 18607
do 18604
uster 18601
▁sovereignty 18600
▁nécessite 18600
hab 18598
▁Conn 18597
▁dangereuses 18594
▁evaluated 18590
▁Leave 18589
eld 18585
ills 18584
▁adequately 18581
rées 18576
▁amour 18574
▁disciplines 18572
▁immun 18571
ouss 18571
16 18566
gn 18565
▁recourir 18565
institutions 18564
73 18563
▁Sauf 18563
équ 18562
▁Musée 18561
▁viabilité 18556
▁voitures 18555
▁seats 18551
nés 18549
[ 18548
▁COM 18543
▁touché 18542
▁CA 18541
▁lim 18539
arri 18539
▁Lee 18539
▁Finlande 18539
▁manifest 18534
▁mandates 18533
▁96 18529
▁recalled 18528
ttes 18526
▁97 18522
▁assumer 18522
▁UNFPA 18520
▁conjunction 18519
▁garanti 18518
▁courrier 18517
▁cu 18515
▁basée 18512
▁migrations 18511
uelles 18508
▁Art 18507
▁clôture 18506
erm 18505
▁appeals 18505
▁Grèce 18502
▁rejeté 18502
▁forever 18500
▁suff 18500
▁linguistique 18495
▁succ 18492
mark 18489
▁struct 18486
▁entering 18485
ico 18485
▁répondent 18483
▁suppression 18477
▁replacement 18476
▁champs 18475
▁elimination 18473
▁Ind 18473
▁TPSGC 18472
ew 18471
osa 18471
46 18470
▁audiences 18463
estion 18462
▁civiles 18462
▁réduite 18460
▁suggère 18460
▁rapportant 18458
ancy 18453
▁grandement 18453
▁administered 18452
▁nationality 18448
HS 18446
▁Er 18443
▁holds 18437
▁norms 18434
▁atteints 18434
▁inadequate 18431
Commission 18430
▁décrire 18429
▁tenter 18425
▁pareil 18420
▁passengers 18418
▁Wow 18416
engage 18415
ound 18414
▁USA 18414
▁illness 18414
▁producer 18414
▁pairs 18408
ACDI 18406
avocat 18400
▁700 18398
▁== 18392
▁considérations 18378
▁intérimaire 18371
­ 18368
care 18368
▁axé 18366
▁merit 18365
any 18364
▁théâtre 18358
▁indicating 18357
▁Turkish 18356
▁pH 18354
uée 18354
Environnement 18353
▁combinaison 18353
▁Participants 18347
▁secondes 18344
▁voté 18341
▁intense 18340
▁architecture 18339
▁push 18336
▁pertinence 18336
▁Application 18332
▁municipalities 18331
▁inclusive 18327
▁profonde 18327
▁honest 18326
▁deadline 18323
▁concluding 18320
▁ocean 18309
▁21, 18308
▁externe 18306
▁seconds 18305
lles 18305
▁1988 18304
▁breach 18301
▁ensures 18299
▁Library 18299
▁bourses 18298
nd 18295
▁commit 18288
3), 18282
▁respecte 18282
▁fashion 18281
▁verser 18281
▁aviez 18276
▁negotiation 18275
wa 18275
▁soumise 18273
▁billets 18266
▁mix 18265
▁annexes 18263
▁Summary 18254
▁pensent 18254
▁stockage 18254
▁minister 18252
3/ 18250
▁retirement 18250
▁financés 18249
▁proposes 18247
Cl 18243
▁rav 18228
▁Selection 18228
▁Phase 18227
▁texts 18219
▁Brown 18215
▁Cyprus 18214
▁equitable 18209
HC 18208
▁fore 18204
▁Windows 18203
▁performances 18202
▁souvenir 18196
▁classement 18196
▁reservation 18195
▁légèrement 18195
▁Secondly 18191
▁parlez 18191
▁capables 18188
▁unions 18183
▁quasi 18182
▁Plans 18182
▁volé 18182
▁répression 18181
▁Ghana 18180
▁Carl 18179
essaie 18176
▁sièges 18175
▁Mother 18174
▁license 18169
▁profondeur 18169
▁unf 18163
▁sending 18163
▁abs 18162
▁dropped 18156
rich 18148
▁Premièrement 18146
▁Mesdames 18144
▁allowance 18142
▁procureur 18142
▁rentre 18139
▁facilitation 18138
▁Cadre 18135
▁Parcs 18134
▁bénéficiaire 18134
▁SA 18128
izes 18125
▁correspondent 18124
▁coups 18118
▁exemplaire 18118
ués 18117
▁construit 18110
ott 18107
33 18107
▁Professor 18106
▁fabricant 18106
▁AUTONUM 18105
▁mour 18101
▁Arts 18100
▁Experts 18099
▁isolated 18099
▁filled 18097
lets 18097
▁ought 18082
called 18079
▁libéralisation 18078
▁1970 18074
▁ann 18073
▁king 18071
▁prospérité 18071
▁copyright 18064
▁coalition 18063
cies 18062
▁urge 18059
duction 18059
▁innov 18056
▁therm 18054
▁pote 18054
▁enemy 18052
▁intérieure 18048
▁intend 18047
▁desk 18044
▁FR 18040
uy 18038
taient 18037
▁poll 18036
▁68 18031
étiques 18030
▁universitaire 18030
urés 18028
▁politics 18026
▁financé 18020
ande 18011
▁UNECE 18010
▁campaigns 18008
▁consultant 18006
▁maître 18006
▁configuration 18004
années 18002
▁Shit 18001
taining 17992
▁exempt 17987
▁prefer 17986
▁rappel 17983
avantage 17979
▁feuille 17975
▁relates 17974
▁oiseaux 17973
▁sérieusement 17970
▁soyez 17968
▁gained 17966
▁stupide 17965
▁Celle 17963
▁ID 17961
▁bataille 17959
rest 17957
▁organised 17953
▁Cré 17953
▁enlargement 17949
▁conclus 17949
▁19, 17945
▁orateurs 17945
▁denied 17943
mo 17942
▁intentions 17940
▁quantity 17939
▁Denmark 17938
▁deserve 17937
▁Prof 17936
▁Palestiniens 17935
▁Tor 17934
aurai 17933
▁apparaît 17931
▁hey 17929
▁justified 17923
▁retain 17919
▁acqu 17915
▁horse 17914
▁poursuivi 17912
oration 17911
▁briefing 17906
▁transporteur 17904
▁env 17902
euse 17899
oit 17895
RI 17892
▁issus 17892
▁somewhat 17891
bar 17891
▁rares 17891
▁engagées 17891
accroissement 17890
▁ing 17889
▁disait 17887
▁escape 17884
▁racism 17883
▁pesticides 17882
▁Everybody 17881
▁Nam 17881
▁AN 17879
▁prépare 17877
▁Croatia 17873
▁taught 17870
▁TIR 17870
▁régulière 17870
▁entré 17864
▁aimé 17863
▁esp 17862
▁réunir 17854
199 17851
▁Cro 17848
▁composés 17844
▁Media 17838
▁évalué 17833
▁adoptés 17833
▁Nigeria 17830
▁madame 17829
▁produisent 17829
▁respondent 17828
avancement 17825
▁admit 17824
ided 17820
▁sensiblement 17819
▁feelings 17815
▁publiées 17815
▁Investment 17814
▁94 17813
▁Balkans 17812
▁protest 17810
ula 17810
▁Lakes 17807
▁Risk 17803
▁Statistique 17800
▁cotisations 17799
▁Besides 17797
▁objects 17797
aim 17795
▁mets 17792
▁Quels 17791
▁Wood 17790
▁mondiales 17787
▁renforcé 17787
▁Projet 17785
érant 17781
▁seras 17781
▁falling 17778
▁spectacle 17777
autant 17774
urt 17773
▁multilatéral 17773
▁morale 17771
▁operated 17769
▁écl 17769
▁Serbie 17768
LC 17767
77 17756
aking 17755
▁reviewing 17753
▁rational 17752
▁arrête 17745
▁sour 17744
▁profondément 17743
encies 17740
▁beach 17736
▁discharge 17731
▁wage 17729
▁publier 17727
▁load 17724
▁Cy 17718
▁Little 17715
▁focuses 17715
▁universelle 17715
ayant 17714
▁dépasse 17711
▁Pass 17710
ATIONS 17710
book 17709
▁possibilities 17704
▁accountable 17701
ced 17701
▁journalistes 17699
▁remind 17697
▁pin 17692
▁tape 17691
ords 17688
▁mélange 17686
▁Colombia 17682
html 17681
▁conventional 17677
▁similaire 17677
▁Model 17676
aph 17673
▁Church 17671
▁rejoindre 17670
▁SR 17668
▁pending 17666
▁Morocco 17664
▁Paper 17662
▁comparative 17659
▁notably 17657
▁senti 17655
▁compétents 17654
▁coastal 17650
▁Med 17642
▁fool 17642
▁Mi 17642
ibles 17641
▁écologique 17638
cip 17635
▁founded 17630
▁nul 17629
▁Ken 17628
▁rab 17624
▁bouche 17619
win 17618
▁threatened 17612
▁débit 17611
▁aurais 17610
▁Azerbaijan 17607
▁66 17606
▁obligé 17598
▁horizontal 17597
▁expensive 17597
▁clarification 17596
▁assistant 17595
▁engagée 17594
▁Common 17593
▁ciel 17588
▁collaborative 17587
▁Statement 17587
▁Colonel 17582
▁phenomenon 17580
▁Seigneur 17575
▁Parliamentary 17572
▁pure 17569
▁hundreds 17567
▁withdrawal 17565
avion 17563
kh 17557
▁trimestre 17557
▁chemicals 17554
▁innovations 17553
ADN 17553
▁occupational 17551
99 17551
▁Chez 17547
▁pierre 17547
▁closing 17545
05 17545
▁effectif 17545
▁milk 17542
▁offenders 17542
▁Darfur 17542
▁50% 17540
▁prisonniers 17540
▁strange 17538
▁prioritaire 17538
▁examinée 17537
ched 17536
▁Maroc 17528
▁connue 17525
▁pack 17523
▁réalis 17518
▁parcs 17517
▁align 17516
hyd 17514
▁Reg 17513
▁Bush 17510
▁faster 17509
▁autonome 17509
▁considerably 17506
▁honte 17506
▁generations 17503
▁liquid 17502
▁humanity 17501
▁sufficiently 17498
▁lasting 17498
▁monitored 17496
ree 17496
▁renewal 17489
▁levée 17485
▁channels 17484
?" 17484
▁automatiquement 17484
issait 17482
▁withdraw 17479
▁emp 17479
▁Conf 17478
▁bénéficié 17478
otte 17477
▁workforce 17470
▁attempts 17467
▁signing 17467
▁canal 17467
▁Sport 17465
▁cohesion 17464
ida 17463
icks 17461
active 17460
obtention 17460
▁output 17459
▁Chicago 17459
▁éventuellement 17456
▁cessation 17455
fe 17454
▁lab 17449
ru 17448
▁réputation 17446
▁advantages 17444
mission 17442
▁bur 17442
▁succeed 17435
▁depth 17435
ums 17434
▁bilatéraux 17434
▁eating 17433
▁solely 17432
▁Argentina 17431
▁mentionnés 17430
exprimer 17429
▁mixed 17427
ways 17423
▁solde 17423
▁audits 17422
▁recensement 17422
▁exclus 17417
▁attaque 17414
asc 17413
▁Ath 17413
▁salles 17413
▁synthèse 17411
▁nette 17410
▁households 17407
▁oversight 17406
▁diminuer 17403
▁lance 17402
▁Show 17399
▁Date 17395
▁routine 17393
importants 17393
▁Lu 17392
ij 17391
▁eligibility 17388
▁statutory 17385
▁thé 17384
▁essentially 17379
▁mettra 17377
▁tab 17374
▁pieces 17374
▁Page 17370
▁fréquent 17366
▁magasin 17366
▁schemes 17365
▁particules 17362
▁voud 17361
▁repris 17358
▁préf 17358
▁Parfois 17358
▁tap 17356
▁reservations 17355
▁complicated 17355
▁studio 17355
▁intern 17354
bon 17353
▁phrase 17352
▁sensibles 17350
▁organs 17348
▁religieux 17347
▁adopting 17344
▁vend 17339
▁15. 17337
ral 17337
▁recipient 17336
▁spécifiquement 17335
uro 17334
▁imposées 17333
▁adjustments 17326
▁CL 17318
▁biggest 17317
▁adapt 17316
24 17315
▁prot 17313
▁conjointe 17310
▁Up 17309
▁législative 17309
cep 17308
admissibilité 17304
▁Studies 17301
▁comprenant 17299
▁Southern 17296
▁execution 17294
▁dure 17293
▁Ess 17291
▁guard 17291
▁centrales 17291
▁ski 17289
▁DC 17285
▁investors 17284
aces 17283
▁Local 17283
▁barre 17278
▁consolidated 17276
atelier 17275
▁clauses 17272
▁basé 17272
▁expense 17267
▁séminaire 17265
▁faisaient 17263
▁contingents 17262
▁Iraqi 17262
▁bul 17261
▁transformer 17261
▁owners 17260
▁evident 17259
▁semblable 17256
▁soeur 17254
GC 17253
▁résident 17253
▁salmon 17252
▁2010, 17242
▁sinon 17239
▁select 17238
▁preserve 17236
▁Brian 17236
▁assisting 17234
▁complexity 17233
▁Hol 17231
▁Faut 17231
▁obtaining 17219
▁chanson 17217
▁exploration 17216
ero 17213
mine 17211
▁ignore 17209
▁soft 17208
▁administrateurs 17207
▁$4 17206
edi 17202
▁triste 17201
▁Techn 17193
▁hab 17188
with 17186
ito 17183
▁subjected 17181
▁variété 17181
▁helpful 17179
▁bateaux 17179
▁annonce 17177
▁Développement 17176
oise 17172
▁déficit 17172
entend 17171
▁réagir 17169
▁flag 17163
▁fraction 17163
▁hôpitaux 17163
▁frame 17162
▁pap 17162
▁demandent 17157
▁weekend 17156
▁déclarer 17156
▁mill 17154
▁Drug 17151
▁Turn 17150
éléments 17146
▁compétente 17145
▁Prix 17141
▁Rom 17138
▁coupe 17136
▁tendant 17136
▁installed 17134
▁cli 17133
▁adressée 17131
▁Ham 17130
MI 17126
▁électrique 17126
▁attach 17125
▁Danemark 17123
▁golf 17122
▁progressivement 17117
acte 17115
apprendre 17115
▁pig 17113
▁falls 17112
▁introduit 17111
▁aborder 17110
▁écosystèmes 17105
▁Senior 17098
▁marqué 17098
▁consulted 17097
▁authorization 17097
▁Festival 17092
iance 17091
4/ 17090
▁Until 17088
efforts 17085
▁traduit 17085
▁supporter 17083
▁recover 17082
▁enf 17079
▁décennie 17079
▁sole 17078
rel 17077
▁affectés 17077
▁consistently 17076
▁qualifiés 17076
▁pertinente 17075
▁respec 17072
outs 17071
▁sand 17069
▁sight 17068
▁excellence 17067
▁ajoute 17066
▁Roy 17065
▁maternelle 17060
▁garantit 17060
▁aurez 17059
▁intends 17055
66 17055
▁jardin 17054
atrices 17054
▁réussir 17053
▁favorise 17049
mann 17046
▁zero 17041
▁disparition 17039
▁Prosecutor 17037
▁Dou 17037
▁sav 17035
▁Cr 17031
▁summit 17028
▁Edmonton 17028
▁sake 17021
class 17017
▁situated 17014
▁OR 17012
▁hospitals 17010
▁thirty 17010
▁Supp 17010
alisées 17007
▁98 17003
▁rob 17002
ourn 16999
▁exclusively 16997
leg 16997
▁Ministerial 16996
mi 16995
▁Bienvenue 16995
▁concevoir 16995
room 16994
▁invest 16993
6/ 16992
▁score 16991
non 16991
▁Salvador 16990
▁liked 16987
▁references 16981
2/ 16977
orer 16975
▁presidency 16970
▁organisés 16970
▁secured 16969
isc 16969
▁posé 16969
▁Bu 16967
▁201 16967
▁listening 16965
▁détection 16962
▁Croatie 16962
▁CAN 16959
▁hyd 16959
▁Wil 16957
éliminer 16956
▁prévoient 16954
▁kn 16952
▁library 16952
▁dedans 16952
▁losing 16951
▁Accord 16951
▁longues 16950
▁upper 16946
▁tolérance 16945
çant 16944
▁circulated 16942
light 16941
▁Industrial 16940
▁ours 16939
▁MC 16939
▁publiée 16939
idé 16937
▁curriculum 16936
ower 16933
▁dispens 16933
▁palestinienne 16933
abus 16932
▁unies 16932
▁mange 16931
▁posent 16931
▁conçus 16929
▁deployed 16928
▁preparations 16928
▁Finances 16927
▁contributes 16925
ason 16924
▁tél 16924
ict 16918
▁incentives 16917
first 16916
▁belief 16913
▁douleur 16912
▁Pourtant 16910
▁intra 16909
▁souplesse 16907
▁qualification 16901
iler 16901
▁declined 16901
▁uncertainty 16896
` 16896
▁SAR 16895
▁bénévoles 16894
▁vaisseau 16894
▁knowing 16893
cule 16891
▁rac 16889
oper 16887
▁IS 16878
▁nettement 16878
▁Mediterranean 16877
estime 16876
▁tarif 16873
▁solve 16871
▁références 16871
▁portable 16866
▁Unless 16863
▁Somalia 16863
estation 16862
▁coucher 16861
▁ordinaires 16859
▁Grant 16857
▁TIC 16857
▁dying 16856
▁swear 16854
▁rising 16853
▁bath 16852
▁Gre 16849
▁fre 16843
▁Doctor 16842
▁AT 16841
ener 16839
▁ste 16838
▁comprises 16837
aria 16836
▁Aut 16832
aî 16830
▁notif 16829
▁municipality 16828
▁channel 16826
▁logistique 16824
▁dépl 16823
▁bain 16821
▁kiss 16819
▁sugar 16817
▁précisé 16813
▁arbres 16806
▁platform 16804
▁Sector 16804
▁allocations 16800
▁recouvrement 16799
▁novel 16796
osis 16793
attribution 16793
▁Add 16792
▁fardeau 16791
▁enormous 16790
▁expl 16789
iness 16787
▁Adam 16786
▁credibility 16785
▁citoyen 16785
▁highlight 16783
▁negotiating 16782
▁ronde 16782
▁enceinte 16779
▁clos 16776
▁forests 16775
▁Parti 16775
▁viv 16774
sized 16770
▁Ger 16768
bing 16767
▁modules 16766
▁Having 16760
▁Darfour 16757
▁amené 16756
ction 16754
▁Blue 16752
▁assisted 16750
▁élus 16750
▁lucratif 16750
▁73 16749
▁colon 16747
▁censé 16742
▁inclut 16738
▁augment 16737
lections 16732
▁deals 16730
▁intensive 16729
▁foyer 16729
▁décrites 16727
▁surprised 16726
▁partiel 16725
▁responding 16724
▁Lim 16723
lam 16720
▁amélioré 16720
▁appro 16718
▁orientale 16715
▁absolute 16714
▁exigent 16711
▁24, 16709
▁retail 16707
▁Statut 16707
asts 16706
▁Disarmament 16702
▁initially 16701
onnées 16696
exp 16694
▁Manager 16694
▁elect 16684
homologation 16683
ury 16680
▁distribuer 16679
Zélande 16676
▁returning 16674
▁salon 16673
▁protocoles 16672
▁archives 16670
5,000 16670
▁linguistiques 16669
▁finales 16669
▁jeudi 16666
▁matériels 16665
▁descriptions 16664
▁écoute 16663
-10 16656
▁déplacements 16655
▁22, 16651
▁fiscales 16647
▁prati 16641
rite 16638
▁détaillé 16637
▁birds 16636
▁Nuclear 16633
▁neck 16633
▁Card 16630
▁BCE 16630
▁WHO 16629
▁checked 16628
▁marins 16628
▁hi 16626
vo 16623
▁defend 16622
▁definitions 16621
▁Population 16619
▁upset 16614
▁extérieures 16614
▁manuel 16613
▁danse 16612
▁diversif 16609
▁consommateur 16608
▁Nairobi 16607
face 16605
gar 16604
▁sin 16603
inscrire 16603
▁23, 16598
issons 16597
atta 16595
▁congratulate 16594
▁possèdent 16592
21 16591
▁portefeuille 16590
▁religieuses 16590
pon 16589
anie 16588
▁oblig 16587
▁posed 16587
▁Gold 16587
▁piste 16580
▁réels 16580
wards 16577
▁aspirations 16574
▁fax 16574
arians 16573
illed 16572
▁numéros 16572
▁connec 16568
▁ends 16565
▁bilingual 16561
imagine 16559
atiquement 16554
▁everywhere 16551
▁résulte 16549
▁fenêtre 16545
▁meaningful 16542
ested 16542
▁préc 16538
▁territoriaux 16536
▁precise 16535
▁Kuwait 16533
▁amendement 16530
▁phosph 16528
roll 16528
née 16528
▁tenté 16521
▁Los 16518
honorable 16517
▁négocier 16516
▁intégrées 16516
ERS 16513
▁transfrontal 16512
▁pursued 16511
▁vécu 16510
▁révisée 16510
▁carburant 16509
tionn 16508
▁Arch 16506
▁Greek 16505
▁organise 16501
▁Rad 16501
▁gro 16499
lor 16497
▁sanitaires 16497
▁Provincial 16496
tienne 16494
arrête 16494
▁Swiss 16493
ential 16492
▁Jeff 16490
▁turb 16490
▁servants 16488
▁frameworks 16486
▁voy 16485
▁contracting 16484
▁describes 16484
▁guère 16484
▁prolifération 16479
▁informatique 16478
▁blessé 16468
▁aside 16467
▁approuvés 16465
▁bother 16464
▁varie 16462
▁vi 16460
▁Britain 16458
▁descend 16458
▁Old 16457
▁turning 16456
▁humans 16454
▁sponsors 16454
▁typically 16451
▁worker 16451
▁County 16450
▁Oceans 16447
▁leçons 16447
aver 16446
▁gravité 16446
▁Sil 16444
▁granting 16441
▁originally 16439
▁transnational 16439
▁incorporate 16438
rd 16438
▁Systems 16438
▁officiers 16436
▁fournissant 16433
▁jail 16431
▁deeply 16428
▁citoyenneté 16428
▁reconnaissant 16423
▁Discrimination 16422
tern 16420
▁Italie 16418
▁faces 16417
▁accompl 16413
▁chute 16413
▁Licence 16412
▁handicap 16409
▁armé 16405
▁quantitative 16401
▁Coast 16401
cial 16400
▁recher 16399
▁lieutenant 16398
▁Move 16394
▁dégradation 16394
▁Number 16390
asp 16385
▁mobiliser 16384
▁disasters 16378
▁hy 16378
▁étions 16378
▁Guerre 16376
▁demeurer 16374
▁Sav 16372
▁bandes 16370
attente 16364
▁gouverneur 16363
▁Northwest 16362
▁sum 16355
▁Quality 16354
▁précédents 16353
aid 16351
▁Prov 16350
▁split 16350
▁hal 16345
▁suspended 16339
▁fewer 16336
▁Bad 16336
▁sentiments 16334
▁fréquemment 16333
▁Walter 16332
▁fairly 16331
▁grew 16330
actes 16330
▁bour 16327
▁Doc 16326
▁188 16326
▁introducing 16323
profit 16322
▁lake 16321
▁accueilli 16321
▁préparatoire 16321
▁personally 16320
attaque 16320
▁protégés 16319
▁Géorgie 16314
accepter 16307
▁Sen 16305
rég 16302
occup 16301
▁Communities 16298
▁Analysis 16296
▁Documents 16295
▁injuries 16294
▁Cou 16294
▁cacher 16288
▁instruc 16286
▁Kevin 16284
▁ressortissants 16283
▁kitchen 16282
▁calendar 16281
▁ouverts 16279
ural 16276
aiss 16274
▁Taylor 16272
.6 16271
▁interactive 16267
▁Santa 16264
▁dirais 16263
▁tueur 16262
▁précieux 16262
iqu 16257
amine 16257
▁péril 16251
▁unacceptable 16249
▁900 16246
▁email 16243
ild 16240
bit 16239
▁tele 16239
▁choisis 16239
▁vivement 16236
rement 16235
FI 16232
▁causing 16231
▁taste 16227
▁Didn 16227
▁risquent 16227
anne 16223
▁seminar 16221
▁pace 16221
▁VII 16210
tien 16209
but 16207
eff 16204
can 16204
▁excess 16203
teenth 16202
▁cérémonie 16201
▁Gender 16199
EX 16199
▁envisaged 16198
▁perceived 16198
▁fusion 16198
▁regrette 16195
▁appréci 16195
alisés 16192
▁AL 16190
▁Bre 16187
▁Chypre 16186
▁rub 16184
▁recording 16179
▁commandement 16179
▁restructuration 16176
▁owe 16175
▁Scientific 16173
▁montagne 16168
▁crossing 16167
ORT 16163
▁visiter 16161
util 16157
▁crédibilité 16157
▁Instead 16156
▁residential 16156
▁récent 16155
▁acquire 16152
▁mobil 16152
▁Environ 16151
▁themes 16150
▁répondant 16147
▁coordinating 16146
▁définitions 16142
ographic 16140
▁validation 16136
▁ratifié 16136
▁Hal 16134
▁dotés 16132
▁voler 16129
▁métaux 16122
ailed 16121
MENT 16120
feu 16119
ius 16110
qui 16109
▁Bulgaria 16108
▁procurer 16107
▁incroyable 16106
▁tas 16103
▁encouragé 16102
▁Best 16099
assé 16097
idité 16094
▁transl 16091
▁célèbre 16088
▁éch 16087
▁Ressources 16087
▁véritablement 16087
▁deb 16083
▁accounted 16083
dit 16083
▁connus 16083
onnement 16082
osh 16080
▁adopte 16080
▁chaleur 16080
aling 16079
▁respectifs 16075
▁pars 16074
▁déposée 16073
▁FNUAP 16069
▁characterized 16068
▁suffisantes 16064
▁préfère 16063
fish 16062
▁fortes 16062
atal 16057
itude 16056
ames 16052
▁Vo 16047
▁lum 16046
▁précisions 16044
▁représenté 16043
▁ethical 16042
▁dirigé 16042
rate 16036
▁Centres 16035
aring 16032
▁staying 16027
▁mé 16027
▁outer 16026
▁AU 16026
▁intensif 16025
▁étoiles 16024
▁doctors 16022
▁incl 16022
▁reconnue 16022
ulated 16019
▁amples 16019
▁performing 16013
expertise 16011
▁royale 16009
▁mixte 16008
▁pers 16007
▁palestiniens 16005
olog 16004
▁concrets 16004
arian 16002
mère 16001
▁Activities 16000
▁evaluations 15999
actif 15999
▁francophones 15997
▁paquet 15997
UNESCO 15996
▁Tommy 15994
▁hautement 15994
▁Ban 15993
organ 15993
omes 15992
▁mentionner 15991
▁versement 15990
▁certif 15988
▁intitulée 15988
elled 15985
▁progression 15985
▁consistency 15980
▁compulsory 15979
▁vir 15979
▁180 15972
indre 15972
▁dépendance 15971
▁tranquille 15969
▁preventive 15967
édition 15967
▁condamné 15967
▁surveill 15965
Un 15964
▁Trop 15963
iation 15962
▁Pos 15956
▁consacrer 15956
▁subsidiary 15954
▁colonies 15954
proliferation 15944
▁vérifications 15944
▁prenez 15944
▁exploiter 15942
▁PN 15936
▁Sou 15936
ositions 15934
SB 15933
23 15930
▁notified 15929
▁tw 15928
▁communiqués 15927
▁contr 15925
▁pâ 15925
▁audio 15924
▁ruling 15923
▁187 15923
▁délinquants 15923
▁creative 15921
arge 15920
ozone 15920
trait 15919
▁1993. 15917
▁Str 15915
▁menés 15915
▁manifestation 15914
▁expanding 15912
▁consacrés 15907
▁alarm 15904
attends 15904
▁Valley 15902
▁doses 15899
▁provinciale 15899
▁earnings 15898
▁runs 15896
▁25, 15895
▁génér 15895
▁sulf 15894
▁gagne 15894
▁refund 15893
▁commander 15889
▁Income 15886
su 15885
▁hopes 15884
ific 15882
▁survive 15882
▁comptabilité 15880
▁Liber 15879
▁plat 15878
▁criminels 15878
▁réductions 15878
▁confidential 15877
ado 15874
▁Place 15872
utilisateur 15872
▁greenhouse 15864
▁coh 15864
other 15863
▁voient 15857
▁fired 15856
▁Toujours 15855
▁investissement 15853
▁assisté 15851
lev 15850
▁contingent 15848
▁Dec 15847
▁collègue 15843
▁grab 15840
écoute 15840
▁informés 15839
▁ferroviaire 15839
▁investigated 15836
▁cup 15833
▁tourner 15832
▁négatifs 15831
▁Palestinians 15830
26 15827
▁Award 15826
uites 15823
▁ratta 15823
mat 15822
▁girlfriend 15822
new 15820
▁Métis 15820
Ph 15819
▁publicly 15818
▁Design 15817
▁syndicats 15817
▁bid 15816
▁struggle 15813
▁doors 15811
▁Che 15810
▁Zimbabwe 15804
▁Pap 15802
▁divulgation 15801
▁formula 15800
ration 15800
▁gratuitement 15800
▁flu 15799
▁subir 15799
abs 15795
▁bearing 15794
sez 15794
fs 15793
Or 15788
▁forgot 15786
cing 15785
▁u 15777
▁tangible 15775
▁Suite 15775
▁Indigenous 15770
▁comprise 15767
▁feuilles 15767
▁touchées 15767
▁Reste 15765
▁allemand 15763
user 15759
▁raisonnables 15759
trans 15757
ffer 15753
▁blame 15751
▁lawyers 15748
ça 15746
▁universel 15746
▁Ev 15742
▁processed 15740
▁dépistage 15740
▁listing 15736
uted 15735
auc 15735
président 15728
▁suspects 15724
▁receives 15721
▁injured 15721
▁incluant 15718
▁jure 15717
▁1991. 15713
office 15713
▁equ 15711
▁Grands 15711
aie 15706
▁Personal 15705
Ad 15705
▁bathroom 15705
▁collabor 15702
▁delays 15701
▁indiquées 15699
articles 15698
▁projections 15697
agence 15697
▁causer 15695
▁corner 15693
▁attends 15693
▁traces 15691
▁sixty 15689
▁terminal 15686
▁Ten 15684
▁employ 15680
▁ticket 15678
▁Gro 15678
▁lowest 15676
▁whenever 15657
▁Try 15656
▁vaccination 15655
▁contaminants 15654
▁officially 15653
▁spectrum 15653
▁Indiens 15653
▁prononcer 15651
▁Cher 15649
▁renewable 15648
▁Chili 15646
▁Sec 15644
▁prescription 15641
▁contenus 15641
▁tente 15641
ulaires 15640
▁armée 15640
▁cond 15639
▁transmet 15639
▁ecological 15637
▁Haiti 15637
iale 15636
▁affecté 15636
not 15635
▁quarante 15633
▁hommage 15632
▁Recommendation 15631
arriver 15631
sive 15627
▁macro 15626
NE 15624
▁Town 15621
▁navig 15620
▁séminaires 15619
▁1992. 15618
▁familiales 15618
NI 15616
▁égale 15616
▁validité 15615
eline 15614
▁smell 15610
▁ending 15608
▁drew 15607
▁Paragraph 15606
▁meurt 15606
▁hyp 15600
▁internally 15598
tible 15598
▁prosperity 15596
envoyer 15596
ool 15592
▁random 15592
▁safeguard 15590
sign 15589
▁Fire 15587
▁Anything 15584
tons 15583
iteur 15582
▁existed 15579
hood 15574
amm 15570
▁familial 15568
inflation 15567
▁confidentialité 15567
▁experiment 15566
▁mères 15565
▁missiles 15559
▁chimique 15558
▁neuro 15557
▁enables 15556
▁immédiate 15554
▁cessé 15554
▁chronic 15553
▁achevé 15553
▁lock 15551
▁fragile 15551
▁Corporate 15550
▁Kim 15547
▁SE 15544
▁Between 15543
▁sheet 15542
▁deme 15536
▁radical 15535
▁Commonwealth 15534
La 15533
▁noise 15532
▁révél 15532
informer 15532
▁attract 15527
▁diplomatique 15527
tais 15527
▁Jake 15525
▁PMA 15524
▁découverte 15522
wn 15521
ography 15518
▁restructuring 15516
▁positives 15513
orth 15512
▁penalties 15510
HST 15508
riques 15508
▁supplement 15504
▁premises 15504
▁liv 15503
itant 15500
accords 15500
▁bre 15495
▁exprimées 15493
▁Boy 15492
▁obliged 15491
▁Round 15484
▁cousin 15484
aura 15483
quin 15478
▁Wal 15476
UC 15474
▁rétablir 15474
▁governmental 15473
▁nominations 15472
▁Sy 15466
▁marin 15465
▁pren 15465
▁Bulgarie 15462
▁exercices 15461
▁paie 15460
▁urbain 15457
OIT 15456
▁stimuler 15451
acier 15449
▁neighbouring 15447
▁Press 15447
▁adapted 15444
▁imprisonment 15444
▁accommodate 15441
▁domain 15440
umer 15440
▁Johnny 15439
▁portait 15439
▁géographiques 15439
▁DND 15437
government 15436
▁idéal 15434
▁requesting 15431
▁repair 15428
▁cin 15427
▁diversification 15420
▁commandes 15419
▁persist 15418
▁publish 15415
▁accro 15414
88 15410
▁py 15409
▁reputation 15407
▁Governing 15404
▁dépasser 15404
▁pertaining 15401
month 15397
▁Guinée 15393
▁tight 15391
▁représent 15391
inclusion 15390
▁69 15388
▁186 15386
▁negotiated 15383
▁Syrian 15380
iot 15380
▁engager 15379
▁légal 15375
▁convaincre 15373
▁analyser 15366
▁precisely 15363
▁crash 15362
emment 15362
▁fraude 15362
▁tarifaire 15361
▁advances 15359
▁Angola 15358
lying 15357
République 15354
▁procedural 15348
Sud 15346
▁(3) 15345
édé 15343
▁rév 15341
▁antérieures 15341
▁protein 15339
South 15336
▁Prior 15336
▁74 15334
▁folle 15333
▁Ministres 15332
aisse 15331
-00 15330
▁favourable 15329
ipe 15324
▁librement 15323
▁électeurs 15321
▁tolerance 15320
onds 15319
▁prê 15318
▁reintegration 15317
▁estiment 15312
▁Reports 15304
▁comté 15302
▁délibérations 15301
uent 15299
▁œuvres 15299
▁quota 15295
▁ECB 15290
▁dépôts 15290
▁malheureusement 15290
▁placés 15290
▁aval 15288
▁univers 15286
00, 15286
tionnel 15286
like 15284
▁parental 15277
▁fiables 15272
▁picked 15269
▁Rock 15268
▁identité 15268
▁Somalie 15267
▁Billy 15266
oriented 15262
▁1985, 15262
▁boyfriend 15259
▁Pa 15258
▁Dutch 15257
▁Issues 15256
▁ress 15255
▁disais 15253
angle 15251
▁beings 15250
BA 15250
gue 15249
▁bénéfice 15249
ètre 15248
▁ressource 15248
▁2.1 15247
▁stabil 15246
▁datée 15245
▁individuelles 15244
▁subsidies 15243
▁consul 15242
▁UNIDO 15242
▁viewed 15241
▁bail 15239
▁hired 15236
▁versé 15232
▁sain 15230
AU 15227
▁périodiques 15221
▁expériment 15219
▁segments 15217
▁assis 15217
▁buddy 15215
▁nutri 15209
▁supplier 15208
▁assurances 15207
index 15207
▁empty 15205
▁rapides 15203
▁diriger 15201
▁renvoi 15198
Québec 15193
▁bibliothèque 15192
▁arrêt 15192
▁assignment 15189
▁cellule 15188
▁seminars 15187
▁Rose 15185
organe 15185
▁Simon 15184
▁dess 15183
▁douce 15180
▁headed 15175
▁dom 15175
ouch 15174
▁Quatre 15174
▁amongst 15173
▁combattants 15173
▁constantly 15171
▁affects 15170
AI 15169
▁wet 15168
Ottawa 15168
▁rapporteurs 15164
▁Languages 15164
▁mothers 15161
▁maritimes 15161
▁tirés 15161
▁confirme 15159
▁checks 15156
erc 15156
TER 15155
▁false 15149
▁council 15149
osé 15149
eless 15146
▁frères 15146
▁couvert 15146
provincial 15140
▁Yugoslavia 15139
▁sexy 15139
▁assister 15139
▁vocational 15136
▁SCT 15136
▁Greg 15136
▁repr 15131
box 15131
▁venant 15130
▁tank 15127
▁Statute 15126
pir 15123
▁frapp 15121
▁hazardous 15119
▁pêcheurs 15119
CB 15118
▁Rule 15113
▁iron 15113
▁Currently 15113
▁occuper 15113
▁syn 15112
▁essaie 15112
urb 15110
▁younger 15107
▁Afghan 15107
▁guides 15106
agé 15104
▁justif 15103
▁supplied 15102
intéresse 15102
▁transmit 15101
▁destin 15101
agne 15101
▁mercredi 15101
▁bigger 15100
▁native 15100
▁invent 15100
isations 15095
▁Reserve 15093
▁reinforce 15089
▁migrant 15089
▁manifeste 15089
1/ 15087
cé 15085
▁remarqué 15085
> 15080
▁désignation 15080
▁UNESCO 15076
érations 15076
▁déch 15075
▁safeguards 15066
▁1987, 15063
▁Draft 15062
▁Ibid 15061
▁contribuera 15061
▁AP 15060
ône 15060
▁shopping 15059
▁typical 15058
uite 15058
▁flic 15056
▁calculation 15052
▁médiation 15050
rif 15049
ataires 15047
▁Jud 15045
▁témoignage 15041
tered 15040
27 15039
▁spécif 15039
▁edge 15037
▁approuvée 15036
▁polluants 15034
▁motivation 15029
▁Funding 15028
▁Guard 15027
▁dial 15018
▁Fair 15018
iving 15017
▁Anyway 15017
▁raff 15017
expert 15017
▁crop 15015
burg 15015
emplacement 15015
▁bombe 15014
▁cad 15013
▁mardi 15013
▁Hospital 15012
▁assign 15007
Rev 15007
▁automobile 15005
▁Koweït 15005
isions 15003
▁avancées 15002
▁rues 15000
▁accent 14999
▁traduire 14999
QU 14994
▁terrorists 14994
▁exposition 14994
▁conciliation 14993
top 14993
▁enabled 14991
exploration 14985
▁ouv 14984
▁angry 14983
▁Corps 14982
opérations 14979
instauration 14979
▁therapy 14978
▁None 14977
acceptation 14977
▁consolider 14977
▁adressées 14976
▁tabled 14975
▁beer 14974
▁presentations 14971
▁cops 14969
▁rechercher 14964
▁Pursuant 14962
▁Phil 14961
▁plomb 14961
tors 14960
▁dispers 14959
▁ministériel 14957
étend 14953
▁WP 14945
▁Lastly 14941
▁Maria 14941
pped 14940
▁harcèlement 14940
ights 14939
PD 14936
▁rein 14935
ival 14935
▁beauté 14934
unk 14931
vention 14931
univers 14931
▁Ang 14930
▁situe 14929
▁separation 14928
▁likes 14922
language 14922
▁donnera 14922
▁Donnez 14921
▁Liberia 14920
date 14919
▁estate 14918
▁Commissariat 14917
▁reiterated 14916
▁moteurs 14914
titu 14913
▁sy 14913
MR 14913
▁vulnérabilité 14909
▁auspices 14908
▁coal 14908
▁desc 14908
▁succession 14906
▁tomb 14905
oeuvre 14905
▁rotation 14904
44 14904
▁mini 14901
▁cruel 14898
▁satisfactory 14895
▁sleeping 14895
ova 14894
anglais 14893
asion 14892
▁Overall 14886
▁clubs 14886
▁lendemain 14884
onom 14882
▁Down 14880
atte 14878
▁manufacture 14874
Bissau 14874
▁Strasbourg 14873
United 14872
édi 14867
▁provider 14866
▁consultative 14866
▁vastes 14866
▁substanti 14865
▁dons 14865
▁laugh 14861
▁faisais 14859
▁rempli 14858
▁starts 14857
▁environments 14857
▁repl 14857
▁Pay 14857
essence 14854
▁fermeture 14854
▁76 14852
▁Vietnam 14849
cri 14848
▁spatiales 14848
▁drunk 14847
FR 14845
▁urges 14842
▁assassin 14841
▁earned 14840
▁guest 14840
▁irré 14840
▁inhib 14836
▁Base 14835
▁quitte 14835
▁mentionnées 14833
▁Mali 14830
▁religions 14828
▁1.1 14825
▁pregnancy 14819
▁sors 14817
▁déta 14815
37 14813
▁Ty 14813
raising 14812
▁flying 14810
▁organize 14810
▁approve 14804
west 14803
▁varied 14802
▁écrire 14802
assainissement 14802
essentiel 14799
▁aident 14799
▁soumet 14791
▁awards 14790
▁reception 14789
▁cy 14784
▁TH 14781
▁terrestres 14781
▁tir 14779
▁partly 14772
▁intégration 14772
▁Sciences 14771
▁remedy 14767
▁beneficial 14766
▁accomplir 14765
▁establishes 14764
▁apparently 14764
▁bienvenue 14764
▁lev 14763
▁garage 14762
▁psychological 14759
▁focal 14758
▁Lawrence 14754
▁énergie 14752
AND 14750
▁couples 14748
▁supérieures 14747
▁prohibition 14741
▁unknown 14739
▁Commander 14739
▁evil 14738
▁couleurs 14738
▁Hungary 14735
▁Tes 14734
▁crap 14734
▁Nombre 14732
▁repeated 14731
▁enseignements 14731
▁énoncé 14728
▁operator 14727
PT 14726
▁génétiques 14725
ee 14723
▁10% 14722
▁Ir 14722
▁réinsertion 14722
▁Écoutez 14721
▁Final 14719
ni 14718
▁27, 14717
▁arrivent 14716
▁28, 14715
▁delivering 14714
▁MONUC 14714
▁Case 14711
hereinafter 14711
oue 14708
▁bird 14706
▁volunteers 14706
▁Heads 14706
▁intelligent 14699
▁accuracy 14694
Air 14694
▁procédés 14693
▁preferred 14692
▁turns 14692
▁SD 14692
▁89 14691
▁héros 14689
hand 14688
▁extérieurs 14688
▁machinery 14687
plan 14686
▁remarquable 14686
▁advise 14683
▁Garde 14683
▁Amy 14682
▁figurer 14682
▁verra 14681
▁streets 14680
ession 14677
▁Programs 14677
▁comfort 14675
▁retained 14671
▁coherent 14670
▁Session 14669
▁détermine 14669
atively 14667
▁obtenues 14667
▁Fred 14666
▁AD 14665
▁Inde 14665
▁cot 14664
graph 14663
▁Line 14663
▁rencontres 14660
▁hoping 14659
arrière 14659
▁timing 14654
▁liquide 14654
▁Too 14652
gy 14651
awa 14649
▁institutionnel 14649
▁vou 14647
▁manual 14647
venir 14647
▁Drugs 14646
▁breast 14646
▁arbitral 14644
▁criminel 14641
▁1986 14640
▁neutral 14639
▁prospects 14639
▁représentante 14639
▁Ross 14637
▁DP 14637
▁traditionnelle 14637
PM 14635
▁proliferation 14633
▁cast 14633
▁summ 14633
▁fleurs 14631
▁vérif 14631
▁terminée 14628
▁camion 14627
aving 14625
▁lacs 14624
▁fermer 14624
▁écologiques 14623
▁diplôme 14622
▁séparation 14620
▁zéro 14619
utilité 14619
▁physi 14617
▁industrie 14617
▁capt 14615
▁SU 14615
▁retenir 14615
▁occupés 14613
▁thematic 14608
▁cohérente 14608
aille 14607
▁mét 14604
▁ultimate 14601
▁manip 14601
onie 14601
▁coordonnées 14601
▁situées 14597
▁artist 14596
▁délivrance 14592
▁sexuels 14589
atmosphère 14589
▁Gestion 14587
▁ages 14582
▁recev 14581
▁unfair 14580
▁spatial 14578
▁aériens 14578
▁offertes 14577
ón 14575
illée 14572
▁cesser 14571
temps 14568
tains 14567
▁exchanges 14567
▁nevertheless 14567
▁exportateurs 14566
▁lovely 14565
wer 14562
aly 14562
olution 14561
▁gamin 14560
▁grossesse 14557
▁Nom 14554
actifs 14553
▁bière 14551
▁pharmac 14550
anding 14547
▁toilettes 14547
▁documented 14546
▁révèle 14544
▁ordonnance 14544
▁américaines 14543
▁comptent 14539
▁sustain 14538
▁imposer 14538
enez 14535
▁taxi 14534
▁keeps 14532
▁subregional 14530
▁pet 14526
▁ECE 14525
ède 14523
▁fishery 14522
▁touchent 14522
▁jolie 14519
▁Faso 14515
▁renouvelables 14515
▁gri 14514
▁Innovation 14514
▁threshold 14513
▁affili 14510
▁caution 14508
▁resort 14508
▁separately 14506
▁bancaire 14504
▁CANADA 14503
èle 14502
▁grass 14500
▁stars 14495
▁chargées 14495
▁officieuses 14495
▁vague 14494
▁Tal 14494
▁consistant 14492
▁interpreted 14491
▁stabilisation 14491
▁recueillies 14490
ancienne 14488
▁pes 14486
▁menti 14485
▁notable 14484
doc 14484
▁Daddy 14481
▁satellites 14479
ader 14479
▁Tre 14478
initiatives 14478
▁assurant 14478
▁projected 14476
▁hasard 14476
▁vendu 14475
▁chéri 14474
▁shortly 14472
▁thorough 14469
▁décentr 14469
dedans 14469
▁testimony 14468
▁1985 14467
▁partial 14466
▁Front 14466
▁respectent 14465
▁Net 14464
▁Emergency 14464
GA 14464
▁rape 14462
▁facilité 14462
▁rectifications 14461
▁Euh 14460
▁calculer 14459
gne 14457
2), 14452
▁remedies 14450
▁gene 14449
▁avance 14449
▁attractive 14445
▁producteur 14445
▁flics 14443
iding 14442
▁Ser 14440
▁blessés 14440
▁banking 14437
▁Rod 14437
wan 14436
▁pardon 14436
istance 14435
▁14. 14432
▁environnemental 14429
________________ 14427
▁counselling 14426
▁Victor 14422
site 14420
▁Uganda 14419
▁définie 14419
▁Dam 14418
dition 14418
elt 14417
abe 14417
▁frequent 14415
dic 14414
▁annuelles 14413
▁Institutions 14411
▁eh 14411
▁identifié 14409
▁Real 14408
.1) 14408
▁financed 14407
▁operates 14407
▁78 14407
▁fol 14407
kg 14406
▁tail 14403
▁geographic 14398
▁bénéficie 14394
ombre 14390
▁discussing 14389
▁roads 14388
▁Rev 14387
▁verify 14382
▁Conventions 14381
▁acknowledge 14380
▁cutting 14377
▁Bab 14377
▁mag 14376
▁exhaustive 14373
▁sympa 14373
▁passing 14372
▁sixième 14371
▁doter 14371
atteinte 14371
▁repeat 14366
▁interprétation 14366
▁cited 14365
-20 14365
▁goût 14364
▁vulnerability 14363
▁Pi 14363
uve 14363
▁haine 14361
▁purchased 14360
aks 14359
case 14359
▁deliberations 14357
rew 14357
▁maintains 14355
▁belonging 14353
tiens 14353
▁Pop 14352
▁forecast 14351
▁Puisque 14348
▁confident 14347
▁juger 14342
▁honnête 14342
▁vieillissement 14340
formation 14336
▁deficit 14327
▁End 14327
allocation 14324
▁examining 14323
▁favorite 14323
apport 14323
▁transitional 14322
▁figured 14319
achèvement 14319
▁harmful 14317
▁franch 14311
▁quart 14311
▁tombé 14311
▁undertakings 14310
TP 14310
▁Roger 14308
▁mille 14307
▁ris 14306
▁retenu 14306
▁gathered 14305
▁expressions 14304
▁Rep 14301
▁walls 14297
▁MDN 14297
istant 14293
▁discriminatory 14292
▁Sénat 14292
▁débar 14292
resse 14289
▁pénales 14288
▁mutuelle 14286
chées 14285
▁vaccine 14282
▁manquer 14281
▁entra 14278
▁revolution 14276
▁harvest 14276
▁vain 14273
▁pond 14273
▁graph 14272
▁blé 14272
▁stuck 14269
▁dominant 14268
▁semblait 14268
▁analytical 14265
▁injec 14264
▁appointments 14264
criptions 14264
ault 14260
▁convey 14254
▁Knowledge 14254
▁restore 14251
mont 14247
▁étrange 14247
▁CNRC 14246
zing 14244
quis 14243
▁Mill 14243
▁situ 14242
po 14241
▁87 14241
▁driven 14241
▁versées 14238
▁Holy 14237
▁éventuelle 14237
▁atteintes 14236
onte 14234
▁restes 14233
▁harassment 14232
▁Find 14232
▁identical 14229
▁intermédiaire 14226
ologies 14224
▁Hard 14221
▁reposer 14221
▁indicator 14219
▁préservation 14218
▁fortune 14217
▁occidentale 14217
isses 14214
▁activ 14213
▁bref 14212
▁sucre 14211
▁Hoc 14210
▁détruit 14209
▁Ve 14207
▁fout 14206
expiration 14203
▁densité 14202
▁regimes 14201
▁boundaries 14200
▁doté 14199
▁Hum 14198
▁Contact 14198
▁corriger 14197
faire 14196
Re 14188
▁Using 14187
▁resumed 14186
▁(613) 14185
▁assi 14184
▁tunnel 14183
▁formulaires 14181
▁tells 14180
▁insisté 14178
▁recipients 14177
▁enforce 14176
irai 14173
▁settled 14172
▁échantillon 14171
▁Michel 14170
▁registres 14169
▁PSC 14168
▁Thailand 14164
▁fe 14163
aste 14159
▁Vu 14159
▁reçue 14159
▁CAD 14158
▁adjust 14152
▁enl 14151
▁forty 14150
income 14148
▁comptables 14143
▁governed 14142
urant 14142
▁Hongrie 14141
anth 14139
▁Level 14138
▁cherchent 14138
▁bouge 14130
▁Pré 14129
▁140 14127
▁constituted 14124
▁dessin 14123
▁chaussures 14123
▁cook 14122
▁Reporting 14120
▁creates 14119
▁1989, 14119
ived 14116
mb 14114
▁questionnaires 14114
una 14112
▁Bern 14112
▁ion 14111
▁faune 14111
▁contacter 14108
▁délégués 14108
▁Study 14107
▁complementary 14102
▁magic 14101
▁surgery 14101
lier 14100
▁IR 14098
▁assurée 14098
▁déterminés 14096
itable 14095
▁26, 14095
▁champion 14093
▁cargo 14089
htm 14089
esses 14087
2- 14087
▁transporteurs 14087
▁adaptés 14086
▁rarement 14085
ogue 14084
oux 14084
▁infected 14075
▁Anne 14073
▁vertical 14072
ias 14071
▁defining 14071
▁douane 14071
▁discretion 14070
▁unre 14068
▁rece 14066
▁convened 14062
▁judiciary 14061
▁Constitutional 14058
▁Cir 14053
▁Private 14053
EUR 14045
▁correspondance 14045
▁directrice 14042
▁degrees 14041
▁errors 14041
▁tea 14039
▁termine 14035
sy 14034
▁dues 14033
▁neige 14033
▁ethics 14032
▁comparativement 14031
▁fondés 14031
▁Stockholm 14028
▁League 14026
▁marier 14026
▁makers 14024
▁raw 14023
▁courriel 14020
▁Jamais 14020
entrer 14017
▁formally 14016
▁gratuit 14014
▁agréable 14014
▁invention 14013
▁tracking 14012
▁essai 14010
▁souhaitable 14010
aper 14008
▁apparaître 14008
▁USD 14006
▁symptômes 14005
▁hereby 14004
▁earn 14003
oto 14003
▁frappé 14000
▁3.1 13999
▁specialists 13998
▁Commons 13998
▁exploit 13995
▁1000 13995
▁cinéma 13995
▁classique 13993
▁Fifth 13990
▁legs 13990
▁fermé 13985
Ambassadeur 13985
eral 13984
entraînement 13984
▁differ 13982
▁linguistic 13982
▁appareil 13978
28 13972
▁fixée 13972
▁preparatory 13971
▁revêt 13970
▁conviendrait 13970
43 13968
▁respecté 13968
▁trains 13967
▁stra 13966
▁Clark 13961
itary 13960
▁blanchiment 13960
▁prejudice 13958
atténuation 13957
▁84 13955
▁présentations 13955
▁Vers 13954
▁sauvé 13953
European 13948
TV 13948
▁Ocean 13947
lec 13946
▁ecosystems 13945
once 13944
▁histoires 13944
▁mens 13941
erre 13937
▁arc 13937
▁journey 13936
▁91 13936
étendue 13936
▁prevented 13935
tables 13934
▁citer 13934
▁PNUE 13934
▁persistent 13932
option 13932
onnée 13932
▁perfectly 13930
▁soulevées 13929
▁loves 13928
▁employeur 13928
▁réelles 13928
▁claires 13926
▁commonly 13925
▁Territory 13925
29 13922
▁sauvetage 13922
▁CFP 13920
▁coffre 13919
▁urbaines 13917
inclure 13917
▁eggs 13916
▁locked 13915
Égypte 13910
▁Better 13909
▁promotes 13907
▁rubrique 13907
▁suppos 13901
▁86 13899
▁ec 13897
war 13897
▁classiques 13897
▁quotidienne 13895
ject 13894
▁axés 13894
▁réuni 13893
We 13891
▁Larry 13890
▁emerged 13886
▁recognised 13884
gent 13884
▁carriers 13884
CEE 13884
▁download 13881
▁saine 13880
▁gather 13878
ued 13875
▁courants 13875
▁Père 13874
▁reflecting 13868
▁Beau 13867
▁Albert 13866
▁messieurs 13866
▁suspected 13865
▁inutile 13863
▁angle 13862
▁qualifié 13862
efforce 13858
▁estimation 13857
▁2004-2005 13857
étant 13857
▁tro 13855
accéder 13853
till 13849
▁préparatifs 13849
▁gradually 13846
iet 13845
▁shoes 13845
▁renforcée 13843
▁venait 13841
▁Sunday 13839
▁recommand 13839
▁fiable 13838
▁séparément 13836
▁ty 13835
▁Want 13834
▁proviennent 13834
▁advocacy 13833
▁indiqués 13833
sifs 13830
▁hardly 13828
▁justify 13827
hen 13823
rec 13823
▁dismissed 13823
▁éventuels 13822
ifier 13821
third 13814
▁favorisant 13814
▁robe 13813
▁Sinon 13813
▁cooperative 13811
▁Microsoft 13810
▁departure 13806
▁detained 13804
▁Somebody 13804
▁fon 13802
▁agit 13801
▁compétition 13799
▁ang 13796
▁Certain 13795
▁Op 13794
▁consacrées 13793
▁indices 13792
▁accepte 13790
▁settlements 13788
▁volunteer 13788
▁landscape 13785
▁gal 13781
▁proactive 13781
▁désigner 13781
cor 13774
acheter 13774
▁Stan 13773
▁PL 13771
▁sexuelles 13770
▁Climate 13768
▁specify 13765
▁adjusted 13765
▁prenne 13765
▁Na 13764
▁hearings 13762
▁victoire 13762
▁sexuel 13762
▁rapporte 13762
▁Due 13761
▁settle 13761
ressive 13759
▁dic 13757
4), 13754
▁professions 13753
▁minimale 13752
▁Irish 13748
▁Play 13748
▁willingness 13747
▁rép 13747
Bretagne 13744
▁vraisembl 13744
▁dérou 13742
▁DR 13740
▁Sher 13737
mentioned 13734
▁metres 13734
▁dirai 13734
▁begins 13733
▁custom 13732
▁obligatoires 13723
▁stream 13720
oute 13720
È 13718
▁Amnesty 13717
▁crops 13714
án 13713
▁guns 13713
▁wages 13712
▁clim 13712
▁satisfy 13711
▁attendu 13711
inking 13708
irez 13706
échantillon 13701
▁recommander 13698
ignore 13695
▁circuit 13692
▁territoriale 13690
acide 13689
▁desired 13688
▁Andrew 13688
▁(8 13687
▁Pers 13686
▁cath 13685
▁enjoyed 13682
▁Tw 13681
▁légale 13680
▁bars 13678
ductions 13678
▁feux 13675
▁roof 13673
disciplinary 13673
comm 13673
–200 13672
▁Jones 13671
▁Notes 13671
▁rescue 13666
▁Taliban 13666
ogen 13662
▁étudi 13662
▁Pêches 13661
▁ministries 13660
▁festival 13659
▁nez 13651
▁profondes 13651
▁strictly 13650
▁député 13650
▁Dix 13649
ASFC 13649
} 13648
▁pouss 13648
▁Professional 13646
▁Espagne 13646
9/ 13643
36 13643
▁révolution 13643
▁honneur 13642
▁contenues 13641
▁accélérer 13641
▁Nik 13640
▁forthcoming 13640
▁hero 13640
▁muscle 13638
▁acted 13636
▁respecting 13635
▁2.2 13635
▁Honey 13635
▁sampling 13633
▁procède 13633
7), 13631
▁13. 13624
▁fleet 13622
▁dil 13618
wh 13617
ONUDI 13614
▁Burkina 13613
▁intérieures 13610
▁Privacy 13609
▁démontre 13609
▁émanant 13609
▁parlant 13606
▁hungry 13605
ception 13604
▁Marshall 13603
▁illicites 13603
▁adap 13600
lands 13595
▁separated 13594
ading 13593
▁childhood 13592
▁domin 13591
▁océans 13591
▁bienfaisance 13591
▁heavily 13585
▁eng 13584
▁Integrated 13584
▁inaug 13583
▁préfér 13583
▁remarks 13582
irm 13582
▁licensing 13580
▁rever 13577
▁multinational 13575
▁auto 13575
▁mercure 13575
▁fournitures 13574
▁stood 13573
▁Mart 13571
▁California 13571
▁Works 13570
▁Ob 13565
▁ecosystem 13563
▁Gulf 13563
▁LDCs 13563
▁fluctuations 13562
▁Had 13560
▁2- 13560
▁alien 13559
▁Parallèlement 13556
▁illégale 13553
▁adm 13546
▁ambitious 13544
▁admitted 13544
▁Peacekeeping 13544
▁compétent 13543
▁minors 13542
▁commissaires 13542
▁yield 13540
▁Brad 13539
▁83 13534
▁joy 13532
▁invo 13532
▁composée 13531
▁Regarding 13527
▁referring 13524
▁Committees 13522
▁possess 13520
▁specifications 13520
▁discrimin 13520
▁reflètent 13520
▁négatif 13519
▁cluster 13518
▁considèrent 13518
AIEA 13518
▁placer 13515
▁félicitons 13515
tile 13513
indemnisation 13513
▁whereby 13512
▁portfolio 13512
Comité 13509
▁gravement 13507
▁durabilité 13505
▁intim 13504
▁passés 13501
▁Infrastructure 13499
cut 13498
explique 13497
▁juvenile 13496
oked 13496
▁entreprendre 13495
▁encountered 13494
▁wildlife 13491
▁Cand 13490
▁Imm 13490
▁1.2 13487
▁announcement 13487
▁Anna 13486
▁ultérieurement 13485
▁measuring 13483
8), 13479
▁virtually 13476
FF 13476
▁pencher 13475
ually 13473
▁établissant 13473
▁protéines 13472
▁hole 13471
▁additionnels 13470
▁branche 13469
▁smooth 13468
▁médicales 13466
▁opposite 13460
▁exerce 13457
agisse 13456
▁TB 13454
▁allerg 13454
aque 13454
▁Weapons 13452
ho 13450
émissions 13450
▁noticed 13448
▁Vi 13447
TVH 13446
▁équ 13442
▁confrontés 13442
ift 13440
effort 13436
▁demandant 13435
▁visait 13434
▁da 13433
verbal 13433
5/ 13432
▁laboratoires 13431
avère 13429
▁demandons 13428
▁rêves 13421
▁savoirs 13421
▁mineral 13418
▁mang 13416
▁viendra 13416
▁realistic 13415
▁exigence 13415
▁asks 13414
▁attributed 13414
nels 13414
▁females 13413
▁Stephen 13412
▁Pension 13410
▁aliment 13410
▁lég 13409
how 13408
▁industrielles 13406
▁catalogue 13405
▁Voyons 13403
oirs 13402
▁Sécurité 13401
▁mauvaises 13401
▁symptoms 13400
▁Except 13398
▁AV 13396
▁dépendent 13395
▁agrees 13394
▁liable 13394
▁jus 13394
▁morph 13392
▁escal 13389
▁nervous 13388
yle 13388
▁conjug 13388
▁Rég 13388
▁explains 13387
▁Johnson 13387
▁conserve 13386
▁ladite 13386
▁trick 13380
▁mandated 13379
▁tissue 13379
sim 13377
▁Rail 13376
▁aéronefs 13376
▁Lacs 13375
▁qualitative 13374
▁estim 13374
▁concernée 13373
arre 13371
▁visas 13370
▁stone 13367
▁93 13363
▁langage 13361
ministre 13361
▁acquise 13360
▁varient 13360
▁Run 13358
▁CBSA 13357
▁holiday 13356
▁Coordinator 13355
oup 13352
▁Pri 13350
▁fallu 13350
▁superficie 13350
▁biodiversity 13348
▁complément 13348
▁toxiques 13347
▁préliminaires 13344
anci 13342
▁comportant 13342
▁combustion 13341
▁valable 13340
▁insist 13338
▁ouvertes 13337
▁exécution 13337
▁extraordinary 13336
▁ignor 13336
▁protégées 13336
▁éd 13336
▁retrouvé 13336
▁forts 13335
▁Measures 13334
▁soutenue 13334
▁adding 13333
▁axées 13333
▁Algeria 13330
▁murdered 13330
▁certified 13320
▁30. 13320
▁Résolution 13318
▁memorandum 13316
vation 13316
▁bleu 13307
▁Angeles 13306
▁retention 13305
▁pressures 13304
▁hon 13303
▁Lui 13302
▁colonne 13301
lant 13299
aki 13299
▁Dave 13298
▁allée 13298
▁définitif 13297
▁constatations 13293
onse 13291
▁saving 13290
gouvernementales 13290
▁apparemment 13285
▁Ap 13277
▁printed 13276
▁journalists 13275
▁remet 13275
aison 13274
pers 13273
▁améliorée 13273
▁Dre 13271
▁cigarette 13269
▁inscrite 13268
▁exiger 13268
▁Dor 13264
▁gam 13263
net 13263
▁tours 13262
▁Faire 13261
ld 13260
▁adh 13260
▁courante 13260
▁Actuellement 13260
▁Mozambique 13258
▁81 13256
▁Grace 13256
▁vallée 13256
▁Mand 13255
▁revendications 13253
ima 13252
▁abandoned 13251
▁arch 13251
American 13250
▁fassent 13250
▁Swedish 13248
père 13246
▁exécuter 13245
▁Lam 13244
▁tickets 13241
▁cherché 13240
▁farming 13239
▁Médiateur 13237
▁réclamation 13237
▁encl 13236
▁chaînes 13236
▁Hay 13230
▁towns 13229
▁Rachel 13229
▁compose 13228
▁Chad 13228
▁compete 13226
▁allég 13226
amment 13224
prise 13218
▁impôts 13217
▁quiconque 13217
▁prudent 13215
▁témoigne 13214
▁invasion 13212
▁oh 13212
▁compos 13212
▁Counsel 13212
▁consist 13211
▁préalables 13211
▁nommés 13210
lock 13209
▁assault 13209
▁adapté 13209
▁tackle 13207
quality 13205
ppe 13205
esis 13204
▁29, 13202
▁identifiés 13202
▁Taiwan 13200
▁taxable 13200
▁NC 13200
(4) 13198
▁fondant 13196
aka 13195
▁nettoyage 13195
outes 13191
▁élaborés 13190
▁ES 13189
▁contemporary 13189
▁formations 13187
▁185 13187
▁Zone 13187
▁jump 13185
▁papiers 13184
▁spoken 13181
▁sees 13181
▁darling 13181
▁entité 13181
▁Demande 13181
étr 13178
my 13176
▁Promotion 13173
alised 13171
▁MA 13170
▁resté 13170
100 13169
▁unlikely 13167
▁Light 13167
▁Arthur 13167
▁continuation 13163
itement 13163
onnés 13159
▁pursuing 13156
▁élargi 13155
▁detection 13153
▁certes 13152
▁NEPAD 13149
▁prevalence 13148
▁Elizabeth 13146
▁contenir 13146
▁celebrate 13144
▁accueille 13144
▁Capitaine 13143
aches 13142
▁challenging 13141
▁décrits 13139
▁caus 13138
▁forment 13137
arbitrage 13137
▁stipule 13137
▁rot 13136
▁organizing 13135
▁20% 13131
▁efficiently 13129
▁Us 13129
▁92 13128
ibilité 13128
acteurs 13126
▁déclin 13126
▁interface 13125
▁Elimination 13125
ordonnance 13125
▁marquée 13124
▁protocols 13121
▁puits 13121
▁devenus 13121
iro 13120
▁Andy 13120
▁écouter 13120
lette 13118
ria 13117
▁Bring 13116
▁packages 13114
ware 13114
▁exposées 13114
rig 13113
▁ep 13112
▁Ethiopia 13111
▁lis 13109
▁traditionnel 13108
gi 13107
▁consisting 13105
▁Question 13104
itter 13103
▁Upon 13100
▁mac 13100
▁comparer 13099
▁quotidien 13098
accessibilité 13095
▁tissu 13094
▁Tur 13093
▁Claire 13093
▁passent 13093
cie 13091
▁Eli 13087
▁commentaire 13087
▁mecs 13086
▁desirable 13084
inary 13084
étendre 13082
▁lancée 13080
▁réexamen 13078
▁multilatéraux 13076
▁orient 13075
infraction 13075
state 13069
▁déficience 13067
▁minorité 13067
ajustement 13067
▁soumission 13065
▁speaker 13064
illy 13064
▁oblige 13063
▁Search 13063
▁shooting 13060
aît 13060
▁2006-2007 13057
▁visiting 13051
▁Tableau 13051
▁différ 13048
▁naturellement 13048
▁électoral 13046
▁impos 13045
▁vot 13045
▁Cur 13044
bling 13043
▁spatiale 13042
▁restauration 13041
▁regardez 13041
eness 13040
Is 13040
▁spite 13038
▁syndic 13037
▁simplification 13036
▁encourageant 13036
▁réservé 13035
▁négatives 13035
ocks 13034
▁contamin 13032
▁bri 13030
▁Consult 13029
urent 13029
▁approbation 13024
▁Fra 13022
▁beneficiaries 13021
▁practitioners 13020
▁validity 13018
ulent 13017
èmes 13015
▁Representatives 13008
jec 13005
utions 13004
▁Arms 13004
alk 13003
CF 13002
▁DÉ 13002
▁minimize 13000
tici 12999
▁PD 12997
▁Commun 12995
orge 12995
▁column 12995
▁Fish 12994
esc 12994
▁négative 12991
▁autonomes 12984
▁écarts 12981
▁incapable 12980
oes 12980
President 12977
▁redress 12977
▁ACP 12976
tification 12975
écl 12972
▁shower 12970
▁aériennes 12970
▁signif 12968
▁atlantique 12966
▁réparer 12964
▁musical 12963
ause 12962
ody 12961
▁causés 12961
▁fixation 12960
On 12959
autod 12957
▁provisoires 12954
▁Alan 12953
sier 12953
▁dérange 12952
ells 12951
elf 12950
▁necessity 12948
▁excellente 12944
▁Bye 12942
▁manqué 12940
oa 12939
▁Aren 12939
▁Singapore 12938
▁personnellement 12935
▁Equ 12934
▁20. 12934
▁AG 12934
▁laiss 12934
▁jam 12933
▁Fraser 12933
▁stored 12929
▁ethn 12925
▁appartement 12925
Os 12924
▁realization 12924
▁holder 12922
ONG 12922
▁installé 12921
tified 12919
▁Jason 12919
▁transférer 12919
▁Delegations 12917
▁storm 12916
▁disappeared 12915
uni 12913
▁tués 12912
▁coherence 12909
▁proceeding 12908
▁110 12907
▁pois 12907
▁Ever 12907
▁skill 12906
oning 12905
▁Océans 12905
▁incon 12903
ption 12902
aies 12901
▁détaillés 12901
▁breath 12900
▁gate 12899
▁préserv 12899
▁intérim 12899
38 12896
▁corrections 12896
▁Ted 12896
▁linkages 12895
▁payés 12894
▁initiate 12893
idae 12892
inscrit 12892
▁servira 12891
▁reactions 12890
alie 12889
▁Avis 12889
▁amoureux 12889
hr 12887
kers 12886
▁partiellement 12886
▁debates 12885
gner 12885
▁commencent 12881
▁retourne 12879
▁créant 12878
▁Much 12876
▁outreach 12876
océan 12876
▁piscine 12874
oot 12873
▁foutre 12873
▁Resource 12872
▁promets 12872
▁législatifs 12871
▁pér 12867
▁appearance 12866
▁protège 12866
ologist 12863
▁presidential 12863
▁objections 12862
▁pulled 12862
▁constitutionnel 12862
▁Seulement 12860
▁Nicaragua 12859
▁inspir 12858
▁nu 12856
▁Jerry 12856
▁credits 12852
ected 12851
▁puissant 12849
oler 12848
▁incompatible 12848
IST 12847
▁brothers 12846
▁referendum 12843
urn 12843
▁Imp 12843
▁beauty 12842
rir 12842
▁retards 12841
▁degradation 12838
▁attacked 12838
▁freely 12837
▁complémentaire 12837
▁Carter 12835
▁harmonization 12833
▁skilled 12832
▁click 12831
▁visibles 12829
▁deputy 12827
aimes 12827
arth 12826
▁Jackson 12824
▁spin 12824
▁hiding 12824
accident 12824
vest 12821
▁livrer 12817
▁robust 12815
▁1960 12815
▁id 12814
▁dét 12812
▁souris 12812
▁trompe 12810
▁boards 12809
don 12807
▁Directors 12807
▁réside 12807
oned 12802
▁attribuable 12802
▁SG 12801
ordinateur 12798
▁croient 12797
▁distribué 12797
WA 12796
▁Movement 12793
itent 12793
▁antérieure 12793
alt 12792
▁Aviation 12791
▁offerte 12790
▁appliqués 12790
élève 12788
▁chiff 12787
▁pel 12785
aman 12784
annonce 12780
▁dictat 12778
icial 12777
▁buying 12777
▁Follow 12777
▁DVD 12775
▁noire 12774
▁formulé 12774
▁behavior 12771
▁negotiate 12769
▁Aff 12769
▁occurring 12767
union 12767
vés 12767
▁cable 12766
▁unemployed 12765
ivre 12765
▁spouse 12763
▁commises 12763
▁pourrons 12762
▁déri 12760
▁sharp 12757
▁colonel 12757
Indonésie 12756
put 12755
▁IAEA 12754
ommunication 12750
▁shelter 12750
▁différenci 12749
5% 12748
▁supplementary 12748
▁joke 12748
▁Peru 12748
▁notify 12746
ú 12746
▁Inn 12746
▁SUR 12743
▁census 12740
▁broadcast 12739
▁Subcommittee 12738
▁temperatures 12737
▁Country 12737
▁ju 12736
France 12735
▁tender 12732
quement 12732
▁produites 12731
▁exhibition 12730
▁permanence 12729
▁facilitated 12727
49 12727
offres 12727
hommes 12725
▁rédigé 12725
▁wording 12724
▁thick 12723
▁cents 12721
▁tube 12721
▁offset 12719
▁Expert 12717
▁bunch 12717
▁marginal 12716
▁130 12716
▁Bobby 12716
▁inj 12715
▁parallèle 12714
76 12713
▁Région 12713
▁govern 12711
▁cass 12711
▁Monterrey 12708
▁réclamations 12707
she 12706
▁pourrions 12706
▁accomplished 12701
▁Monte 12701
▁déterminant 12700
▁Compagnie 12699
▁requérante 12699
weapon 12697
église 12697
▁fumer 12696
▁contractantes 12696
▁confidentiality 12695
▁spécialisée 12695
▁synergies 12694
▁Contin 12694
▁AB 12693
itis 12692
dra 12688
▁religieuse 12684
▁Mort 12683
▁peer 12682
bro 12681
ming 12679
HO 12677
▁euh 12677
▁couverts 12677
▁salariés 12677
▁ozone 12674
▁paroles 12674
▁produite 12671
▁databases 12670
▁envisagé 12670
▁garden 12668
▁planifier 12668
▁moves 12666
GI 12665
▁continueront 12664
▁probabilité 12664
▁kick 12659
▁avancé 12659
▁salue 12659
anning 12658
idi 12658
ressed 12658
▁spécialiste 12658
▁flot 12656
▁retire 12654
▁présidente 12654
▁terroriste 12653
▁reasonably 12652
rat 12651
▁mos 12651
▁réaffirmé 12651
▁tourne 12646
▁bordel 12646
▁dents 12645
▁scénario 12645
▁Islam 12644
▁autorisées 12644
fall 12642
▁studying 12642
▁cho 12640
▁impressionn 12638
▁retombées 12638
▁influenced 12637
oral 12637
▁magn 12636
▁programm 12634
icité 12634
▁libérer 12629
▁préférence 12628
▁naturally 12627
▁homolog 12627
▁apportée 12627
/2001 12625
▁firmly 12622
▁Saturday 12622
▁transp 12621
▁Lang 12620
▁Enter 12620
instruments 12619
▁agissant 12619
▁1,000 12617
▁plafond 12617
▁refin 12614
▁Dom 12614
comp 12613
ried 12612
▁inscrites 12612
emprisonnement 12612
▁oriental 12611
▁Allow 12610
▁baie 12610
▁consign 12607
▁AS 12604
orti 12602
▁judgement 12601
▁rencontrés 12601
ona 12600
▁Sainte 12600
▁alinéa 12597
▁explicitly 12594
▁automatique 12594
▁Bri 12593
▁travelling 12592
▁identifies 12591
▁dreams 12591
▁élection 12589
▁79 12588
▁indispensables 12586
▁Wilson 12584
▁diable 12582
pay 12580
▁Wall 12580
▁ouais 12579
▁readily 12578
▁Gene 12577
▁Mars 12576
▁biotechnologie 12576
service 12575
▁abond 12575
▁désigne 12574
▁communiquées 12573
▁delegates 12572
▁fate 12571
▁profound 12571
▁Manuel 12571
▁forgive 12568
▁anglaise 12568
▁altern 12567
akh 12566
▁ménage 12564
▁releases 12561
MO 12561
▁environmentally 12560
agan 12560
▁hurry 12557
▁qualify 12556
▁arrivés 12553
▁renew 12551
▁franc 12551
▁reprend 12551
▁conn 12550
▁emphasize 12549
ulf 12548
lem 12546
▁quad 12546
▁$1. 12545
arily 12543
▁Railway 12543
▁thereof 12542
▁Forest 12537
▁propagation 12537
▁doctrine 12536
▁expose 12536
▁extending 12535
▁outset 12534
▁adéquat 12533
▁Haw 12532
▁physicians 12530
▁numériques 12530
osed 12528
▁cité 12528
▁oxygen 12526
▁chemins 12526
▁malades 12526
▁Sus 12525
tivity 12524
▁Gi 12523
▁noting 12521
▁Cinq 12521
▁trouvée 12516
▁keys 12511
▁reaffirmed 12511
▁souscrit 12510
▁Texas 12509
▁préféré 12508
▁dessins 12508
▁regrettable 12506
▁territoriales 12506
▁Div 12504
▁att 12500
▁highlights 12498
▁affich 12498
▁Soviet 12495
▁ensured 12494
▁breaking 12489
▁tran 12489
▁permanentes 12489
ensive 12488
▁offres 12488
▁coc 12486
▁apportés 12485
▁accusations 12484
envisager 12484
▁Conservation 12483
▁condemn 12482
▁Lady 12482
ctor 12481
▁Pete 12478
▁hôte 12477
▁Ref 12475
▁Supplement 12475
▁foundations 12473
determination 12473
▁CIA 12473
treatment 12472
anche 12469
▁detected 12466
▁sauvages 12465
eaux 12463
▁pra 12463
▁administr 12463
▁Lab 12463
ñ 12462
ws 12458
iche 12458
▁discuté 12458
▁commodity 12456
right 12454
▁PP 12454
▁miracle 12453
▁décid 12453
▁musée 12451
▁costume 12450
▁pensait 12450
▁Gard 12449
rup 12448
▁hat 12448
▁Band 12448
elon 12447
▁comportent 12447
▁ancient 12445
▁investigating 12444
▁temporaires 12444
▁Reform 12443
▁Whether 12441
outils 12440
▁richesse 12438
illing 12436
▁utilization 12433
depth 12431
▁répé 12431
▁Tokyo 12430
▁diligence 12428
échec 12428
▁shore 12427
▁facto 12425
▁physician 12425
▁Corrections 12425
▁mémorandum 12425
▁enfer 12424
▁formés 12424
ota 12423
▁Were 12423
▁accueillir 12423
▁ranging 12421
▁fragment 12420
▁Airport 12419
▁restoration 12418
▁surfaces 12418
▁normales 12416
▁discover 12415
▁vérifié 12415
▁assembly 12414
oti 12414
▁informatiques 12414
▁electrical 12413
▁directors 12413
▁souhaiter 12413
.9 12412
auto 12412
▁prévoyant 12412
road 12411
▁synth 12411
▁volets 12409
App 12408
aked 12405
oring 12403
▁kit 12403
▁finger 12401
▁ceremony 12401
▁individuelle 12401
▁certificats 12397
▁courir 12394
▁acquérir 12394
han 12393
▁Progress 12391
▁measurements 12391
▁Americans 12390
▁males 12390
▁blanche 12387
▁signale 12385
▁evaluating 12384
éli 12384
▁Han 12383
▁sortes 12382
▁Conditions 12381
ige 12380
▁contente 12379
▁francs 12378
▁bastard 12378
▁Saudi 12377
▁quantities 12373
▁demographic 12373
▁corn 12371
▁Revenu 12370
[...]
