<unk>	0
<s>	0
</s>	0
es	-0
▁d	-1
on	-2
▁t	-3
▁a	-4
en	-5
in	-6
▁l	-7
er	-8
▁p	-9
ti	-10
▁s	-11
▁c	-12
re	-13
ou	-14
an	-15
▁th	-16
is	-17
it	-18
▁de	-19
or	-20
ent	-21
tion	-22
▁the	-23
▁m	-24
ar	-25
al	-26
▁f	-27
qu	-28
▁e	-29
▁o	-30
at	-31
ro	-32
▁in	-33
le	-34
▁w	-35
▁b	-36
ation	-37
▁n	-38
om	-39
▁of	-40
▁an	-41
ur	-42
ed	-43
un	-44
ment	-45
as	-46
il	-47
ic	-48
▁la	-49
▁to	-50
▁r	-51
el	-52
ing	-53
▁h	-54
▁qu	-55
▁C	-56
▁and	-57
▁le	-58
us	-59
our	-60
▁et	-61
▁re	-62
▁I	-63
te	-64
▁v	-65
▁des	-66
ce	-67
ve	-68
ra	-69
▁con	-70
▁g	-71
▁T	-72
▁les	-73
▁pro	-74
▁en	-75
▁à	-76
et	-77
ir	-78
ant	-79
si	-80
▁un	-81
est	-82
ec	-83
ri	-84
▁L	-85
ol	-86
▁A	-87
▁S	-88
ut	-89
▁par	-90
ch	-91
me	-92
▁com	-93
▁on	-94
pp	-95
id	-96
▁y	-97
ad	-98
ans	-99
ul	-100
os	-101
és	-102
ig	-103
ot	-104
▁for	-105
▁M	-106
ous	-107
▁P	-108
ter	-109
▁é	-110
▁du	-111
im	-112
▁Th	-113
ux	-114
ta	-115
ver	-116
ci	-117
▁que	-118
▁be	-119
▁j	-120
ement	-121
res	-122
ort	-123
ire	-124
ac	-125
▁is	-126
▁that	-127
▁D	-128
ag	-129
▁dé	-130
▁pour	-131
▁E	-132
ons	-133
▁su	-134
ab	-135
ff	-136
ers	-137
ie	-138
em	-139
ay	-140
and	-141
▁ex	-142
ais	-143
tr	-144
▁pl	-145
▁1	-146
ly	-147
end	-148
▁as	-149
ow	-150
ations	-151
▁ch	-152
▁J	-153
am	-154
▁pr	-155
▁ne	-156
▁N	-157
▁you	-158
out	-159
▁2	-160
▁wh	-161
ess	-162
op	-163
que	-164
▁dans	-165
▁pas	-166
▁au	-167
▁The	-168
▁al	-169
▁it	-170
▁ac	-171
▁W	-172
ont	-173
ith	-174
ill	-175
▁B	-176
té	-177
ure	-178
▁sur	-179
▁O	-180
ere	-181
▁R	-182
ate	-183
▁est	-184
00	-185
▁ré	-186
▁with	-187
▁se	-188
bl	-189
▁une	-190
▁fa	-191
ité	-192
onn	-193
▁or	-194
od	-195
th	-196
uc	-197
ain	-198
▁H	-199
ts	-200
▁G	-201
tre	-202
▁qui	-203
ér	-204
ée	-205
▁comp	-206
▁me	-207
▁F	-208
ion	-209
ati	-210
um	-211
ien	-212
▁do	-213
ance	-214
▁(	-215
ld	-216
▁are	-217
▁not	-218
imp	-219
tu	-220
se	-221
tions	-222
omm	-223
iv	-224
ist	-225
ell	-226
ity	-227
iti	-228
▁at	-229
oun	-230
▁pe	-231
▁res	-232
▁app	-233
▁ha	-234
for	-235
sion	-236
vel	-237
ne	-238
pl	-239
if	-240
ence	-241
▁so	-242
▁?	-243
urs	-244
▁tr	-245
▁U	-246
ue	-247
ard	-248
▁ce	-249
ces	-250
▁sh	-251
▁mo	-252
ke	-253
igh	-254
▁tra	-255
di	-256
▁was	-257
▁comm	-258
▁by	-259
au	-260
▁200	-261
st	-262
ées	-263
▁ser	-264
ai	-265
ould	-266
ational	-267
▁imp	-268
ven	-269
▁In	-270
▁ad	-271
ap	-272
oc	-273
▁parti	-274
ère	-275
▁Le	-276
ait	-277
anad	-278
▁inter	-279
tat	-280
cl	-281
ble	-282
▁Je	-283
▁this	-284
▁plus	-285
ge	-286
▁aux	-287
form	-288
▁Y	-289
▁dis	-290
▁have	-291
ord	-292
elle	-293
ond	-294
able	-295
▁av	-296
▁sa	-297
pe	-298
ques	-299
▁per	-300
▁ou	-301
rom	-302
▁cons	-303
▁cont	-304
ies	-305
pec	-306
mes	-307
▁he	-308
age	-309
▁Canad	-310
▁Il	-311
app	-312
▁V	-313
▁all	-314
pr	-315
ust	-316
ine	-317
ign	-318
ud	-319
og	-320
ale	-321
▁di	-322
éc	-323
ten	-324
rou	-325
air	-326
▁ave	-327
▁we	-328
ice	-329
duc	-330
oi	-331
▁sont	-332
ct	-333
▁k	-334
all	-335
up	-336
der	-337
aux	-338
ique	-339
oir	-340
▁from	-341
▁rec	-342
ens	-343
ich	-344
ite	-345
ants	-346
▁fin	-347
aire	-348
tif	-349
▁go	-350
▁ar	-351
ments	-352
ber	-353
oin	-354
▁Comm	-355
▁La	-356
▁vous	-357
▁je	-358
ang	-359
ès	-360
li	-361
ore	-362
ves	-363
▁will	-364
▁il	-365
én	-366
gra	-367
être	-368
min	-369
ome	-370
▁Les	-371
ré	-372
une	-373
▁19	-374
ors	-375
▁avec	-376
▁acc	-377
ction	-378
ork	-379
ex	-380
▁ent	-381
▁eff	-382
▁pu	-383
▁aut	-384
per	-385
▁pol	-386
vern	-387
ll	-388
▁ont	-389
oy	-390
▁sec	-391
▁co	-392
tic	-393
▁Un	-394
▁ag	-395
ici	-396
ated	-397
gan	-398
ise	-399
▁ab	-400
▁ma	-401
gram	-402
▁été	-403
▁li	-404
ern	-405
▁man	-406
ette	-407
ose	-408
▁prov	-409
ures	-410
▁us	-411
port	-412
ight	-413
gh	-414
▁Wh	-415
tain	-416
▁pers	-417
ide	-418
▁Canada	-419
ég	-420
ace	-421
its	-422
▁can	-423
▁pre	-424
lement	-425
tive	-426
ult	-427
so	-428
ong	-429
iss	-430
ille	-431
▁mar	-432
ays	-433
ui	-434
▁has	-435
iz	-436
ission	-437
par	-438
▁am	-439
ear	-440
▁st	-441
▁You	-442
ary	-443
aires	-444
ier	-445
▁serv	-446
▁It	-447
▁conc	-448
▁ind	-449
ours	-450
▁cl	-451
uro	-452
ication	-453
av	-454
bre	-455
▁out	-456
cial	-457
▁reg	-458
rib	-459
aut	-460
▁En	-461
▁which	-462
▁proc	-463
ase	-464
ally	-465
ents	-466
ther	-467
pé	-468
ted	-469
▁pré	-470
ph	-471
ités	-472
▁nous	-473
▁rel	-474
▁ter	-475
▁its	-476
national	-477
ient	-478
▁être	-479
▁program	-480
tiv	-481
▁mon	-482
▁prop	-483
jec	-484
▁off	-485
lle	-486
▁no	-487
▁ta	-488
▁ob	-489
ésent	-490
▁3	-491
▁sy	-492
ari	-493
are	-494
▁pos	-495
▁ins	-496
ouv	-497
▁Ch	-498
ices	-499
che	-500
▁Par	-501
de	-502
▁Q	-503
cip	-504
osi	-505
▁fait	-506
▁been	-507
ions	-508
▁publ	-509
now	-510
ish	-511
▁their	-512
▁pri	-513
▁commun	-514
▁tout	-515
titu	-516
▁str	-517
ob	-518
▁éta	-519
▁don	-520
ois	-521
▁On	-522
▁!	-523
▁dev	-524
▁si	-525
▁An	-526
▁your	-527
▁De	-528
▁were	-529
▁em	-530
du	-531
til	-532
ities	-533
tes	-534
▁trans	-535
▁ass	-536
ress	-537
ins	-538
▁tu	-539
▁dem	-540
▁min	-541
velop	-542
▁work	-543
ps	-544
ution	-545
emb	-546
▁son	-547
her	-548
▁ses	-549
▁organ	-550
▁diff	-551
ail	-552
▁K	-553
▁dire	-554
▁know	-555
▁inform	-556
▁cette	-557
..	-558
éri	-559
con	-560
▁sub	-561
cul	-562
elles	-563
ements	-564
jet	-565
ive	-566
use	-567
enti	-568
▁international	-569
▁We	-570
▁supp	-571
▁my	-572
▁there	-573
les	-574
▁ces	-575
▁would	-576
king	-577
ass	-578
ach	-579
▁Re	-580
▁dro	-581
ues	-582
▁gr	-583
▁int	-584
▁entre	-585
▁inc	-586
tem	-587
▁trav	-588
▁Com	-589
ss	-590
bil	-591
▁He	-592
oll	-593
▁import	-594
▁part	-595
...	-596
éd	-597
▁also	-598
▁up	-599
ème	-600
one	-601
ussi	-602
▁ques	-603
hn	-604
ese	-605
ative	-606
isation	-607
fin	-608
▁personn	-609
▁rés	-610
▁rég	-611
▁coun	-612
▁bien	-613
▁but	-614
ision	-615
▁had	-616
▁comme	-617
▁sou	-618
els	-619
▁Tu	-620
▁pays	-621
▁Commission	-622
▁conf	-623
▁develop	-624
▁leur	-625
▁mais	-626
ound	-627
sid	-628
▁199	-629
rit	-630
▁form	-631
▁other	-632
iques	-633
▁they	-634
▁should	-635
▁déc	-636
▁rapp	-637
ière	-638
▁one	-639
▁requ	-640
▁faire	-641
ime	-642
vers	-643
olog	-644
▁-	-645
▁Pro	-646
gal	-647
tats	-648
▁non	-649
cc	-650
▁cer	-651
ile	-652
▁Con	-653
▁nom	-654
▁national	-655
él	-656
▁rem	-657
▁"	-658
▁about	-659
▁This	-660
▁fac	-661
▁car	-662
▁any	-663
▁es	-664
ast	-665
cep	-666
▁resp	-667
ia	-668
▁donn	-669
ez	-670
conom	-671
ok	-672
ost	-673
erv	-674
▁appro	-675
▁demand	-676
opp	-677
▁more	-678
▁need	-679
ça	-680
▁what	-681
▁activ	-682
▁tou	-683
▁ça	-684
ême	-685
eral	-686
uation	-687
▁ren	-688
▁politi	-689
▁peut	-690
▁gén	-691
clud	-692
▁main	-693
▁mod	-694
val	-695
ild	-696
▁sit	-697
▁services	-698
▁mes	-699
▁Qu	-700
▁4	-701
▁ver	-702
ited	-703
▁5	-704
vir	-705
▁sta	-706
vent	-707
▁ann	-708
▁perm	-709
urope	-710
▁who	-711
éta	-712
anc	-713
▁É	-714
rait	-715
▁year	-716
ip	-717
ack	-718
ric	-719
reat	-720
ales	-721
teur	-722
onse	-723
▁te	-724
▁some	-725
echn	-726
ade	-727
ind	-728
▁présent	-729
▁concern	-730
vention	-731
),	-732
▁contin	-733
ères	-734
▁particul	-735
▁cap	-736
▁under	-737
▁gu	-738
ouvern	-739
▁grou	-740
arg	-741
▁memb	-742
▁report	-743
ils	-744
ian	-745
▁process	-746
▁What	-747
▁cas	-748
acc	-749
endre	-750
util	-751
velopp	-752
▁deux	-753
▁ro	-754
ploy	-755
▁op	-756
pu	-757
cu	-758
▁produc	-759
▁prin	-760
▁bet	-761
ourn	-762
dition	-763
sible	-764
▁public	-765
▁No	-766
▁ve	-767
▁plan	-768
▁exp	-769
▁hum	-770
▁like	-771
▁cent	-772
▁sign	-773
gr	-774
▁pres	-775
▁time	-776
▁techn	-777
ial	-778
▁rapport	-779
▁new	-780
ical	-781
ouve	-782
ks	-783
ep	-784
▁Vous	-785
▁over	-786
▁développ	-787
oint	-788
▁jus	-789
enc	-790
▁vis	-791
ises	-792
lec	-793
▁Sec	-794
▁disc	-795
▁inv	-796
aient	-797
▁his	-798
eur	-799
ty	-800
ante	-801
▁ph	-802
▁génér	-803
▁these	-804
▁includ	-805
ms	-806
▁met	-807
ely	-808
▁get	-809
▁disp	-810
▁our	-811
ources	-812
▁information	-813
▁peu	-814
▁Nations	-815
▁certain	-816
vernment	-817
fer	-818
▁Europe	-819
▁tous	-820
▁effec	-821
▁her	-822
▁than	-823
ry	-824
▁enc	-825
▁right	-826
▁if	-827
▁aussi	-828
▁mat	-829
▁spec	-830
he	-831
▁rep	-832
rough	-833
▁just	-834
olution	-835
cher	-836
▁vie	-837
we	-838
ting	-839
▁lo	-840
▁dur	-841
lé	-842
▁may	-843
▁aff	-844
ree	-845
ries	-846
▁bas	-847
ause	-848
osition	-849
itte	-850
ences	-851
raph	-852
▁soci	-853
▁such	-854
▁And	-855
ific	-856
ances	-857
▁long	-858
abil	-859
▁here	-860
▁Go	-861
▁col	-862
ory	-863
▁did	-864
▁égal	-865
ink	-866
▁cor	-867
▁docu	-868
▁même	-869
▁cro	-870
ys	-871
▁dec	-872
▁suis	-873
▁support	-874
ings	-875
try	-876
▁fe	-877
▁prom	-878
ouvernement	-879
▁projet	-880
ug	-881
▁prote	-882
▁particip	-883
▁into	-884
▁6	-885
▁propos	-886
alth	-887
ple	-888
otre	-889
▁grand	-890
▁Et	-891
▁tem	-892
▁important	-893
▁question	-894
ren	-895
insi	-896
▁également	-897
▁St	-898
ticle	-899
ner	-900
▁Al	-901
▁could	-902
▁développement	-903
als	-904
▁Pour	-905
tates	-906
▁exam	-907
▁them	-908
▁nombre	-909
▁loc	-910
wo	-911
ittee	-912
irst	-913
lic	-914
ange	-915
▁hel	-916
▁men	-917
▁sp	-918
▁contrib	-919
▁leurs	-920
▁him	-921
oth	-922
▁rev	-923
led	-924
tis	-925
▁iss	-926
▁num	-927
▁For	-928
very	-929
▁respec	-930
iens	-931
▁Nous	-932
rac	-933
▁fam	-934
ef	-935
truc	-936
ages	-937
ates	-938
ating	-939
▁place	-940
aine	-941
▁sys	-942
und	-943
▁quel	-944
▁recomm	-945
▁want	-946
ak	-947
atives	-948
▁ens	-949
▁programme	-950
▁only	-951
▁must	-952
ture	-953
▁Conse	-954
ople	-955
▁travail	-956
▁cour	-957
get	-958
orte	-959
▁provid	-960
ense	-961
▁fem	-962
▁États	-963
▁doit	-964
▁prof	-965
▁bec	-966
▁gen	-967
ough	-968
ights	-969
sions	-970
▁repr	-971
ulation	-972
ov	-973
▁ainsi	-974
▁était	-975
▁when	-976
▁Coun	-977
▁tro	-978
▁lui	-979
▁finan	-980
▁count	-981
ris	-982
èg	-983
▁through	-984
▁organis	-985
ah	-986
▁made	-987
▁elle	-988
fore	-989
▁Conseil	-990
cil	-991
▁how	-992
▁inf	-993
▁system	-994
ied	-995
▁rest	-996
▁That	-997
lev	-998
▁United	-999
ret	-1000
ération	-1001
▁dép	-1002
▁sc	-1003
▁States	-1004
▁prem	-1005
▁vi	-1006
▁produ	-1007
▁pass	-1008
▁vo	-1009
▁conn	-1010
▁cré	-1011
tique	-1012
▁mill	-1013
alité	-1014
▁dom	-1015
▁Mr	-1016
▁So	-1017
▁countries	-1018
▁Ce	-1019
▁now	-1020
▁development	-1021
▁Committee	-1022
▁adop	-1023
istr	-1024
▁well	-1025
act	-1026
endant	-1027
▁droits	-1028
▁see	-1029
ann	-1030
eng	-1031
tim	-1032
▁people	-1033
ets	-1034
▁id	-1035
200	-1036
écur	-1037
ats	-1038
sibil	-1039
▁7	-1040
abor	-1041
▁euro	-1042
era	-1043
ame	-1044
▁envir	-1045
▁two	-1046
old	-1047
ature	-1048
▁Min	-1049
art	-1050
ode	-1051
Un	-1052
ween	-1053
ables	-1054
▁util	-1055
ét	-1056
▁Ne	-1057
▁employ	-1058
près	-1059
▁those	-1060
▁bl	-1061
entif	-1062
▁im	-1063
▁objec	-1064
▁Elle	-1065
bles	-1066
▁pop	-1067
▁coop	-1068
▁ten	-1069
▁ris	-1070
▁human	-1071
vre	-1072
▁How	-1073
▁inté	-1074
ente	-1075
ved	-1076
▁princip	-1077
ards	-1078
agement	-1079
▁Si	-1080
▁:	-1081
▁fond	-1082
iste	-1083
▁between	-1084
▁Ar	-1085
▁accord	-1086
autres	-1087
wn	-1088
sider	-1089
▁As	-1090
▁votre	-1091
teurs	-1092
▁membres	-1093
iter	-1094
iser	-1095
écurité	-1096
ince	-1097
▁initi	-1098
▁Dans	-1099
▁Council	-1100
anté	-1101
orts	-1102
▁fon	-1103
▁fr	-1104
▁require	-1105
▁où	-1106
ual	-1107
rent	-1108
own	-1109
▁cri	-1110
rê	-1111
▁expl	-1112
▁take	-1113
ieu	-1114
▁good	-1115
mer	-1116
▁got	-1117
▁dist	-1118
ister	-1119
▁meet	-1120
▁she	-1121
tern	-1122
▁10	-1123
▁where	-1124
oire	-1125
▁syst	-1126
▁contre	-1127
▁ans	-1128
▁8	-1129
▁chang	-1130
anti	-1131
▁sais	-1132
▁incre	-1133
▁dit	-1134
▁again	-1135
▁bes	-1136
▁years	-1137
▁dont	-1138
ural	-1139
ident	-1140
ave	-1141
▁sécurité	-1142
ament	-1143
▁9	-1144
ouver	-1145
▁make	-1146
▁europé	-1147
▁consider	-1148
▁spé	-1149
équ	-1150
▁high	-1151
▁rép	-1152
ars	-1153
▁représent	-1154
lish	-1155
tention	-1156
arm	-1157
▁situation	-1158
isions	-1159
▁sans	-1160
▁sous	-1161
▁child	-1162
▁cours	-1163
▁besoin	-1164
tend	-1165
▁first	-1166
ft	-1167
▁rais	-1168
▁ref	-1169
▁va	-1170
entre	-1171
▁af	-1172
ever	-1173
▁There	-1174
▁soit	-1175
▁vou	-1176
▁point	-1177
ject	-1178
▁European	-1179
▁protection	-1180
part	-1181
ood	-1182
ôle	-1183
▁polic	-1184
▁use	-1185
enne	-1186
▁permet	-1187
tement	-1188
▁direc	-1189
▁avant	-1190
▁think	-1191
ties	-1192
▁stu	-1193
ines	-1194
ON	-1195
▁service	-1196
▁20	-1197
▁institu	-1198
soci	-1199
ater	-1200
▁autres	-1201
▁possible	-1202
▁Oh	-1203
▁back	-1204
▁implement	-1205
▁très	-1206
ule	-1207
▁cad	-1208
▁pouv	-1209
▁ret	-1210
▁fl	-1211
▁Comité	-1212
▁gouvernement	-1213
ency	-1214
tit	-1215
omen	-1216
nes	-1217
▁stat	-1218
▁ress	-1219
▁lim	-1220
▁droit	-1221
▁questions	-1222
▁Mais	-1223
▁fourn	-1224
iment	-1225
▁«	-1226
▁enf	-1227
ination	-1228
▁ess	-1229
▁partie	-1230
hor	-1231
▁moi	-1232
tifs	-1233
formation	-1234
onde	-1235
écess	-1236
hing	-1237
ole	-1238
be	-1239
▁But	-1240
▁social	-1241
▁temps	-1242
▁région	-1243
ivent	-1244
▁level	-1245
iew	-1246
tor	-1247
ning	-1248
oute	-1249
▁fra	-1250
tiques	-1251
▁end	-1252
iers	-1253
▁nécess	-1254
▁programmes	-1255
lication	-1256
tice	-1257
▁Convention	-1258
▁occ	-1259
▁br	-1260
▁contr	-1261
orld	-1262
▁mont	-1263
▁Ex	-1264
land	-1265
red	-1266
ateurs	-1267
▁obs	-1268
rie	-1269
▁actu	-1270
lect	-1271
▁comple	-1272
urity	-1273
clus	-1274
▁nor	-1275
▁fi	-1276
▁lors	-1277
▁organiz	-1278
été	-1279
elf	-1280
▁dern	-1281
ditions	-1282
emble	-1283
uit	-1284
▁rece	-1285
ém	-1286
▁sol	-1287
▁mil	-1288
▁économ	-1289
▁viol	-1290
ôt	-1291
▁sus	-1292
▁ty	-1293
▁continu	-1294
▁gl	-1295
▁exper	-1296
▁sé	-1297
ivers	-1298
arly	-1299
▁avait	-1300
▁health	-1301
vis	-1302
▁santé	-1303
▁nive	-1304
▁march	-1305
000	-1306
atif	-1307
▁cal	-1308
▁way	-1309
atég	-1310
resent	-1311
▁probl	-1312
ving	-1313
▁econom	-1314
por	-1315
▁They	-1316
ick	-1317
▁notre	-1318
▁document	-1319
pri	-1320
ablish	-1321
erg	-1322
termin	-1323
omme	-1324
▁mesures	-1325
▁prior	-1326
▁À	-1327
▁number	-1328
pes	-1329
hip	-1330
▁very	-1331
row	-1332
▁dél	-1333
▁mis	-1334
▁ke	-1335
▁regard	-1336
▁personnes	-1337
ife	-1338
▁If	-1339
▁$	-1340
▁priv	-1341
▁Canadian	-1342
▁mal	-1343
estion	-1344
ellement	-1345
ulture	-1346
onment	-1347
▁val	-1348
onna	-1349
▁toute	-1350
ased	-1351
▁commer	-1352
▁activités	-1353
ateg	-1354
▁establish	-1355
tives	-1356
man	-1357
ily	-1358
▁At	-1359
arge	-1360
isl	-1361
▁bel	-1362
▁%	-1363
agraph	-1364
▁nouve	-1365
▁rights	-1366
▁suiv	-1367
▁add	-1368
▁afin	-1369
▁Af	-1370
▁général	-1371
▁Is	-1372
▁being	-1373
▁most	-1374
ela	-1375
▁cadre	-1376
ducation	-1377
▁efforts	-1378
▁oper	-1379
action	-1380
▁help	-1381
▁fonction	-1382
▁mati	-1383
ivid	-1384
onnement	-1385
puis	-1386
erc	-1387
▁every	-1388
▁eng	-1389
ank	-1390
ends	-1391
ollow	-1392
▁vol	-1393
▁Des	-1394
ember	-1395
▁consid	-1396
ious	-1397
uch	-1398
▁là	-1399
▁canad	-1400
ub	-1401
▁All	-1402
▁respons	-1403
▁does	-1404
▁sav	-1405
▁Grou	-1406
oup	-1407
▁Pl	-1408
clar	-1409
▁encore	-1410
▁law	-1411
ital	-1412
▁vari	-1413
▁sera	-1414
quer	-1415
valuation	-1416
▁set	-1417
uvre	-1418
▁compte	-1419
eration	-1420
▁avoir	-1421
▁différ	-1422
▁déb	-1423
èmes	-1424
▁Reg	-1425
▁constitu	-1426
ib	-1427
▁technolog	-1428
▁dra	-1429
aiss	-1430
▁mark	-1431
▁meas	-1432
▁recher	-1433
amp	-1434
▁capac	-1435
tra	-1436
eneral	-1437
ful	-1438
embl	-1439
▁règ	-1440
▁préc	-1441
tant	-1442
éra	-1443
ute	-1444
▁Une	-1445
quoi	-1446
▁tot	-1447
▁mise	-1448
▁prév	-1449
▁Mon	-1450
uses	-1451
▁bud	-1452
ton	-1453
▁moy	-1454
▁moins	-1455
blig	-1456
earch	-1457
▁conditions	-1458
▁cur	-1459
▁let	-1460
▁parties	-1461
▁provide	-1462
entr	-1463
▁po	-1464
ality	-1465
▁maj	-1466
▁Ag	-1467
▁fut	-1468
▁femmes	-1469
▁pay	-1470
▁demande	-1471
▁15	-1472
aines	-1473
ath	-1474
ler	-1475
urer	-1476
▁ple	-1477
▁Mar	-1478
0,	-1479
▁dém	-1480
▁gestion	-1481
▁paragraph	-1482
▁admin	-1483
▁peuvent	-1484
▁toutes	-1485
▁mainten	-1486
work	-1487
entes	-1488
▁établ	-1489
istance	-1490
▁–	-1491
ositions	-1492
▁aw	-1493
ariat	-1494
▁order	-1495
éli	-1496
.1	-1497
other	-1498
▁système	-1499
iod	-1500
▁going	-1501
ieux	-1502
urn	-1503
▁differ	-1504
ety	-1505
▁2004	-1506
▁session	-1507
▁Non	-1508
▁shall	-1509
▁ici	-1510
▁données	-1511
▁fois	-1512
▁civ	-1513
cal	-1514
▁coll	-1515
▁fund	-1516
▁2005	-1517
cri	-1518
▁doivent	-1519
▁veux	-1520
▁politique	-1521
▁Well	-1522
▁UN	-1523
▁facil	-1524
▁She	-1525
▁gra	-1526
vous	-1527
▁country	-1528
▁women	-1529
onne	-1530
▁including	-1531
▁aur	-1532
▁within	-1533
elon	-1534
▁agre	-1535
utions	-1536
▁enfants	-1537
▁lég	-1538
▁both	-1539
amment	-1540
▁matière	-1541
▁used	-1542
▁cet	-1543
ième	-1544
▁trois	-1545
▁entrepr	-1546
▁déf	-1547
▁résul	-1548
▁author	-1549
était	-1550
▁él	-1551
▁represent	-1552
▁follow	-1553
tle	-1554
▁vra	-1555
ouvel	-1556
lles	-1557
go	-1558
iness	-1559
▁respect	-1560
▁say	-1561
▁many	-1562
▁utilis	-1563
▁before	-1564
▁Government	-1565
ches	-1566
venir	-1567
▁opp	-1568
mber	-1569
inté	-1570
▁jour	-1571
▁pris	-1572
ata	-1573
lection	-1574
▁»	-1575
▁because	-1576
▁Ils	-1577
▁2006	-1578
élior	-1579
▁bo	-1580
CE	-1581
sident	-1582
aque	-1583
▁mé	-1584
▁addition	-1585
az	-1586
isme	-1587
cer	-1588
tien	-1589
▁ful	-1590
▁said	-1591
▁after	-1592
▁Au	-1593
antes	-1594
▁sti	-1595
▁imm	-1596
▁2003	-1597
▁bu	-1598
ête	-1599
▁region	-1600
urther	-1601
▁population	-1602
▁present	-1603
▁monde	-1604
▁activities	-1605
▁fais	-1606
▁18	-1607
▁train	-1608
▁mom	-1609
auc	-1610
▁communaut	-1611
▁autre	-1612
fér	-1613
▁anal	-1614
duction	-1615
ains	-1616
▁comb	-1617
▁down	-1618
▁processus	-1619
uer	-1620
ules	-1621
ommes	-1622
ken	-1623
▁ils	-1624
▁cr	-1625
▁éc	-1626
▁individ	-1627
▁12	-1628
mis	-1629
ition	-1630
▁trava	-1631
▁jur	-1632
▁stand	-1633
▁sm	-1634
▁consult	-1635
day	-1636
▁Ass	-1637
▁great	-1638
çon	-1639
ized	-1640
jours	-1641
publ	-1642
▁offici	-1643
▁then	-1644
ible	-1645
▁niveau	-1646
ider	-1647
▁find	-1648
▁equ	-1649
tru	-1650
▁exem	-1651
▁cle	-1652
▁rend	-1653
▁ach	-1654
▁impro	-1655
ool	-1656
ieve	-1657
ters	-1658
ément	-1659
eau	-1660
▁2002	-1661
▁après	-1662
ders	-1663
▁Cette	-1664
▁faut	-1665
▁cre	-1666
tin	-1667
sive	-1668
▁Ç	-1669
▁ju	-1670
▁indic	-1671
▁canadien	-1672
vesti	-1673
▁same	-1674
▁Ça	-1675
▁Inter	-1676
alis	-1677
▁base	-1678
▁even	-1679
▁oblig	-1680
▁policy	-1681
▁pra	-1682
agn	-1683
▁Ad	-1684
ateur	-1685
▁financi	-1686
▁bus	-1687
1,	-1688
▁care	-1689
▁hand	-1690
▁lang	-1691
idence	-1692
▁second	-1693
▁dés	-1694
▁Tr	-1695
0.	-1696
▁children	-1697
eff	-1698
▁sal	-1699
ody	-1700
▁Program	-1701
▁lit	-1702
▁world	-1703
▁nature	-1704
mit	-1705
▁lead	-1706
▁major	-1707
rol	-1708
eah	-1709
leg	-1710
▁liv	-1711
ribun	-1712
raient	-1713
év	-1714
▁péri	-1715
▁gonna	-1716
▁déclar	-1717
▁each	-1718
▁State	-1719
▁Fr	-1720
ples	-1721
▁z	-1722
▁toujours	-1723
▁ensure	-1724
xt	-1725
ror	-1726
ount	-1727
▁fer	-1728
▁during	-1729
▁recommand	-1730
isse	-1731
ization	-1732
▁appropri	-1733
▁bi	-1734
omet	-1735
▁tit	-1736
ger	-1737
▁government	-1738
ié	-1739
▁pai	-1740
▁toi	-1741
▁come	-1742
▁sch	-1743
▁respon	-1744
ather	-1745
▁against	-1746
ép	-1747
▁nos	-1748
istration	-1749
▁period	-1750
▁déj	-1751
information	-1752
uss	-1753
▁ressources	-1754
▁provided	-1755
▁budget	-1756
ady	-1757
partment	-1758
▁associ	-1759
▁politiques	-1760
igr	-1761
▁own	-1762
▁proble	-1763
ower	-1764
▁étu	-1765
seign	-1766
▁identif	-1767
▁transport	-1768
itation	-1769
▁members	-1770
▁vue	-1771
▁struc	-1772
▁recherche	-1773
▁donc	-1774
▁sex	-1775
▁interest	-1776
gment	-1777
▁three	-1778
▁port	-1779
occ	-1780
des	-1781
▁look	-1782
article	-1783
qué	-1784
tionn	-1785
▁quoi	-1786
▁exist	-1787
▁vers	-1788
▁Se	-1789
▁év	-1790
erci	-1791
▁ev	-1792
▁person	-1793
▁issues	-1794
ared	-1795
▁Ces	-1796
▁coord	-1797
ouse	-1798
▁peux	-1799
▁suff	-1800
▁environment	-1801
▁Man	-1802
▁tal	-1803
rain	-1804
▁devrait	-1805
▁prac	-1806
thing	-1807
▁stratég	-1808
inter	-1809
▁arri	-1810
▁Or	-1811
aî	-1812
rais	-1813
ureau	-1814
▁promo	-1815
ential	-1816
nex	-1817
▁case	-1818
▁jam	-1819
êtes	-1820
ulations	-1821
▁depuis	-1822
ES	-1823
▁economic	-1824
irm	-1825
▁concernant	-1826
▁Res	-1827
▁mul	-1828
ortun	-1829
▁leg	-1830
▁pot	-1831
ières	-1832
▁territ	-1833
▁chose	-1834
▁accep	-1835
▁avail	-1836
▁med	-1837
▁Unies	-1838
▁institutions	-1839
eld	-1840
▁procéd	-1841
▁cir	-1842
▁Cour	-1843
▁giv	-1844
▁réun	-1845
kay	-1846
▁fact	-1847
▁bro	-1848
ying	-1849
▁management	-1850
▁ben	-1851
▁total	-1852
aim	-1853
▁sci	-1854
▁ven	-1855
illes	-1856
▁life	-1857
▁rien	-1858
▁much	-1859
▁produits	-1860
▁sor	-1861
▁continue	-1862
▁review	-1863
▁mondi	-1864
▁auc	-1865
▁autor	-1866
▁gar	-1867
▁site	-1868
▁invol	-1869
mp	-1870
▁Sh	-1871
atis	-1872
▁prendre	-1873
tent	-1874
▁ca	-1875
ism	-1876
aboration	-1877
▁conv	-1878
▁research	-1879
▁applic	-1880
▁still	-1881
▁2007	-1882
▁access	-1883
▁notamment	-1884
▁avons	-1885
▁pur	-1886
▁production	-1887
▁jou	-1888
orth	-1889
ieurs	-1890
▁Serv	-1891
▁profes	-1892
cle	-1893
▁voir	-1894
jour	-1895
▁avez	-1896
▁personnel	-1897
enn	-1898
igne	-1899
▁déjà	-1900
▁current	-1901
ili	-1902
▁succ	-1903
igin	-1904
▁moment	-1905
▁mand	-1906
aff	-1907
▁Oui	-1908
▁address	-1909
▁renfor	-1910
▁dou	-1911
▁façon	-1912
▁el	-1913
▁européenne	-1914
▁found	-1915
▁eu	-1916
▁Don	-1917
▁ton	-1918
▁personne	-1919
fois	-1920
istre	-1921
▁date	-1922
▁lieu	-1923
▁too	-1924
aur	-1925
▁happ	-1926
▁mettre	-1927
▁tell	-1928
▁cou	-1929
▁encour	-1930
▁bon	-1931
moi	-1932
truction	-1933
cles	-1934
▁put	-1935
▁œ	-1936
com	-1937
▁indi	-1938
▁vais	-1939
ked	-1940
▁direct	-1941
▁effic	-1942
gg	-1943
▁inst	-1944
▁années	-1945
ecess	-1946
▁résultats	-1947
▁Yeah	-1948
▁198	-1949
iller	-1950
▁glob	-1951
▁signific	-1952
omething	-1953
▁business	-1954
▁Do	-1955
▁simp	-1956
ffice	-1957
▁jamais	-1958
▁security	-1959
▁collec	-1960
▁spécial	-1961
▁Pe	-1962
▁vic	-1963
ize	-1964
▁result	-1965
▁Pré	-1966
▁Act	-1967
accord	-1968
▁quand	-1969
▁adv	-1970
ption	-1971
▁financial	-1972
▁relations	-1973
ification	-1974
▁community	-1975
▁prog	-1976
▁Bo	-1977
▁view	-1978
ners	-1979
▁Dire	-1980
▁action	-1981
▁documents	-1982
▁internationale	-1983
dic	-1984
1.	-1985
▁chaque	-1986
▁call	-1987
▁conse	-1988
▁strateg	-1989
abit	-1990
▁New	-1991
ograph	-1992
▁conta	-1993
▁measures	-1994
anger	-1995
▁provin	-1996
AN	-1997
▁comment	-1998
▁concer	-1999
illeurs	-2000
ications	-2001
urg	-2002
derst	-2003
▁areas	-2004
▁available	-2005
ires	-2006
ras	-2007
ently	-2008
xim	-2009
ribunal	-2010
▁market	-2011
▁Pres	-2012
ium	-2013
▁savoir	-2014
▁request	-2015
▁Am	-2016
▁participation	-2017
issement	-2018
▁formation	-2019
imin	-2020
▁list	-2021
lectr	-2022
▁assess	-2023
▁générale	-2024
aucoup	-2025
▁divers	-2026
ference	-2027
rim	-2028
▁14	-2029
▁last	-2030
▁tax	-2031
▁data	-2032
ides	-2033
vely	-2034
▁Member	-2035
ganisation	-2036
▁conform	-2037
▁further	-2038
cif	-2039
▁poin	-2040
ether	-2041
▁local	-2042
▁contra	-2043
▁culture	-2044
▁tant	-2045
▁voul	-2046
▁diffic	-2047
▁mean	-2048
▁fav	-2049
▁position	-2050
▁recommend	-2051
inc	-2052
istère	-2053
homme	-2054
▁trait	-2055
▁détermin	-2056
▁milit	-2057
▁loi	-2058
19	-2059
exam	-2060
▁decision	-2061
▁implementation	-2062
▁défin	-2063
▁compr	-2064
mination	-2065
▁However	-2066
▁30	-2067
▁cli	-2068
▁économique	-2069
▁type	-2070
▁never	-2071
abilité	-2072
▁équ	-2073
▁surve	-2074
ites	-2075
▁méd	-2076
▁benef	-2077
▁General	-2078
TI	-2079
▁better	-2080
▁maintenant	-2081
ouvelle	-2082
▁doll	-2083
▁underst	-2084
▁without	-2085
▁specific	-2086
▁Que	-2087
▁necess	-2088
-200	-2089
▁rap	-2090
▁hist	-2091
▁police	-2092
▁meeting	-2093
▁examin	-2094
▁pendant	-2095
▁commit	-2096
▁13	-2097
▁something	-2098
▁dr	-2099
▁allow	-2100
ock	-2101
▁pourrait	-2102
ults	-2103
▁To	-2104
▁show	-2105
pt	-2106
▁nouveau	-2107
▁sû	-2108
▁tex	-2109
▁resources	-2110
▁groupe	-2111
État	-2112
▁terror	-2113
reg	-2114
▁mesure	-2115
▁secteur	-2116
▁certains	-2117
ck	-2118
utes	-2119
▁répond	-2120
▁Commun	-2121
ager	-2122
omb	-2123
▁enti	-2124
ately	-2125
▁really	-2126
▁rôle	-2127
ploi	-2128
tegr	-2129
▁renseign	-2130
▁fil	-2131
ope	-2132
io	-2133
▁day	-2134
bor	-2135
▁juste	-2136
ength	-2137
▁test	-2138
▁May	-2139
▁area	-2140
éch	-2141
▁Co	-2142
▁design	-2143
▁stud	-2144
▁pouvoir	-2145
tical	-2146
islation	-2147
▁beaucoup	-2148
▁charg	-2149
▁observ	-2150
tro	-2151
▁change	-2152
▁project	-2153
▁décision	-2154
▁different	-2155
▁jud	-2156
▁since	-2157
▁special	-2158
▁cher	-2159
▁relev	-2160
▁Cons	-2161
▁affec	-2162
▁cand	-2163
▁particular	-2164
ina	-2165
▁chez	-2166
▁éch	-2167
mbre	-2168
▁16	-2169
▁parten	-2170
▁sen	-2171
▁little	-2172
outh	-2173
▁These	-2174
▁vale	-2175
▁taken	-2176
▁Secret	-2177
▁perform	-2178
▁ste	-2179
▁fun	-2180
▁future	-2181
▁six	-2182
▁quelque	-2183
oses	-2184
▁didn	-2185
rieur	-2186
▁11	-2187
nent	-2188
▁bre	-2189
▁give	-2190
▁while	-2191
▁œuvre	-2192
AC	-2193
▁working	-2194
▁conte	-2195
▁possibil	-2196
▁investi	-2197
▁plusieurs	-2198
▁Bien	-2199
▁group	-2200
liament	-2201
Union	-2202
▁opportun	-2203
sif	-2204
érie	-2205
▁pens	-2206
br	-2207
▁subst	-2208
▁période	-2209
▁fig	-2210
▁though	-2211
▁coopération	-2212
uring	-2213
▁offer	-2214
ook	-2215
▁raison	-2216
ancement	-2217
▁étaient	-2218
ech	-2219
éf	-2220
onom	-2221
▁coû	-2222
ource	-2223
▁alors	-2224
▁jusqu	-2225
▁Fin	-2226
▁situ	-2227
▁million	-2228
kes	-2229
erve	-2230
▁grow	-2231
▁projets	-2232
bility	-2233
gn	-2234
▁approach	-2235
ones	-2236
▁amend	-2237
▁application	-2238
▁candid	-2239
emblée	-2240
ression	-2241
side	-2242
▁My	-2243
ability	-2244
▁International	-2245
▁esp	-2246
▁marché	-2247
8,	-2248
ird	-2249
iqu	-2250
oles	-2251
tained	-2252
lément	-2253
▁première	-2254
lez	-2255
aide	-2256
▁distrib	-2257
erre	-2258
asse	-2259
▁cela	-2260
▁effective	-2261
▁compl	-2262
▁understand	-2263
▁play	-2264
▁att	-2265
vement	-2266
esse	-2267
▁reas	-2268
atisf	-2269
▁air	-2270
orter	-2271
▁real	-2272
ocra	-2273
▁mois	-2274
▁atta	-2275
▁selon	-2276
▁premier	-2277
▁large	-2278
▁paix	-2279
.2	-2280
▁Why	-2281
▁Tout	-2282
▁mieux	-2283
ried	-2284
▁exig	-2285
▁sujet	-2286
érer	-2287
▁serait	-2288
▁reven	-2289
▁ceux	-2290
ness	-2291
▁nég	-2292
ception	-2293
▁needs	-2294
▁aim	-2295
▁saf	-2296
▁Union	-2297
▁required	-2298
▁issue	-2299
▁grande	-2300
▁seu	-2301
▁manière	-2302
ogn	-2303
▁estim	-2304
▁peace	-2305
lu	-2306
▁sugg	-2307
ER	-2308
ey	-2309
embly	-2310
▁mort	-2311
▁féd	-2312
▁Minister	-2313
itor	-2314
férence	-2315
▁particulier	-2316
ience	-2317
▁délég	-2318
▁seront	-2319
▁17	-2320
▁sem	-2321
hui	-2322
▁intern	-2323
▁assistance	-2324
▁Z	-2325
▁const	-2326
▁Gu	-2327
▁tél	-2328
▁Let	-2329
éro	-2330
▁renseignements	-2331
▁Pourquoi	-2332
vez	-2333
▁National	-2334
▁dollars	-2335
su	-2336
▁training	-2337
▁25	-2338
▁pat	-2339
▁among	-2340
▁Ma	-2341
▁domaine	-2342
▁exc	-2343
ederal	-2344
AR	-2345
▁cin	-2346
osed	-2347
▁Col	-2348
▁role	-2349
▁organizations	-2350
ultural	-2351
▁instru	-2352
▁ill	-2353
▁why	-2354
sionn	-2355
▁conséqu	-2356
▁compris	-2357
▁appel	-2358
IS	-2359
▁based	-2360
▁société	-2361
▁force	-2362
▁necessary	-2363
ward	-2364
▁résolution	-2365
▁obten	-2366
▁qualité	-2367
▁pense	-2368
▁political	-2369
▁basis	-2370
▁Président	-2371
autre	-2372
table	-2373
▁problèmes	-2374
▁President	-2375
▁bén	-2376
▁section	-2377
▁cooperation	-2378
▁satisf	-2379
ront	-2380
atory	-2381
▁compan	-2382
▁proced	-2383
cent	-2384
▁rad	-2385
▁discri	-2386
ove	-2387
hic	-2388
ening	-2389
▁partners	-2390
ways	-2391
▁doing	-2392
▁titre	-2393
▁Assembly	-2394
▁resolution	-2395
▁cause	-2396
▁peti	-2397
ouvent	-2398
▁dep	-2399
och	-2400
▁face	-2401
jourd	-2402
▁problème	-2403
ationaux	-2404
▁1999	-2405
▁Ré	-2406
▁appli	-2407
IN	-2408
uel	-2409
▁significant	-2410
▁Cl	-2411
In	-2412
▁month	-2413
uck	-2414
cto	-2415
istra	-2416
évaluation	-2417
ène	-2418
ran	-2419
ived	-2420
▁exemple	-2421
▁reç	-2422
▁nouvelle	-2423
▁sector	-2424
ouvelles	-2425
rêt	-2426
▁family	-2427
▁suite	-2428
▁trouver	-2429
▁four	-2430
ica	-2431
▁control	-2432
esp	-2433
▁civil	-2434
▁organisations	-2435
▁integr	-2436
envir	-2437
toc	-2438
▁EU	-2439
Ass	-2440
EC	-2441
▁millions	-2442
▁beh	-2443
pect	-2444
▁build	-2445
alement	-2446
▁contrôle	-2447
▁Secré	-2448
▁conclus	-2449
▁initiatives	-2450
▁II	-2451
érif	-2452
▁fre	-2453
ories	-2454
▁conduc	-2455
ges	-2456
▁water	-2457
▁Tribunal	-2458
▁regul	-2459
ced	-2460
▁cases	-2461
ID	-2462
▁given	-2463
dit	-2464
▁cop	-2465
EN	-2466
cies	-2467
▁essenti	-2468
▁nuc	-2469
▁might	-2470
▁outre	-2471
▁results	-2472
▁princi	-2473
▁amélior	-2474
▁mor	-2475
bilité	-2476
mework	-2477
arn	-2478
▁spe	-2479
▁legal	-2480
▁foc	-2481
▁projec	-2482
▁Pol	-2483
▁small	-2484
avant	-2485
▁seulement	-2486
▁log	-2487
▁Pu	-2488
▁Acc	-2489
▁Jo	-2490
▁Groupe	-2491
▁nouvelles	-2492
time	-2493
▁indust	-2494
▁education	-2495
).	-2496
▁sim	-2497
▁analys	-2498
▁centr	-2499
▁Pre	-2500
▁êtes	-2501
▁record	-2502
▁def	-2503
occup	-2504
▁Afric	-2505
gu	-2506
ened	-2507
▁arm	-2508
ross	-2509
▁dispositions	-2510
aces	-2511
tir	-2512
term	-2513
▁note	-2514
▁Programme	-2515
ension	-2516
▁objectifs	-2517
▁App	-2518
unes	-2519
ready	-2520
▁home	-2521
▁whether	-2522
▁progress	-2523
▁held	-2524
▁violence	-2525
▁super	-2526
▁school	-2527
▁commercial	-2528
▁strength	-2529
Unis	-2530
irl	-2531
Assemblée	-2532
▁points	-2533
▁entreprises	-2534
uary	-2535
▁concerne	-2536
▁vraiment	-2537
▁soul	-2538
▁taux	-2539
▁proper	-2540
tie	-2541
elui	-2542
uf	-2543
▁recogn	-2544
▁staff	-2545
▁Su	-2546
▁table	-2547
▁increase	-2548
▁Parliament	-2549
▁norm	-2550
▁means	-2551
▁tim	-2552
▁deal	-2553
▁treat	-2554
application	-2555
▁participants	-2556
▁sever	-2557
▁jurid	-2558
▁already	-2559
▁Board	-2560
▁prés	-2561
▁relative	-2562
ogue	-2563
▁anti	-2564
▁Develop	-2565
▁net	-2566
tivité	-2567
oss	-2568
éb	-2569
▁qual	-2570
oires	-2571
▁soient	-2572
▁general	-2573
▁donné	-2574
▁intro	-2575
▁Comment	-2576
▁nationale	-2577
▁Ins	-2578
2,	-2579
▁Group	-2580
enses	-2581
▁trop	-2582
▁Tra	-2583
amb	-2584
▁ord	-2585
▁bar	-2586
▁exerc	-2587
▁Amer	-2588
yl	-2589
▁favor	-2590
ario	-2591
pects	-2592
▁camp	-2593
▁travaux	-2594
▁appar	-2595
▁vos	-2596
▁party	-2597
▁plans	-2598
▁another	-2599
▁include	-2600
IC	-2601
yant	-2602
▁fri	-2603
▁thing	-2604
oph	-2605
▁méth	-2606
nov	-2607
▁When	-2608
▁global	-2609
▁deli	-2610
▁engag	-2611
▁course	-2612
▁established	-2613
▁Comme	-2614
import	-2615
▁mus	-2616
taire	-2617
alf	-2618
▁groupes	-2619
rique	-2620
▁moyen	-2621
ète	-2622
▁best	-2623
▁With	-2624
▁less	-2625
▁Health	-2626
▁meille	-2627
ene	-2628
péri	-2629
▁head	-2630
ièrement	-2631
▁besoins	-2632
▁paragraphe	-2633
aw	-2634
▁Bureau	-2635
ustry	-2636
▁full	-2637
▁next	-2638
AD	-2639
▁Gr	-2640
▁regional	-2641
▁000	-2642
▁fix	-2643
▁reconn	-2644
▁abs	-2645
▁Come	-2646
▁sommes	-2647
ron	-2648
▁Now	-2649
▁communication	-2650
▁prim	-2651
▁developing	-2652
▁nécessaire	-2653
▁around	-2654
▁purp	-2655
▁connaiss	-2656
ceed	-2657
▁believe	-2658
▁24	-2659
place	-2660
▁Char	-2661
▁1.	-2662
▁attention	-2663
▁Cor	-2664
▁croiss	-2665
OM	-2666
cement	-2667
édi	-2668
▁crit	-2669
▁puis	-2670
▁u	-2671
ipe	-2672
ministration	-2673
▁groups	-2674
▁famille	-2675
▁invest	-2676
▁garanti	-2677
onc	-2678
▁mission	-2679
examen	-2680
auv	-2681
alisation	-2682
▁présente	-2683
idé	-2684
▁vu	-2685
agne	-2686
▁seul	-2687
▁parce	-2688
▁quat	-2689
▁success	-2690
▁vérif	-2691
▁elles	-2692
8.	-2693
rir	-2694
▁augment	-2695
▁justice	-2696
▁relevant	-2697
▁following	-2698
▁Dr	-2699
▁administra	-2700
quelle	-2701
lectron	-2702
▁responsibil	-2703
▁posi	-2704
▁occup	-2705
▁agric	-2706
by	-2707
omp	-2708
▁adopté	-2709
▁fonctionn	-2710
▁lic	-2711
valu	-2712
sec	-2713
▁land	-2714
titution	-2715
ctions	-2716
▁Gouvernement	-2717
▁importance	-2718
▁appropriate	-2719
▁done	-2720
istes	-2721
▁prépar	-2722
érations	-2723
rier	-2724
▁tradition	-2725
▁govern	-2726
▁deb	-2727
▁prix	-2728
▁souh	-2729
5,	-2730
▁arr	-2731
▁prob	-2732
▁impact	-2733
ienne	-2734
▁tour	-2735
▁submit	-2736
ght	-2737
▁Pas	-2738
▁toget	-2739
▁laquelle	-2740
ume	-2741
▁together	-2742
way	-2743
▁job	-2744
▁rédu	-2745
gin	-2746
▁cover	-2747
▁wee	-2748
▁Article	-2749
▁pap	-2750
▁ci	-2751
atic	-2752
uman	-2753
▁Loi	-2754
▁example	-2755
alest	-2756
▁fore	-2757
▁visant	-2758
▁vas	-2759
▁therefore	-2760
▁lut	-2761
▁fédér	-2762
over	-2763
ix	-2764
eter	-2765
▁feel	-2766
▁key	-2767
▁européen	-2768
vious	-2769
▁draft	-2770
▁compar	-2771
▁keep	-2772
▁organismes	-2773
eux	-2774
▁old	-2775
▁express	-2776
▁publique	-2777
▁transfer	-2778
ished	-2779
▁bénéf	-2780
▁Car	-2781
▁trade	-2782
▁pourquoi	-2783
▁structure	-2784
▁chall	-2785
▁attend	-2786
▁related	-2787
pond	-2788
▁Alors	-2789
▁effet	-2790
▁considered	-2791
▁char	-2792
▁proté	-2793
▁article	-2794
▁crois	-2795
ots	-2796
▁celui	-2797
sez	-2798
enf	-2799
▁celle	-2800
▁cos	-2801
▁difficult	-2802
▁perman	-2803
iés	-2804
orm	-2805
urb	-2806
▁Centre	-2807
▁Pr	-2808
▁sens	-2809
ator	-2810
▁100	-2811
▁Merci	-2812
▁field	-2813
▁always	-2814
▁dois	-2815
▁defin	-2816
tres	-2817
▁deleg	-2818
▁Parlement	-2819
▁various	-2820
▁atte	-2821
▁Development	-2822
▁risk	-2823
▁today	-2824
▁requirements	-2825
▁Yes	-2826
iginal	-2827
ators	-2828
▁rapports	-2829
▁Service	-2830
Or	-2831
▁kind	-2832
▁claim	-2833
7,	-2834
▁pa	-2835
▁minim	-2836
▁clim	-2837
ane	-2838
▁habit	-2839
3,	-2840
quent	-2841
▁clear	-2842
yse	-2843
▁sure	-2844
ira	-2845
▁donner	-2846
▁ni	-2847
oking	-2848
▁name	-2849
ONU	-2850
oms	-2851
▁Jus	-2852
▁dial	-2853
environnement	-2854
oul	-2855
▁certaines	-2856
▁Department	-2857
▁Mme	-2858
mm	-2859
▁—	-2860
▁reste	-2861
▁terme	-2862
af	-2863
▁hy	-2864
▁année	-2865
ctor	-2866
▁circ	-2867
▁Me	-2868
établ	-2869
▁élev	-2870
▁Hey	-2871
forme	-2872
▁problem	-2873
tition	-2874
▁partici	-2875
come	-2876
iez	-2877
▁girl	-2878
odes	-2879
▁univers	-2880
hi	-2881
asion	-2882
ledge	-2883
icient	-2884
urance	-2885
▁effectu	-2886
▁remain	-2887
public	-2888
▁souhait	-2889
▁Where	-2890
▁concentr	-2891
▁réc	-2892
.,	-2893
pro	-2894
▁modif	-2895
▁sk	-2896
▁sl	-2897
▁tri	-2898
ventions	-2899
▁framework	-2900
▁promotion	-2901
▁discrimination	-2902
▁products	-2903
▁devraient	-2904
▁voy	-2905
▁jours	-2906
▁quelques	-2907
bour	-2908
asing	-2909
to	-2910
▁Br	-2911
▁étr	-2912
not	-2913
▁femme	-2914
▁gard	-2915
▁1,	-2916
▁Some	-2917
▁projects	-2918
emploi	-2919
▁gens	-2920
▁Parties	-2921
▁few	-2922
▁parler	-2923
▁subject	-2924
▁Are	-2925
▁enter	-2926
▁proposed	-2927
gl	-2928
ians	-2929
▁mem	-2930
▁contribution	-2931
▁informations	-2932
▁nouveaux	-2933
ande	-2934
▁ide	-2935
▁adopted	-2936
sign	-2937
▁div	-2938
▁règlement	-2939
▁déta	-2940
lease	-2941
utilisation	-2942
ists	-2943
▁corre	-2944
▁financement	-2945
▁victi	-2946
▁able	-2947
▁developed	-2948
▁gouvern	-2949
▁employe	-2950
▁langu	-2951
istan	-2952
▁Ind	-2953
▁common	-2954
▁mer	-2955
ustr	-2956
▁focus	-2957
ark	-2958
▁consul	-2959
▁provisions	-2960
rastruc	-2961
▁partir	-2962
▁'	-2963
▁hear	-2964
▁persons	-2965
▁conten	-2966
▁Okay	-2967
▁affaires	-2968
oser	-2969
▁sent	-2970
ases	-2971
▁Court	-2972
atch	-2973
▁tran	-2974
issent	-2975
sp	-2976
expl	-2977
ably	-2978
▁actions	-2979
men	-2980
oix	-2981
issant	-2982
▁gener	-2983
▁improve	-2984
tario	-2985
▁capacity	-2986
quel	-2987
atifs	-2988
▁meth	-2989
yn	-2990
▁bonne	-2991
oud	-2992
▁Ou	-2993
ivre	-2994
ternet	-2995
▁individu	-2996
ask	-2997
▁Cont	-2998
tively	-2999
▁levels	-3000
aise	-3001
▁Dis	-3002
▁sûr	-3003
▁soutien	-3004
co	-3005
▁font	-3006
▁ayant	-3007
▁Work	-3008
▁phot	-3009
ervation	-3010
publique	-3011
AS	-3012
sh	-3013
▁larg	-3014
itable	-3015
off	-3016
▁mess	-3017
▁multi	-3018
bs	-3019
▁pati	-3020
▁bal	-3021
▁acqu	-3022
lected	-3023
/200	-3024
cept	-3025
▁centre	-3026
▁love	-3027
▁Rec	-3028
▁Just	-3029
▁propri	-3030
avoir	-3031
▁Mal	-3032
tures	-3033
oci	-3034
▁ég	-3035
ither	-3036
uve	-3037
view	-3038
respond	-3039
▁humanit	-3040
▁pén	-3041
▁fonds	-3042
▁provides	-3043
AT	-3044
Europe	-3045
▁agreement	-3046
▁poursu	-3047
inf	-3048
sieur	-3049
encies	-3050
▁confl	-3051
▁away	-3052
▁veut	-3053
less	-3054
▁Agency	-3055
▁compe	-3056
▁valeur	-3057
▁Not	-3058
ensemble	-3059
▁avaient	-3060
airs	-3061
▁forces	-3062
▁star	-3063
▁souvent	-3064
▁far	-3065
éré	-3066
wards	-3067
▁sein	-3068
▁thought	-3069
voy	-3070
▁2000	-3071
▁jeunes	-3072
▁Alle	-3073
▁quality	-3074
met	-3075
▁cost	-3076
▁final	-3077
▁Security	-3078
▁méc	-3079
ote	-3080
▁formul	-3081
▁several	-3082
▁crimin	-3083
▁received	-3084
▁complex	-3085
RC	-3086
oit	-3087
ised	-3088
▁Comp	-3089
▁Republic	-3090
▁réf	-3091
▁statis	-3092
▁aujourd	-3093
6,	-3094
ng	-3095
appro	-3096
▁Russi	-3097
▁Conference	-3098
5.	-3099
4,	-3100
tics	-3101
lements	-3102
▁however	-3103
âce	-3104
ender	-3105
SC	-3106
▁refer	-3107
ergy	-3108
▁réalis	-3109
▁least	-3110
tification	-3111
▁obligations	-3112
étu	-3113
body	-3114
▁One	-3115
▁Per	-3116
▁matter	-3117
▁rév	-3118
▁scientif	-3119
▁correspond	-3120
▁relatives	-3121
▁Be	-3122
UE	-3123
▁federal	-3124
crib	-3125
▁parents	-3126
▁industry	-3127
▁five	-3128
▁aller	-3129
3.	-3130
▁Look	-3131
▁Spec	-3132
▁reason	-3133
▁things	-3134
10	-3135
▁night	-3136
iled	-3137
▁Office	-3138
atique	-3139
▁minor	-3140
▁aspects	-3141
alestin	-3142
▁protect	-3143
iner	-3144
▁systems	-3145
▁liber	-3146
▁heures	-3147
▁trouv	-3148
▁coordination	-3149
erial	-3150
▁fall	-3151
▁vote	-3152
appel	-3153
▁anything	-3154
IT	-3155
ma	-3156
accès	-3157
▁professionn	-3158
▁vois	-3159
▁proch	-3160
▁risque	-3161
▁dialogue	-3162
itiz	-3163
tés	-3164
rer	-3165
anis	-3166
▁strong	-3167
▁collaboration	-3168
mb	-3169
▁tenu	-3170
▁due	-3171
ury	-3172
▁terms	-3173
▁until	-3174
▁aucune	-3175
tage	-3176
uter	-3177
▁efficace	-3178
▁authorities	-3179
ueur	-3180
▁took	-3181
▁journ	-3182
▁days	-3183
organ	-3184
wh	-3185
hold	-3186
ordre	-3187
iture	-3188
▁war	-3189
▁communauté	-3190
int	-3191
▁determin	-3192
__	-3193
▁Toute	-3194
▁négoci	-3195
▁cy	-3196
ffic	-3197
▁destin	-3198
▁individual	-3199
▁particularly	-3200
▁account	-3201
▁concerned	-3202
AP	-3203
though	-3204
ids	-3205
ief	-3206
▁food	-3207
vé	-3208
rès	-3209
▁porte	-3210
▁vertu	-3211
▁Dé	-3212
▁investig	-3213
▁normes	-3214
▁quatre	-3215
▁cit	-3216
lex	-3217
èle	-3218
▁using	-3219
▁policies	-3220
2.	-3221
osé	-3222
▁aider	-3223
▁run	-3224
ticles	-3225
▁fish	-3226
▁guid	-3227
▁environmental	-3228
ax	-3229
▁Secretary	-3230
iver	-3231
oot	-3232
tient	-3233
▁commenc	-3234
▁solution	-3235
▁Sp	-3236
▁reach	-3237
▁member	-3238
urr	-3239
▁deta	-3240
cription	-3241
endent	-3242
▁réunion	-3243
tré	-3244
oman	-3245
▁passé	-3246
▁method	-3247
amélior	-3248
ussions	-3249
Organisation	-3250
▁Ph	-3251
prise	-3252
▁cô	-3253
▁increased	-3254
mission	-3255
▁ever	-3256
▁capital	-3257
▁dernier	-3258
▁private	-3259
▁wr	-3260
plac	-3261
9,	-3262
▁intégr	-3263
▁chance	-3264
éducation	-3265
▁direction	-3266
▁open	-3267
▁talk	-3268
▁growth	-3269
▁réglement	-3270
grès	-3271
▁active	-3272
▁sources	-3273
▁problems	-3274
▁bring	-3275
▁laiss	-3276
gré	-3277
▁anim	-3278
▁simil	-3279
▁cannot	-3280
▁sustain	-3281
▁material	-3282
▁become	-3283
▁money	-3284
ussion	-3285
▁X	-3286
▁série	-3287
▁wish	-3288
▁First	-3289
▁class	-3290
▁conflic	-3291
▁́	-3292
▁hold	-3293
▁dir	-3294
▁called	-3295
ames	-3296
ciale	-3297
▁maxim	-3298
▁fran	-3299
dies	-3300
ibles	-3301
▁liste	-3302
usion	-3303
▁costs	-3304
▁house	-3305
iquement	-3306
▁return	-3307
▁traitement	-3308
▁environnement	-3309
ox	-3310
iles	-3311
▁produit	-3312
▁aucun	-3313
att	-3314
▁197	-3315
▁por	-3316
▁vig	-3317
▁Can	-3318
▁nombreux	-3319
yer	-3320
▁Jul	-3321
IP	-3322
▁whole	-3323
▁conformément	-3324
▁commerce	-3325
▁above	-3326
General	-3327
▁délégation	-3328
acité	-3329
▁petit	-3330
ior	-3331
ouvez	-3332
▁2001	-3333
▁involved	-3334
ctu	-3335
▁making	-3336
▁France	-3337
▁compé	-3338
▁permis	-3339
▁power	-3340
▁spécif	-3341
▁50	-3342
▁financ	-3343
▁reports	-3344
▁République	-3345
▁élé	-3346
▁minutes	-3347
▁création	-3348
estic	-3349
▁turn	-3350
▁croissance	-3351
let	-3352
tones	-3353
▁migr	-3354
▁Aut	-3355
▁dos	-3356
▁emp	-3357
▁dispon	-3358
▁touch	-3359
▁monitor	-3360
ake	-3361
line	-3362
▁Str	-3363
▁Rapp	-3364
▁performance	-3365
mi	-3366
ect	-3367
tariat	-3368
▁consomm	-3369
duced	-3370
tains	-3371
▁chef	-3372
ling	-3373
▁programs	-3374
▁lorsque	-3375
▁eas	-3376
▁devant	-3377
aint	-3378
ash	-3379
▁changes	-3380
▁décisions	-3381
ué	-3382
année	-3383
ochtones	-3384
▁consultations	-3385
ève	-3386
▁export	-3387
▁systèmes	-3388
▁Li	-3389
▁Trans	-3390
▁étant	-3391
hib	-3392
▁calcul	-3393
▁celles	-3394
6.	-3395
▁post	-3396
▁communities	-3397
UN	-3398
▁having	-3399
▁potential	-3400
▁extra	-3401
illance	-3402
iance	-3403
AL	-3404
-1	-3405
▁ban	-3406
▁months	-3407
▁moyens	-3408
▁industri	-3409
edi	-3410
ros	-3411
▁achieve	-3412
▁fournir	-3413
▁transpar	-3414
mment	-3415
pected	-3416
▁rules	-3417
▁initiative	-3418
▁Publ	-3419
▁Jan	-3420
▁caus	-3421
▁amount	-3422
▁ir	-3423
▁rapid	-3424
▁consist	-3425
▁additional	-3426
▁autorités	-3427
▁prep	-3428
▁broad	-3429
▁charge	-3430
▁funding	-3431
▁contact	-3432
▁legislation	-3433
acy	-3434
-2	-3435
enda	-3436
▁Cela	-3437
▁cell	-3438
▁standards	-3439
indre	-3440
▁forme	-3441
▁cinq	-3442
sie	-3443
▁sep	-3444
▁noted	-3445
▁Ministère	-3446
▁renforcer	-3447
nexe	-3448
▁Sep	-3449
▁[	-3450
▁source	-3451
▁knowledge	-3452
▁Human	-3453
▁technologies	-3454
▁lot	-3455
ially	-3456
▁told	-3457
▁hommes	-3458
▁eux	-3459
▁demandé	-3460
▁society	-3461
TION	-3462
▁père	-3463
lo	-3464
eck	-3465
orteur	-3466
▁plein	-3467
▁accoun	-3468
▁discussion	-3469
▁procédure	-3470
▁Isra	-3471
▁chem	-3472
▁dernière	-3473
rid	-3474
▁progrès	-3475
▁mondiale	-3476
exp	-3477
▁past	-3478
▁dû	-3479
agit	-3480
▁relig	-3481
▁capacité	-3482
▁prê	-3483
▁minist	-3484
▁recommandations	-3485
▁clients	-3486
▁éléments	-3487
▁Secrétaire	-3488
▁accordance	-3489
▁domaines	-3490
▁ensemble	-3491
▁construction	-3492
ended	-3493
▁seule	-3494
▁included	-3495
4.	-3496
▁tir	-3497
▁study	-3498
▁régions	-3499
uis	-3500
▁condition	-3501
▁nécessaires	-3502
▁June	-3503
▁internationales	-3504
▁leave	-3505
aît	-3506
érique	-3507
▁prest	-3508
rup	-3509
▁Web	-3510
▁passe	-3511
▁techniques	-3512
▁représentants	-3513
hen	-3514
▁mun	-3515
illet	-3516
▁déce	-3517
▁evidence	-3518
▁voud	-3519
▁én	-3520
▁apply	-3521
▁Sta	-3522
▁okay	-3523
▁tard	-3524
▁Rights	-3525
▁étrang	-3526
ître	-3527
▁Sur	-3528
▁sing	-3529
▁North	-3530
administration	-3531
rog	-3532
▁taking	-3533
▁démocra	-3534
▁mention	-3535
▁préoccup	-3536
▁assessment	-3537
▁big	-3538
ustrie	-3539
▁sorry	-3540
inion	-3541
▁judici	-3542
▁serious	-3543
ology	-3544
."	-3545
lections	-3546
après	-3547
▁Plan	-3548
▁Your	-3549
▁chap	-3550
▁pi	-3551
aged	-3552
▁début	-3553
▁press	-3554
OR	-3555
▁21	-3556
▁pratiques	-3557
▁Who	-3558
▁plup	-3559
▁age	-3560
▁plupart	-3561
▁Internet	-3562
▁canadienne	-3563
▁étudi	-3564
▁2.	-3565
▁influ	-3566
▁aurait	-3567
▁line	-3568
cember	-3569
▁différents	-3570
▁enh	-3571
▁types	-3572
tional	-3573
▁March	-3574
▁word	-3575
▁technical	-3576
▁young	-3577
▁rate	-3578
▁pen	-3579
exerc	-3580
▁Quel	-3581
▁impos	-3582
ège	-3583
▁install	-3584
▁left	-3585
▁Allez	-3586
▁soins	-3587
▁responsabilité	-3588
▁targ	-3589
▁Ro	-3590
objet	-3591
▁soir	-3592
▁Envir	-3593
▁effets	-3594
ined	-3595
▁condu	-3596
▁lib	-3597
▁underta	-3598
▁jug	-3599
thers	-3600
illed	-3601
tember	-3602
▁contributions	-3603
▁termin	-3604
▁cra	-3605
▁malad	-3606
▁often	-3607
▁déclaration	-3608
▁December	-3609
▁hos	-3610
térie	-3611
▁Pri	-3612
▁Lors	-3613
▁read	-3614
iff	-3615
endra	-3616
▁durable	-3617
▁Protoc	-3618
▁Pa	-3619
assurer	-3620
7.	-3621
▁prises	-3622
▁matéri	-3623
▁employment	-3624
9.	-3625
▁mech	-3626
▁décembre	-3627
▁proposition	-3628
ending	-3629
▁bil	-3630
▁wel	-3631
▁sout	-3632
▁zone	-3633
▁experience	-3634
▁Bon	-3635
▁juin	-3636
▁writ	-3637
▁adj	-3638
▁lutte	-3639
▁31	-3640
▁dépenses	-3641
▁instruments	-3642
▁entend	-3643
▁maison	-3644
avantage	-3645
▁près	-3646
▁citiz	-3647
èce	-3648
otel	-3649
▁team	-3650
▁citoy	-3651
▁Cer	-3652
▁God	-3653
▁wait	-3654
ifications	-3655
goti	-3656
▁fab	-3657
▁tre	-3658
▁reform	-3659
▁profession	-3660
▁recommendations	-3661
▁rendre	-3662
▁September	-3663
▁court	-3664
pecially	-3665
▁22	-3666
▁won	-3667
périence	-3668
▁ép	-3669
veur	-3670
▁Fe	-3671
▁facilit	-3672
uted	-3673
pital	-3674
▁upon	-3675
▁organization	-3676
▁bou	-3677
▁plac	-3678
▁sites	-3679
ley	-3680
of	-3681
eal	-3682
▁mandat	-3683
tices	-3684
ued	-3685
▁vrai	-3686
▁coûts	-3687
▁Memb	-3688
▁Plus	-3689
▁lesqu	-3690
▁seem	-3691
▁montant	-3692
▁office	-3693
▁discuss	-3694
lear	-3695
▁poss	-3696
rastructure	-3697
▁bord	-3698
élaboration	-3699
▁suivi	-3700
▁ministère	-3701
▁free	-3702
▁aj	-3703
arch	-3704
▁Community	-3705
▁hon	-3706
▁fins	-3707
▁sau	-3708
▁tend	-3709
▁Organ	-3710
▁state	-3711
▁quelqu	-3712
▁leaders	-3713
▁sociale	-3714
▁technique	-3715
je	-3716
▁Sch	-3717
atural	-3718
économ	-3719
▁World	-3720
▁ouver	-3721
▁restric	-3722
titude	-3723
▁règles	-3724
▁value	-3725
intégr	-3726
▁provision	-3727
ican	-3728
▁needed	-3729
▁chois	-3730
▁response	-3731
ST	-3732
▁urg	-3733
▁déterminer	-3734
ige	-3735
▁deuxième	-3736
▁responsible	-3737
▁choses	-3738
▁ground	-3739
▁kill	-3740
▁week	-3741
▁demander	-3742
▁increasing	-3743
▁dri	-3744
▁nationales	-3745
ze	-3746
▁ai	-3747
utôt	-3748
▁cho	-3749
ection	-3750
▁assist	-3751
▁submitted	-3752
▁Ab	-3753
uge	-3754
ik	-3755
▁pouvez	-3756
éric	-3757
▁confér	-3758
▁challeng	-3759
▁VI	-3760
élic	-3761
▁opérations	-3762
▁contract	-3763
▁nav	-3764
▁red	-3765
▁John	-3766
▁stratégie	-3767
▁Conférence	-3768
▁surveillance	-3769
▁wor	-3770
▁trou	-3771
▁yet	-3772
▁previous	-3773
1)	-3774
▁mari	-3775
▁Good	-3776
lan	-3777
duce	-3778
▁vir	-3779
▁ligne	-3780
▁contex	-3781
▁proposal	-3782
icip	-3783
effic	-3784
▁secret	-3785
CT	-3786
▁tes	-3787
tivités	-3788
▁responsibility	-3789
▁égard	-3790
ompl	-3791
▁nothing	-3792
▁vot	-3793
tembre	-3794
▁energy	-3795
▁souten	-3796
▁intéress	-3797
▁consultation	-3798
▁hard	-3799
▁ville	-3800
▁permettre	-3801
ril	-3802
▁Qui	-3803
erver	-3804
éraux	-3805
atoire	-3806
▁offic	-3807
▁assurer	-3808
▁technology	-3809
▁concl	-3810
▁Canadians	-3811
▁pertin	-3812
▁suggest	-3813
▁Aff	-3814
▁mère	-3815
▁seen	-3816
▁pil	-3817
▁Prem	-3818
▁came	-3819
▁existing	-3820
/2	-3821
isé	-3822
EP	-3823
▁Special	-3824
icile	-3825
▁201	-3826
ually	-3827
▁command	-3828
▁cust	-3829
▁exéc	-3830
▁wanted	-3831
/1	-3832
▁élabor	-3833
▁harm	-3834
▁consum	-3835
▁operations	-3836
uelle	-3837
▁item	-3838
▁histor	-3839
▁soulign	-3840
▁syn	-3841
ha	-3842
importance	-3843
▁surv	-3844
▁actuellement	-3845
▁innov	-3846
▁enough	-3847
▁light	-3848
▁23	-3849
▁short	-3850
▁Thank	-3851
▁oe	-3852
▁confirm	-3853
▁context	-3854
▁early	-3855
▁septembre	-3856
▁che	-3857
▁haut	-3858
▁respond	-3859
▁ailleurs	-3860
most	-3861
▁adap	-3862
oitation	-3863
▁tom	-3864
sociation	-3865
▁positive	-3866
",	-3867
sy	-3868
adop	-3869
unch	-3870
ontre	-3871
▁ministre	-3872
ified	-3873
quête	-3874
sibles	-3875
▁negoti	-3876
▁Toutefois	-3877
CR	-3878
▁Vo	-3879
pril	-3880
▁indep	-3881
▁précéd	-3882
elves	-3883
▁move	-3884
▁compét	-3885
èces	-3886
▁transi	-3887
ony	-3888
▁body	-3889
▁subs	-3890
▁third	-3891
▁économiques	-3892
vier	-3893
▁Sud	-3894
▁supplément	-3895
▁Air	-3896
▁devons	-3897
▁risques	-3898
▁Inc	-3899
▁act	-3900
▁grâce	-3901
industrie	-3902
issions	-3903
▁agencies	-3904
▁membre	-3905
▁recent	-3906
▁distribution	-3907
▁drug	-3908
▁centres	-3909
▁towards	-3910
▁department	-3911
▁objectives	-3912
▁emb	-3913
▁crime	-3914
▁cat	-3915
raî	-3916
▁dead	-3917
▁auprès	-3918
▁safety	-3919
▁especially	-3920
olid	-3921
▁suffis	-3922
▁effect	-3923
DP	-3924
ided	-3925
▁mars	-3926
▁recr	-3927
▁benefits	-3928
▁provincial	-3929
199	-3930
▁Her	-3931
▁Code	-3932
employ	-3933
▁start	-3934
▁coming	-3935
▁Bar	-3936
▁across	-3937
cy	-3938
arian	-3939
▁April	-3940
▁unique	-3941
▁directive	-3942
▁top	-3943
actions	-3944
▁strategy	-3945
tile	-3946
▁opportunity	-3947
iation	-3948
▁phase	-3949
▁yours	-3950
▁emerg	-3951
▁représentant	-3952
▁hope	-3953
▁importante	-3954
▁tel	-3955
▁Est	-3956
▁low	-3957
▁conj	-3958
▁company	-3959
▁doesn	-3960
▁Monsieur	-3961
▁Ste	-3962
▁réponse	-3963
▁solutions	-3964
▁room	-3965
▁débat	-3966
▁military	-3967
▁Tur	-3968
▁prevent	-3969
▁everything	-3970
▁bureau	-3971
oins	-3972
temps	-3973
▁dossi	-3974
idd	-3975
▁guy	-3976
étais	-3977
▁agreed	-3978
member	-3979
▁measure	-3980
▁plutôt	-3981
taining	-3982
▁Did	-3983
▁cam	-3984
▁fille	-3985
▁partenaires	-3986
▁principe	-3987
▁treatment	-3988
▁populations	-3989
gé	-3990
▁West	-3991
▁reported	-3992
▁US	-3993
trer	-3994
avais	-3995
▁commission	-3996
▁boy	-3997
IV	-3998
▁cru	-3999
acter	-4000
ciaux	-4001
ports	-4002
change	-4003
▁articles	-4004
NU	-4005
▁hor	-4006
auvre	-4007
▁please	-4008
▁2005,	-4009
▁expected	-4010
▁vigueur	-4011
▁live	-4012
▁propre	-4013
ics	-4014
ols	-4015
▁signal	-4016
▁répondre	-4017
▁gouvernements	-4018
êmes	-4019
▁achie	-4020
▁nationaux	-4021
50	-4022
ict	-4023
rench	-4024
▁donne	-4025
▁either	-4026
▁providing	-4027
▁Services	-4028
▁death	-4029
gence	-4030
onstr	-4031
▁40	-4032
▁ask	-4033
▁pê	-4034
étés	-4035
▁coup	-4036
dess	-4037
▁proceed	-4038
▁province	-4039
▁promote	-4040
▁Sal	-4041
▁Fund	-4042
▁version	-4043
▁analysis	-4044
▁procédures	-4045
ana	-4046
uite	-4047
▁Nord	-4048
▁tels	-4049
▁2004,	-4050
▁Accord	-4051
imm	-4052
▁times	-4053
iennent	-4054
▁greater	-4055
▁demandes	-4056
▁personal	-4057
▁pourraient	-4058
▁Ge	-4059
▁médi	-4060
▁once	-4061
▁Please	-4062
▁consideration	-4063
olé	-4064
▁By	-4065
▁vul	-4066
▁representative	-4067
▁Où	-4068
Office	-4069
ctober	-4070
▁répar	-4071
▁asked	-4072
▁conven	-4073
▁foreign	-4074
heure	-4075
▁Bri	-4076
aître	-4077
▁fondament	-4078
▁supé	-4079
▁January	-4080
ouvoir	-4081
eth	-4082
ills	-4083
ular	-4084
▁else	-4085
▁acces	-4086
▁Mad	-4087
▁stay	-4088
▁approu	-4089
tez	-4090
▁er	-4091
▁Get	-4092
▁quar	-4093
▁practice	-4094
▁améliorer	-4095
▁davantage	-4096
▁Div	-4097
▁2003,	-4098
▁purpose	-4099
▁Quand	-4100
▁fully	-4101
▁mai	-4102
▁chac	-4103
▁compos	-4104
EM	-4105
▁provinces	-4106
▁changements	-4107
utive	-4108
▁relation	-4109
▁wrong	-4110
▁network	-4111
onds	-4112
▁later	-4113
▁encourage	-4114
voir	-4115
▁origin	-4116
▁building	-4117
▁autochtones	-4118
▁â	-4119
▁sorte	-4120
▁decisions	-4121
self	-4122
▁Quoi	-4123
▁guerre	-4124
▁pauvre	-4125
▁bénéfici	-4126
ché	-4127
▁ratif	-4128
▁October	-4129
▁secteurs	-4130
▁fis	-4131
based	-4132
▁mine	-4133
▁pratique	-4134
▁Bl	-4135
▁Nove	-4136
▁stop	-4137
▁principes	-4138
ensus	-4139
▁Public	-4140
▁cultural	-4141
rêts	-4142
appui	-4143
▁While	-4144
missions	-4145
ically	-4146
▁threat	-4147
▁jan	-4148
▁nuclé	-4149
ilà	-4150
▁cherche	-4151
aisse	-4152
▁créer	-4153
▁range	-4154
▁activity	-4155
▁property	-4156
raq	-4157
osph	-4158
assif	-4159
inking	-4160
▁régime	-4161
pre	-4162
▁semble	-4163
▁trouve	-4164
amn	-4165
istry	-4166
2)	-4167
▁potenti	-4168
▁bad	-4169
▁procedures	-4170
more	-4171
usement	-4172
atiques	-4173
▁prison	-4174
exercice	-4175
▁homme	-4176
▁traité	-4177
▁reçu	-4178
▁Africa	-4179
tout	-4180
aster	-4181
ablement	-4182
▁representatives	-4183
▁mind	-4184
▁faites	-4185
▁faveur	-4186
▁modern	-4187
▁municip	-4188
▁November	-4189
▁employés	-4190
dom	-4191
anal	-4192
avis	-4193
▁commune	-4194
▁réduire	-4195
wer	-4196
▁obtenir	-4197
▁Selon	-4198
▁prise	-4199
▁arrang	-4200
▁Sw	-4201
▁mag	-4202
▁appu	-4203
▁lois	-4204
▁purs	-4205
▁télé	-4206
▁Jap	-4207
▁More	-4208
▁dess	-4209
▁goods	-4210
▁poste	-4211
▁forward	-4212
ival	-4213
▁heure	-4214
▁describ	-4215
ired	-4216
▁mut	-4217
idents	-4218
venant	-4219
▁lorsqu	-4220
▁janvier	-4221
▁currently	-4222
▁Bel	-4223
▁vit	-4224
▁others	-4225
▁aura	-4226
▁nove	-4227
▁franç	-4228
PS	-4229
rant	-4230
urant	-4231
▁page	-4232
▁zones	-4233
▁percent	-4234
urent	-4235
▁preuve	-4236
▁novembre	-4237
▁dernières	-4238
▁York	-4239
▁marchés	-4240
▁indép	-4241
▁passer	-4242
▁Ontario	-4243
▁2,	-4244
▁aide	-4245
alités	-4246
ls	-4247
ueill	-4248
▁outside	-4249
▁citizens	-4250
▁sustainable	-4251
vant	-4252
▁concerning	-4253
▁propor	-4254
▁quanti	-4255
▁considér	-4256
▁Cap	-4257
▁Ger	-4258
▁tém	-4259
▁begin	-4260
ological	-4261
▁venir	-4262
▁central	-4263
▁practices	-4264
▁2008	-4265
▁tenir	-4266
▁domestic	-4267
itch	-4268
▁Ter	-4269
▁July	-4270
▁language	-4271
lor	-4272
▁capacités	-4273
ctive	-4274
▁simple	-4275
▁conflict	-4276
aï	-4277
ût	-4278
▁revenu	-4279
la	-4280
icro	-4281
▁lat	-4282
acté	-4283
▁Ms	-4284
▁2002,	-4285
▁principal	-4286
dy	-4287
equ	-4288
▁termes	-4289
▁administrative	-4290
aps	-4291
▁bri	-4292
▁experts	-4293
alk	-4294
▁rac	-4295
ellectu	-4296
▁orient	-4297
▁contexte	-4298
put	-4299
iquer	-4300
égard	-4301
▁avis	-4302
▁regarding	-4303
▁législation	-4304
rab	-4305
▁combat	-4306
▁différentes	-4307
▁travaill	-4308
▁continued	-4309
▁opération	-4310
▁promouvoir	-4311
face	-4312
▁South	-4313
▁frais	-4314
itiative	-4315
▁2006,	-4316
▁exclus	-4317
autor	-4318
▁cond	-4319
▁hours	-4320
▁aid	-4321
▁join	-4322
▁investment	-4323
▁rou	-4324
▁perspec	-4325
▁French	-4326
resse	-4327
▁aver	-4328
▁figure	-4329
ébec	-4330
anding	-4331
▁planning	-4332
▁Constitution	-4333
▁communications	-4334
▁inten	-4335
▁appear	-4336
▁close	-4337
▁telle	-4338
IR	-4339
wa	-4340
▁sw	-4341
ipment	-4342
▁milieu	-4343
▁niveaux	-4344
arri	-4345
▁delegation	-4346
▁juillet	-4347
▁Roy	-4348
itaire	-4349
▁autom	-4350
▁envis	-4351
▁accompl	-4352
▁tort	-4353
▁Après	-4354
▁product	-4355
avez	-4356
▁Eng	-4357
▁agenda	-4358
aign	-4359
▁Econom	-4360
▁prepar	-4361
▁challenges	-4362
▁conclusions	-4363
efficacité	-4364
▁share	-4365
hips	-4366
▁Exc	-4367
▁clos	-4368
▁safe	-4369
erb	-4370
▁certif	-4371
▁choix	-4372
ssement	-4373
▁monitoring	-4374
▁environ	-4375
▁participer	-4376
▁0	-4377
▁28	-4378
▁function	-4379
▁along	-4380
▁diver	-4381
▁standard	-4382
▁financière	-4383
▁catég	-4384
▁status	-4385
▁enj	-4386
▁2001,	-4387
▁looking	-4388
▁vér	-4389
▁Working	-4390
▁exigences	-4391
organisation	-4392
arif	-4393
inqu	-4394
tenant	-4395
uant	-4396
▁gre	-4397
▁Govern	-4398
▁ait	-4399
▁études	-4400
Af	-4401
ering	-4402
▁ment	-4403
▁présenter	-4404
▁fight	-4405
CC	-4406
intérêt	-4407
▁Any	-4408
▁soon	-4409
▁consac	-4410
▁Division	-4411
▁situations	-4412
▁discussions	-4413
▁27	-4414
rought	-4415
▁avril	-4416
▁attrib	-4417
▁disposition	-4418
▁del	-4419
▁phys	-4420
ateral	-4421
▁existe	-4422
▁similar	-4423
▁missions	-4424
▁protéger	-4425
bit	-4426
▁claire	-4427
▁natural	-4428
▁Dec	-4429
▁arrê	-4430
▁enreg	-4431
▁client	-4432
▁effects	-4433
▁Environment	-4434
aj	-4435
the	-4436
anced	-4437
▁Director	-4438
aime	-4439
ghan	-4440
▁limit	-4441
venue	-4442
ctobre	-4443
▁compli	-4444
▁father	-4445
ordin	-4446
▁Agre	-4447
boriginal	-4448
▁possibilité	-4449
va	-4450
▁lequel	-4451
▁someone	-4452
▁identified	-4453
▁nombreuses	-4454
▁Main	-4455
▁Pers	-4456
▁aliment	-4457
▁individuals	-4458
ca	-4459
▁Bec	-4460
▁Regard	-4461
▁mother	-4462
▁nécessité	-4463
tait	-4464
▁refus	-4465
▁happened	-4466
▁deme	-4467
▁benefit	-4468
OS	-4469
▁Since	-4470
▁internationaux	-4471
phone	-4472
UR	-4473
▁nuit	-4474
▁président	-4475
▁expressed	-4476
même	-4477
éder	-4478
▁pros	-4479
▁separ	-4480
▁fédéral	-4481
ED	-4482
aud	-4483
▁octobre	-4484
▁continuer	-4485
▁transition	-4486
▁living	-4487
▁opportunities	-4488
iée	-4489
▁Em	-4490
▁hom	-4491
▁Cong	-4492
▁event	-4493
hy	-4494
▁miss	-4495
▁grant	-4496
rez	-4497
▁Dieu	-4498
▁voie	-4499
▁plain	-4500
▁maintien	-4501
▁idea	-4502
▁incor	-4503
termine	-4504
▁danger	-4505
▁commitment	-4506
▁known	-4507
▁repro	-4508
30	-4509
▁2000,	-4510
▁concurr	-4511
▁meetings	-4512
▁i	-4513
▁amb	-4514
▁der	-4515
▁ethn	-4516
▁authority	-4517
exéc	-4518
rehen	-4519
▁accès	-4520
▁justif	-4521
▁félic	-4522
uv	-4523
roit	-4524
▁ear	-4525
▁evaluation	-4526
eria	-4527
▁stress	-4528
▁Sub	-4529
▁Then	-4530
▁target	-4531
▁sembl	-4532
▁rather	-4533
AM	-4534
▁rencon	-4535
▁vé	-4536
▁went	-4537
ulaire	-4538
▁entit	-4539
▁self	-4540
argent	-4541
▁Chair	-4542
▁durant	-4543
▁réseau	-4544
▁Section	-4545
▁électron	-4546
▁bat	-4547
▁retr	-4548
▁séance	-4549
▁minimum	-4550
▁companies	-4551
▁Indi	-4552
▁agents	-4553
▁dispar	-4554
▁décidé	-4555
▁26	-4556
▁Our	-4557
égalité	-4558
▁Canadiens	-4559
▁Depuis	-4560
org	-4561
▁Har	-4562
▁weap	-4563
▁Israel	-4564
▁bill	-4565
▁former	-4566
▁statement	-4567
ored	-4568
▁biens	-4569
▁dimin	-4570
▁texte	-4571
▁single	-4572
▁60	-4573
inst	-4574
kely	-4575
▁dipl	-4576
igration	-4577
▁reporting	-4578
▁convention	-4579
oke	-4580
▁See	-4581
▁manif	-4582
▁promot	-4583
▁permanent	-4584
objec	-4585
▁funds	-4586
OC	-4587
▁vill	-4588
veness	-4589
▁sélection	-4590
▁manuf	-4591
itaires	-4592
▁observations	-4593
▁coh	-4594
▁phy	-4595
uille	-4596
▁prend	-4597
▁effort	-4598
▁indiqué	-4599
toi	-4600
▁Cep	-4601
▁procedure	-4602
igine	-4603
elines	-4604
▁multil	-4605
▁getting	-4606
▁opinion	-4607
▁3.	-4608
iennes	-4609
ecutive	-4610
▁comité	-4611
isté	-4612
▁income	-4613
▁citoyens	-4614
▁prepared	-4615
▁Cependant	-4616
uels	-4617
▁présid	-4618
▁trying	-4619
▁confiance	-4620
ull	-4621
abord	-4622
ument	-4623
▁cred	-4624
▁genre	-4625
sych	-4626
▁assez	-4627
▁resol	-4628
uff	-4629
unt	-4630
ambre	-4631
▁King	-4632
elling	-4633
▁véhic	-4634
▁altern	-4635
▁annual	-4636
ives	-4637
▁essay	-4638
▁Social	-4639
▁Aboriginal	-4640
valuer	-4641
▁Because	-4642
▁employees	-4643
établissement	-4644
▁half	-4645
▁vehic	-4646
▁oeuvre	-4647
▁according	-4648
▁Information	-4649
aries	-4650
▁constitue	-4651
ède	-4652
gent	-4653
▁joint	-4654
enseign	-4655
▁telles	-4656
▁conclud	-4657
▁economy	-4658
ands	-4659
▁faci	-4660
▁intellectu	-4661
▁susp	-4662
▁pauvreté	-4663
ape	-4664
▁rele	-4665
▁speak	-4666
▁friend	-4667
ush	-4668
▁Règ	-4669
▁mondial	-4670
▁armes	-4671
▁visit	-4672
▁higher	-4673
▁carried	-4674
▁pan	-4675
▁dise	-4676
▁(200	-4677
▁demonstr	-4678
▁applications	-4679
▁limited	-4680
énerg	-4681
▁guys	-4682
▁link	-4683
▁législ	-4684
▁recours	-4685
phas	-4686
tation	-4687
▁parmi	-4688
▁réduction	-4689
▁196	-4690
▁mauv	-4691
▁stre	-4692
lector	-4693
▁makes	-4694
▁apport	-4695
▁conséquent	-4696
▁Cal	-4697
iversity	-4698
fait	-4699
▁Treat	-4700
▁trouvé	-4701
▁victimes	-4702
état	-4703
▁2005.	-4704
▁obsta	-4705
dre	-4706
▁Ed	-4707
diction	-4708
▁établi	-4709
▁saw	-4710
odies	-4711
▁According	-4712
▁fonctions	-4713
▁successful	-4714
▁publication	-4715
▁Dem	-4716
exper	-4717
▁jouer	-4718
▁concerns	-4719
▁principles	-4720
▁envoy	-4721
onnes	-4722
▁term	-4723
▁remar	-4724
▁Secretariat	-4725
▁ago	-4726
▁carry	-4727
▁surtout	-4728
▁état	-4729
▁rates	-4730
▁Ac	-4731
▁mach	-4732
▁parc	-4733
▁2004.	-4734
▁secré	-4735
▁Organization	-4736
▁juridique	-4737
▁propriété	-4738
aison	-4739
rehensive	-4740
-0	-4741
▁decided	-4742
▁urb	-4743
▁model	-4744
▁alloc	-4745
partement	-4746
▁El	-4747
▁tâ	-4748
ades	-4749
▁essential	-4750
▁comprendre	-4751
▁principaux	-4752
ICE	-4753
abs	-4754
anks	-4755
▁civile	-4756
▁Of	-4757
èrent	-4758
▁rempl	-4759
▁create	-4760
▁learn	-4761
▁présenté	-4762
ude	-4763
▁itself	-4764
▁statut	-4765
iné	-4766
▁cross	-4767
▁numéro	-4768
▁difficile	-4769
sc	-4770
▁capit	-4771
▁corpor	-4772
▁agreements	-4773
▁territoire	-4774
▁modèle	-4775
▁associated	-4776
▁etc	-4777
▁tent	-4778
▁Cro	-4779
▁sort	-4780
quement	-4781
▁organisation	-4782
DC	-4783
▁DE	-4784
ologie	-4785
▁senti	-4786
▁Gl	-4787
▁fort	-4788
▁understanding	-4789
▁talking	-4790
▁official	-4791
▁instrument	-4792
▁deliver	-4793
▁nuclear	-4794
▁Palestin	-4795
▁viv	-4796
erait	-4797
▁remerci	-4798
umb	-4799
▁expos	-4800
▁includes	-4801
▁conclusion	-4802
itions	-4803
▁notes	-4804
activité	-4805
▁publics	-4806
▁voudrais	-4807
▁reconnaiss	-4808
ttes	-4809
▁file	-4810
arante	-4811
3)	-4812
▁lac	-4813
▁try	-4814
erais	-4815
▁paid	-4816
▁Québec	-4817
eness	-4818
▁régul	-4819
▁compens	-4820
▁High	-4821
▁presented	-4822
▁directement	-4823
énergie	-4824
▁brought	-4825
▁Agreement	-4826
▁argu	-4827
▁labour	-4828
▁character	-4829
ows	-4830
▁Law	-4831
▁famil	-4832
▁equipment	-4833
▁dim	-4834
▁Maybe	-4835
▁caracté	-4836
▁prévention	-4837
cé	-4838
aging	-4839
tenir	-4840
▁lanc	-4841
tences	-4842
▁heard	-4843
tection	-4844
▁American	-4845
▁privé	-4846
▁Research	-4847
▁sam	-4848
▁évalu	-4849
▁extend	-4850
▁African	-4851
ung	-4852
▁front	-4853
▁mobil	-4854
▁remember	-4855
▁objective	-4856
agers	-4857
placement	-4858
ystem	-4859
▁savez	-4860
▁teach	-4861
tiveness	-4862
▁Will	-4863
▁circum	-4864
▁compon	-4865
rée	-4866
▁Te	-4867
▁regions	-4868
▁workers	-4869
▁requested	-4870
zy	-4871
▁Mc	-4872
cipl	-4873
tier	-4874
▁code	-4875
▁truc	-4876
▁voulez	-4877
▁Further	-4878
▁conducted	-4879
▁Every	-4880
▁travailler	-4881
▁bab	-4882
▁sang	-4883
▁comporte	-4884
▁responsabil	-4885
ME	-4886
ery	-4887
▁résid	-4888
▁rich	-4889
origine	-4890
▁compétences	-4891
/5	-4892
▁species	-4893
aring	-4894
▁lack	-4895
▁réal	-4896
rement	-4897
▁2006.	-4898
▁America	-4899
▁dès	-4900
▁reduce	-4901
▁tempor	-4902
tta	-4903
alie	-4904
avait	-4905
▁tête	-4906
▁approche	-4907
Al	-4908
dis	-4909
▁perf	-4910
▁entire	-4911
▁patients	-4912
▁fine	-4913
▁offre	-4914
▁content	-4915
▁licence	-4916
▁maximum	-4917
▁propositions	-4918
▁longer	-4919
▁message	-4920
rière	-4921
▁sait	-4922
▁défense	-4923
▁book	-4924
▁decl	-4925
▁2003.	-4926
▁visite	-4927
▁relating	-4928
nel	-4929
arily	-4930
▁radio	-4931
▁Affairs	-4932
ôtel	-4933
titut	-4934
évrier	-4935
▁indicated	-4936
▁applicable	-4937
▁Commissioner	-4938
▁Here	-4939
▁psych	-4940
▁emphas	-4941
▁overall	-4942
intention	-4943
partments	-4944
CO	-4945
ged	-4946
▁Nor	-4947
▁circul	-4948
▁toutefois	-4949
▁Ca	-4950
quently	-4951
▁complete	-4952
▁responsable	-4953
▁champ	-4954
▁almost	-4955
▁sociaux	-4956
▁German	-4957
▁valeurs	-4958
▁contained	-4959
▁29	-4960
▁compet	-4961
▁Economic	-4962
▁facteurs	-4963
lier	-4964
uild	-4965
▁mot	-4966
▁propose	-4967
▁designed	-4968
▁principle	-4969
new	-4970
▁behalf	-4971
ield	-4972
▁Son	-4973
▁After	-4974
▁pover	-4975
▁contrô	-4976
▁considéra	-4977
vée	-4978
▁médec	-4979
▁poverty	-4980
économie	-4981
▁actually	-4982
▁priority	-4983
government	-4984
▁mandate	-4985
▁His	-4986
▁améric	-4987
▁bodies	-4988
▁travers	-4989
▁côté	-4990
▁committed	-4991
bruary	-4992
▁gender	-4993
orrow	-4994
▁physi	-4995
▁sound	-4996
▁critères	-4997
tte	-4998
▁collabor	-4999
urt	-5000
anges	-5001
atures	-5002
▁juris	-5003
▁vient	-5004
▁dispos	-5005
▁connaissances	-5006
▁Sy	-5007
▁compren	-5008
▁priorités	-5009
aci	-5010
lam	-5011
▁CF	-5012
nels	-5013
▁1998	-5014
▁below	-5015
▁technologie	-5016
--	-5017
étude	-5018
▁likely	-5019
▁sociétés	-5020
▁determine	-5021
▁changement	-5022
aking	-5023
▁confer	-5024
▁méthodes	-5025
▁2007,	-5026
ocratic	-5027
▁har	-5028
▁petite	-5029
▁février	-5030
▁administr	-5031
▁Sc	-5032
ding	-5033
▁ordin	-5034
▁Tor	-5035
onner	-5036
étaire	-5037
▁planification	-5038
tées	-5039
▁médic	-5040
▁ax	-5041
enez	-5042
▁précis	-5043
▁incorpor	-5044
ara	-5045
▁gé	-5046
ttawa	-5047
▁Supp	-5048
▁liberté	-5049
▁regulations	-5050
▁rural	-5051
▁renforcement	-5052
icit	-5053
▁February	-5054
▁establishment	-5055
stances	-5056
▁succès	-5057
▁approved	-5058
Ar	-5059
where	-5060
▁side	-5061
▁Ouais	-5062
▁guarante	-5063
icy	-5064
▁cul	-5065
▁alone	-5066
▁grandes	-5067
exécution	-5068
▁convient	-5069
▁terrorisme	-5070
ump	-5071
▁pied	-5072
enfant	-5073
▁durée	-5074
▁woman	-5075
analyse	-5076
▁text	-5077
▁media	-5078
adoption	-5079
uk	-5080
▁Med	-5081
▁Mo	-5082
▁road	-5083
▁rester	-5084
▁propres	-5085
▁IN	-5086
▁Bra	-5087
▁sac	-5088
▁meilleure	-5089
son	-5090
aider	-5091
▁HIV	-5092
ester	-5093
Am	-5094
▁enfor	-5095
▁travel	-5096
going	-5097
▁classif	-5098
▁medical	-5099
▁substanti	-5100
▁facilities	-5101
▁comprehensive	-5102
EA	-5103
ternal	-5104
▁conver	-5105
eries	-5106
▁Mission	-5107
▁examen	-5108
▁consensus	-5109
▁Management	-5110
bec	-5111
▁fair	-5112
▁issued	-5113
▁criminal	-5114
tish	-5115
▁faud	-5116
▁studies	-5117
▁caractéris	-5118
rop	-5119
tée	-5120
▁Mes	-5121
▁Iraq	-5122
▁consulta	-5123
▁marchand	-5124
ATION	-5125
▁quant	-5126
▁During	-5127
▁entraî	-5128
uns	-5129
anda	-5130
nous	-5131
tise	-5132
utri	-5133
▁directly	-5134
▁thems	-5135
▁consci	-5136
▁proposals	-5137
▁themselves	-5138
pped	-5139
▁break	-5140
▁Treaty	-5141
▁retour	-5142
▁proposé	-5143
▁conflits	-5144
▁Aug	-5145
▁mur	-5146
▁hell	-5147
▁pack	-5148
▁poll	-5149
▁pêche	-5150
▁intérêts	-5151
▁strategic	-5152
oid	-5153
▁Force	-5154
▁receive	-5155
▁throughout	-5156
isés	-5157
▁excell	-5158
▁4.	-5159
▁poor	-5160
ession	-5161
mon	-5162
▁salle	-5163
▁normal	-5164
▁sir	-5165
ignes	-5166
▁stated	-5167
▁interven	-5168
▁présence	-5169
▁Child	-5170
▁Elles	-5171
▁élevé	-5172
▁applied	-5173
▁traffic	-5174
rel	-5175
▁sud	-5176
▁stake	-5177
▁financières	-5178
ew	-5179
auté	-5180
appli	-5181
▁states	-5182
▁structures	-5183
▁implemented	-5184
▁administration	-5185
▁Ave	-5186
▁values	-5187
▁libre	-5188
▁Although	-5189
▁yourself	-5190
▁city	-5191
▁grands	-5192
▁concept	-5193
▁longtemps	-5194
▁clairement	-5195
uh	-5196
▁PR	-5197
quée	-5198
ional	-5199
▁adoption	-5200
▁diverses	-5201
▁Règlement	-5202
▁conférence	-5203
tors	-5204
▁immedi	-5205
acqu	-5206
lique	-5207
▁comprend	-5208
▁interests	-5209
oque	-5210
▁Prov	-5211
▁lost	-5212
▁reli	-5213
▁ready	-5214
▁minute	-5215
▁conseil	-5216
▁ensuite	-5217
▁prévoit	-5218
▁»,	-5219
arme	-5220
entral	-5221
▁puisse	-5222
▁initial	-5223
pir	-5224
eless	-5225
▁loin	-5226
▁route	-5227
iversité	-5228
▁complet	-5229
ility	-5230
▁incl	-5231
▁entendu	-5232
anm	-5233
atr	-5234
inform	-5235
▁faciliter	-5236
▁beau	-5237
▁freed	-5238
ologique	-5239
▁supported	-5240
orn	-5241
▁late	-5242
▁État	-5243
▁réunions	-5244
inn	-5245
▁construc	-5246
▁inj	-5247
▁consolid	-5248
▁reference	-5249
ENT	-5250
▁anci	-5251
▁prol	-5252
▁exten	-5253
▁immédi	-5254
▁adequ	-5255
▁faible	-5256
▁inclus	-5257
▁rendement	-5258
ritann	-5259
▁langue	-5260
▁voyage	-5261
▁communautés	-5262
obs	-5263
▁Bank	-5264
▁angl	-5265
▁fils	-5266
▁answer	-5267
▁matters	-5268
▁travailleurs	-5269
IDS	-5270
▁isn	-5271
▁Mich	-5272
▁true	-5273
▁devait	-5274
issements	-5275
▁rapidement	-5276
PC	-5277
▁déclaré	-5278
▁Rapporteur	-5279
reci	-5280
lands	-5281
▁Part	-5282
▁clin	-5283
▁sold	-5284
▁équip	-5285
▁approxim	-5286
▁référence	-5287
qués	-5288
▁liées	-5289
▁paper	-5290
▁crimes	-5291
▁manque	-5292
▁coordin	-5293
▁nations	-5294
onti	-5295
réci	-5296
year	-5297
▁Mac	-5298
▁négociations	-5299
▁relationship	-5300
▁--	-5301
atta	-5302
▁liés	-5303
▁prévu	-5304
exploitation	-5305
▁Avec	-5306
▁factors	-5307
▁tw	-5308
cteur	-5309
izing	-5310
▁Port	-5311
▁peur	-5312
▁semaine	-5313
ghanistan	-5314
▁possibilités	-5315
pos	-5316
▁space	-5317
▁thank	-5318
ruption	-5319
▁created	-5320
ouverture	-5321
▁enregistr	-5322
▁financiers	-5323
▁priorities	-5324
ël	-5325
head	-5326
▁cut	-5327
investi	-5328
▁faisant	-5329
▁mécanis	-5330
▁internal	-5331
▁objectif	-5332
ynam	-5333
,000	-5334
▁dot	-5335
issaire	-5336
usse	-5337
▁Mex	-5338
▁distin	-5339
▁quelle	-5340
▁processes	-5341
▁near	-5342
▁vise	-5343
▁Doc	-5344
▁peine	-5345
▁évent	-5346
▁purposes	-5347
▁substances	-5348
oncé	-5349
▁coût	-5350
▁dang	-5351
▁completed	-5352
▁CR	-5353
rage	-5354
▁accomp	-5355
▁circons	-5356
▁friends	-5357
▁permettant	-5358
▁suc	-5359
▁Même	-5360
▁China	-5361
imination	-5362
▁Sa	-5363
orie	-5364
▁bless	-5365
▁price	-5366
▁voulais	-5367
▁actuelle	-5368
ney	-5369
▁CN	-5370
▁2002.	-5371
▁famili	-5372
▁violations	-5373
▁modifications	-5374
▁Ministry	-5375
▁Sam	-5376
▁rule	-5377
▁conflit	-5378
▁utilisé	-5379
▁faits	-5380
holders	-5381
▁remains	-5382
▁complain	-5383
▁mécanismes	-5384
eler	-5385
Agence	-5386
▁blood	-5387
crit	-5388
oign	-5389
▁Ban	-5390
tag	-5391
▁ul	-5392
▁thus	-5393
▁Report	-5394
▁protoc	-5395
▁register	-5396
▁directeur	-5397
▁fire	-5398
annexe	-5399
▁infrastructure	-5400
▁Enfin	-5401
oût	-5402
▁Du	-5403
▁ey	-5404
prit	-5405
urement	-5406
▁appeal	-5407
▁step	-5408
▁garantir	-5409
emn	-5410
▁Peut	-5411
▁mass	-5412
▁annex	-5413
▁average	-5414
ban	-5415
ague	-5416
▁réd	-5417
▁events	-5418
▁reasons	-5419
enseignement	-5420
çons	-5421
▁Donc	-5422
▁quit	-5423
identi	-5424
▁killed	-5425
▁weapons	-5426
▁requires	-5427
▁circumstances	-5428
avenir	-5429
▁occur	-5430
▁Regulations	-5431
▁responsables	-5432
AF	-5433
ICEF	-5434
anna	-5435
▁whose	-5436
▁regular	-5437
abilities	-5438
hors	-5439
▁croy	-5440
▁corps	-5441
▁crise	-5442
▁connais	-5443
▁territor	-5444
▁addressed	-5445
,"	-5446
▁(1	-5447
▁accords	-5448
intérieur	-5449
▁exchange	-5450
bon	-5451
gue	-5452
crip	-5453
▁feu	-5454
▁éner	-5455
▁clearly	-5456
▁sensibil	-5457
▁contribuer	-5458
▁communautaire	-5459
dire	-5460
raft	-5461
▁Stat	-5462
▁August	-5463
▁autant	-5464
▁debate	-5465
▁postes	-5466
▁détaill	-5467
▁explain	-5468
▁souff	-5469
uilding	-5470
▁expect	-5471
▁régional	-5472
▁canadiennes	-5473
aman	-5474
▁aud	-5475
▁fré	-5476
▁wasn	-5477
Afrique	-5478
▁utiliser	-5479
▁limité	-5480
▁meilleur	-5481
▁proportion	-5482
lies	-5483
DI	-5484
▁gave	-5485
▁humanitarian	-5486
den	-5487
▁extr	-5488
▁strengthen	-5489
▁competition	-5490
20	-5491
▁loss	-5492
ologiques	-5493
▁mentionn	-5494
▁students	-5495
eful	-5496
pers	-5497
▁allez	-5498
▁enjoy	-5499
venu	-5500
habit	-5501
▁Tous	-5502
▁inqu	-5503
▁2007.	-5504
▁inspec	-5505
▁card	-5506
▁vont	-5507
▁né	-5508
▁Kos	-5509
▁Tim	-5510
▁gaz	-5511
▁Chine	-5512
▁chargé	-5513
▁filles	-5514
▁financier	-5515
▁réalisation	-5516
TR	-5517
▁Sup	-5518
ising	-5519
▁Techn	-5520
▁absol	-5521
▁chacun	-5522
objectif	-5523
▁British	-5524
▁2001.	-5525
▁réfug	-5526
▁porter	-5527
▁terrain	-5528
améliorer	-5529
▁CO	-5530
▁Ben	-5531
areness	-5532
▁independent	-5533
PI	-5534
berta	-5535
▁gros	-5536
▁avanc	-5537
▁réforme	-5538
▁surface	-5539
▁victims	-5540
▁Deux	-5541
▁ways	-5542
▁works	-5543
entreprise	-5544
▁contribute	-5545
yle	-5546
anci	-5547
▁jeu	-5548
▁cris	-5549
▁peup	-5550
▁basic	-5551
▁harmon	-5552
▁operation	-5553
governmental	-5554
▁forms	-5555
▁vérification	-5556
▁dam	-5557
▁Forum	-5558
▁étude	-5559
▁morning	-5560
▁criteria	-5561
assistance	-5562
▁foot	-5563
▁trust	-5564
▁strategies	-5565
▁soumis	-5566
▁ge	-5567
▁oui	-5568
▁Fonds	-5569
▁Women	-5570
▁travaille	-5571
▁film	-5572
▁Santé	-5573
▁outil	-5574
▁announ	-5575
▁méthode	-5576
expérience	-5577
iées	-5578
▁bure	-5579
▁knew	-5580
▁parle	-5581
▁laisser	-5582
▁matériel	-5583
▁led	-5584
▁vision	-5585
ulg	-5586
ason	-5587
▁Bro	-5588
▁heart	-5589
▁écrit	-5590
▁manner	-5591
arr	-5592
key	-5593
itre	-5594
▁Ann	-5595
prises	-5596
▁Action	-5597
▁Colomb	-5598
▁restaur	-5599
▁den	-5600
▁auxqu	-5601
▁categ	-5602
▁Justice	-5603
▁history	-5604
▁referred	-5605
▁positions	-5606
▁arch	-5607
▁terre	-5608
▁station	-5609
▁Strateg	-5610
▁humaines	-5611
▁reduction	-5612
intégration	-5613
▁assum	-5614
erves	-5615
lation	-5616
▁ministères	-5617
ops	-5618
▁lum	-5619
itage	-5620
▁aéri	-5621
▁réserve	-5622
▁scre	-5623
▁enable	-5624
▁appreci	-5625
▁started	-5626
▁candidats	-5627
▁importants	-5628
▁Secrétariat	-5629
▁3,	-5630
▁Mill	-5631
▁micro	-5632
▁extent	-5633
▁informed	-5634
▁marchandises	-5635
▁caract	-5636
SA	-5637
▁Ke	-5638
leur	-5639
▁Dan	-5640
▁gars	-5641
▁langues	-5642
▁delivery	-5643
▁departments	-5644
▁&	-5645
▁CC	-5646
hist	-5647
▁educ	-5648
▁Other	-5649
▁lower	-5650
▁north	-5651
▁viens	-5652
▁exact	-5653
▁Ottawa	-5654
▁custom	-5655
▁science	-5656
▁collective	-5657
ovo	-5658
▁doute	-5659
▁portant	-5660
▁majority	-5661
▁disponibles	-5662
▁governments	-5663
▁stratégique	-5664
▁Institu	-5665
▁affected	-5666
▁identify	-5667
▁Ah	-5668
▁tuer	-5669
ares	-5670
▁thé	-5671
eping	-5672
▁diss	-5673
uration	-5674
uellement	-5675
▁supplémentaires	-5676
TA	-5677
ert	-5678
jud	-5679
▁pun	-5680
▁Over	-5681
▁fich	-5682
▁idée	-5683
▁legisl	-5684
▁intended	-5685
uty	-5686
inte	-5687
▁conduct	-5688
▁contrac	-5689
▁avantages	-5690
fe	-5691
▁refuge	-5692
▁canadiens	-5693
▁fundament	-5694
▁Maintenant	-5695
▁importantes	-5696
▁appui	-5697
▁Attend	-5698
▁identi	-5699
▁comprom	-5700
dro	-5701
fic	-5702
hé	-5703
____	-5704
▁gam	-5705
▁nice	-5706
inks	-5707
▁dat	-5708
▁milli	-5709
occasion	-5710
▁institution	-5711
▁satisfaction	-5712
▁réglementation	-5713
rich	-5714
▁Under	-5715
▁Votre	-5716
▁check	-5717
▁dynam	-5718
▁solid	-5719
▁stage	-5720
▁cycle	-5721
▁primary	-5722
bours	-5723
▁flex	-5724
▁says	-5725
▁tenue	-5726
▁sortir	-5727
/6	-5728
▁kid	-5729
▁lives	-5730
▁mécan	-5731
▁University	-5732
gy	-5733
▁Rep	-5734
▁valid	-5735
▁CE	-5736
▁Cet	-5737
asser	-5738
▁watch	-5739
▁servir	-5740
▁manufact	-5741
▁représente	-5742
▁stratégies	-5743
ètes	-5744
ètres	-5745
claration	-5746
▁leadership	-5747
vie	-5748
know	-5749
cepti	-5750
▁reconna	-5751
riculture	-5752
▁responsabilités	-5753
▁tox	-5754
enant	-5755
▁créé	-5756
▁raisons	-5757
mettre	-5758
▁Membres	-5759
▁steps	-5760
▁suivre	-5761
eci	-5762
bert	-5763
quant	-5764
▁accr	-5765
▁guide	-5766
▁analyse	-5767
▁electron	-5768
▁voiture	-5769
▁poursuivre	-5770
▁5.	-5771
▁pic	-5772
▁lettre	-5773
PA	-5774
anche	-5775
▁accus	-5776
HR	-5777
▁Sm	-5778
rist	-5779
▁deg	-5780
▁From	-5781
▁sectors	-5782
▁relatifs	-5783
▁.	-5784
âge	-5785
▁laws	-5786
isant	-5787
▁baby	-5788
".	-5789
pite	-5790
▁Pat	-5791
▁scol	-5792
dessus	-5793
roître	-5794
▁Notre	-5795
échelle	-5796
▁arrive	-5797
▁fronti	-5798
▁essentiel	-5799
▁operational	-5800
▁bâ	-5801
ener	-5802
▁pourra	-5803
▁occasion	-5804
▁professional	-5805
oie	-5806
▁options	-5807
▁certific	-5808
▁amendments	-5809
▁entreprise	-5810
amélioration	-5811
▁arrangements	-5812
uré	-5813
▁Soci	-5814
▁double	-5815
▁approval	-5816
▁prevention	-5817
▁OK	-5818
ommun	-5819
▁Paris	-5820
▁board	-5821
wan	-5822
urgence	-5823
portation	-5824
▁town	-5825
oration	-5826
▁torture	-5827
onté	-5828
▁Asi	-5829
▁Pan	-5830
▁Sum	-5831
▁located	-5832
▁families	-5833
▁généralement	-5834
▁Rés	-5835
▁espèces	-5836
roph	-5837
▁mas	-5838
▁written	-5839
▁probably	-5840
quées	-5841
▁awareness	-5842
oe	-5843
ests	-5844
enous	-5845
▁déch	-5846
▁publiques	-5847
çu	-5848
acts	-5849
▁Pap	-5850
▁gas	-5851
▁sum	-5852
arning	-5853
▁hospital	-5854
atér	-5855
times	-5856
▁étro	-5857
▁girls	-5858
absence	-5859
augment	-5860
▁Kosovo	-5861
▁critical	-5862
▁collection	-5863
▁Auc	-5864
auteur	-5865
▁labor	-5866
▁supply	-5867
▁impossible	-5868
▁CI	-5869
iant	-5870
exist	-5871
▁militaire	-5872
On	-5873
▁Cri	-5874
▁août	-5875
▁although	-5876
▁continues	-5877
▁III	-5878
icial	-5879
▁sanc	-5880
antill	-5881
▁partnership	-5882
▁secrétariat	-5883
acte	-5884
▁guess	-5885
▁couple	-5886
▁achieved	-5887
▁extre	-5888
▁experien	-5889
▁priorité	-5890
▁Excuse	-5891
racy	-5892
▁Etats	-5893
▁House	-5894
▁stock	-5895
▁Forces	-5896
élé	-5897
ouss	-5898
▁mér	-5899
▁Arab	-5900
▁wife	-5901
▁laisse	-5902
ift	-5903
▁EC	-5904
▁cep	-5905
iency	-5906
▁rent	-5907
▁résol	-5908
▁rapide	-5909
▁presque	-5910
▁Dés	-5911
▁handic	-5912
▁majorité	-5913
▁respective	-5914
aume	-5915
isée	-5916
▁VIH	-5917
▁sat	-5918
▁pain	-5919
cemment	-5920
èrement	-5921
▁anyone	-5922
▁désign	-5923
▁fournisse	-5924
▁determined	-5925
iddle	-5926
ground	-5927
ott	-5928
▁pret	-5929
▁Right	-5930
▁saying	-5931
▁volume	-5932
▁ability	-5933
▁exercise	-5934
▁generally	-5935
▁fonctionnement	-5936
ya	-5937
onto	-5938
▁mec	-5939
▁Saint	-5940
▁délai	-5941
▁purch	-5942
▁takes	-5943
▁appell	-5944
▁dirige	-5945
▁committee	-5946
▁électronique	-5947
▁Imp	-5948
▁dix	-5949
▁2000.	-5950
▁démar	-5951
▁vente	-5952
ibility	-5953
▁accept	-5954
▁cependant	-5955
▁participate	-5956
▁>	-5957
▁East	-5958
emment	-5959
équipe	-5960
▁Ainsi	-5961
▁compagn	-5962
▁markets	-5963
▁Es	-5964
appr	-5965
▁couv	-5966
▁facilitate	-5967
itime	-5968
nelle	-5969
tivity	-5970
▁manifest	-5971
▁suscepti	-5972
▁negotiations	-5973
▁serve	-5974
▁instruc	-5975
▁troisième	-5976
oor	-5977
▁Table	-5978
térieur	-5979
augh	-5980
ores	-5981
mosph	-5982
▁Was	-5983
anisms	-5984
visory	-5985
▁1999,	-5986
▁alleg	-5987
▁qualif	-5988
▁engagement	-5989
▁obligation	-5990
▁concurrence	-5991
▁conservation	-5992
▁relativement	-5993
▁sched	-5994
▁wouldn	-5995
▁appoint	-5996
▁seraient	-5997
TC	-5998
▁crisis	-5999
▁nation	-6000
▁difficultés	-6001
▁vac	-6002
▁comes	-6003
lectric	-6004
▁difficul	-6005
▁modification	-6006
SI	-6007
ressive	-6008
▁signif	-6009
▁guidelines	-6010
PP	-6011
▁sil	-6012
▁draw	-6013
▁summ	-6014
▁=	-6015
Amérique	-6016
▁location	-6017
▁directives	-6018
▁traditional	-6019
▁fonctionnaires	-6020
▁Ok	-6021
itié	-6022
▁Mrs	-6023
▁Party	-6024
▁parts	-6025
▁launch	-6026
▁commencé	-6027
▁conseils	-6028
œur	-6029
orge	-6030
ellig	-6031
▁audit	-6032
▁consistent	-6033
▁collectivités	-6034
▁bur	-6035
▁sle	-6036
comes	-6037
▁afric	-6038
▁distr	-6039
ritannique	-6040
rés	-6041
wise	-6042
orient	-6043
▁creat	-6044
▁rendu	-6045
tability	-6046
▁prochaine	-6047
aly	-6048
étr	-6049
▁90	-6050
ionn	-6051
itness	-6052
▁admis	-6053
▁peuple	-6054
▁presence	-6055
MP	-6056
oon	-6057
▁bul	-6058
outer	-6059
▁vacc	-6060
iments	-6061
▁liens	-6062
▁locales	-6063
▁Executive	-6064
▁évaluation	-6065
▁conséquences	-6066
▁methods	-6067
eté	-6068
ènes	-6069
▁myself	-6070
lin	-6071
▁nomm	-6072
▁evalu	-6073
▁quick	-6074
▁useful	-6075
▁organes	-6076
▁elements	-6077
▁terrorism	-6078
▁Such	-6079
▁spir	-6080
▁symp	-6081
ancing	-6082
▁dispose	-6083
▁pouvait	-6084
ae	-6085
▁tas	-6086
▁cess	-6087
▁vide	-6088
▁hands	-6089
ssements	-6090
▁contenu	-6091
▁moyenne	-6092
▁indépend	-6093
▁semaines	-6094
aving	-6095
lande	-6096
▁offices	-6097
▁integrated	-6098
ocks	-6099
▁500	-6100
▁ram	-6101
▁gone	-6102
rite	-6103
▁Proc	-6104
▁temp	-6105
aurais	-6106
nelles	-6107
atoires	-6108
igenous	-6109
▁credit	-6110
▁letter	-6111
▁mechanisms	-6112
uté	-6113
▁sûre	-6114
▁vend	-6115
entrée	-6116
▁démon	-6117
▁diplom	-6118
ured	-6119
▁rig	-6120
▁fail	-6121
▁reduc	-6122
▁perspective	-6123
▁Sl	-6124
▁wants	-6125
▁climate	-6126
▁juridiques	-6127
▁implementing	-6128
oure	-6129
▁enfant	-6130
▁exprim	-6131
▁contrat	-6132
▁comments	-6133
▁thinking	-6134
▁Off	-6135
▁2008,	-6136
▁attem	-6137
▁tribunal	-6138
avi	-6139
cts	-6140
▁Lib	-6141
ourir	-6142
▁suivant	-6143
▁émissions	-6144
bes	-6145
ommet	-6146
▁agree	-6147
▁lignes	-6148
▁constat	-6149
▁Protocol	-6150
▁permettra	-6151
▁militaires	-6152
01	-6153
▁quite	-6154
▁Federal	-6155
▁Toronto	-6156
▁billion	-6157
▁everyone	-6158
▁interview	-6159
▁Amend	-6160
▁Policy	-6161
▁causes	-6162
▁programm	-6163
▁fundamental	-6164
▁stakeholders	-6165
oine	-6166
▁hous	-6167
▁stri	-6168
▁pilot	-6169
▁familles	-6170
▁Tre	-6171
▁lab	-6172
limin	-6173
experts	-6174
hol	-6175
école	-6176
▁décl	-6177
▁nord	-6178
▁size	-6179
▁mêmes	-6180
▁tiers	-6181
▁expend	-6182
▁mechan	-6183
▁Central	-6184
▁établir	-6185
attention	-6186
▁spécifiques	-6187
isées	-6188
▁Jack	-6189
▁isol	-6190
▁maybe	-6191
▁médias	-6192
▁worked	-6193
▁pouvons	-6194
▁reflect	-6195
uth	-6196
▁$1	-6197
▁Gre	-6198
▁bit	-6199
▁ball	-6200
▁equal	-6201
atement	-6202
▁attach	-6203
▁formes	-6204
▁competi	-6205
▁français	-6206
▁plais	-6207
▁scope	-6208
▁Quebec	-6209
▁skills	-6210
▁survey	-6211
▁contribu	-6212
▁recommended	-6213
ama	-6214
▁Val	-6215
▁juge	-6216
▁enseign	-6217
▁violation	-6218
▁lesquelles	-6219
▁integration	-6220
▁...	-6221
isent	-6222
▁amis	-6223
▁matin	-6224
▁sense	-6225
▁sépar	-6226
▁tourn	-6227
▁lesquels	-6228
▁approximately	-6229
naire	-6230
oples	-6231
▁assign	-6232
▁pension	-6233
▁welcome	-6234
▁described	-6235
▁influence	-6236
▁transform	-6237
tt	-6238
▁Bur	-6239
attend	-6240
▁chercher	-6241
▁réfugiés	-6242
elt	-6243
ray	-6244
▁Mor	-6245
▁rein	-6246
iction	-6247
▁south	-6248
▁youth	-6249
▁estime	-6250
▁fiscal	-6251
▁locaux	-6252
▁recently	-6253
▁materials	-6254
▁undertaken	-6255
▁san	-6256
▁suit	-6257
▁ther	-6258
▁pretty	-6259
▁connaître	-6260
▁Ang	-6261
▁Lab	-6262
▁upd	-6263
▁plant	-6264
▁importe	-6265
lications	-6266
▁introduced	-6267
▁recognized	-6268
▁constituent	-6269
ico	-6270
enge	-6271
▁farm	-6272
▁sett	-6273
▁Voilà	-6274
▁plaît	-6275
enquête	-6276
▁Lorsque	-6277
▁enhance	-6278
▁récemment	-6279
▁194	-6280
▁original	-6281
▁Association	-6282
▁associations	-6283
light	-6284
▁sessions	-6285
▁published	-6286
▁considérable	-6287
▁bank	-6288
▁behind	-6289
isations	-6290
▁balance	-6291
▁convain	-6292
▁compliance	-6293
▁hotel	-6294
▁dossier	-6295
▁pleinement	-6296
▁enqu	-6297
atively	-6298
▁supérie	-6299
▁centrale	-6300
▁maintain	-6301
EL	-6302
aie	-6303
▁goals	-6304
▁infec	-6305
▁permit	-6306
▁comptes	-6307
▁caractère	-6308
▁connaissance	-6309
ison	-6310
▁easy	-6311
▁gain	-6312
▁Thanks	-6313
▁demain	-6314
▁English	-6315
▁mauvais	-6316
▁raisonn	-6317
▁ap	-6318
▁montre	-6319
▁pouvoirs	-6320
▁utilisés	-6321
▁candidates	-6322
▁forum	-6323
▁destruction	-6324
▁hop	-6325
itures	-6326
▁Trade	-6327
▁colon	-6328
▁grave	-6329
▁rejet	-6330
▁covered	-6331
▁spéciale	-6332
ded	-6333
eaux	-6334
irth	-6335
▁utile	-6336
assurance	-6337
▁transfert	-6338
uits	-6339
▁Have	-6340
▁chapitre	-6341
▁atteindre	-6342
▁examiner	-6343
▁respecter	-6344
▁nutri	-6345
▁signed	-6346
▁transf	-6347
ino	-6348
▁shown	-6349
▁favour	-6350
▁search	-6351
▁déclarations	-6352
▁;	-6353
verse	-6354
▁Japan	-6355
▁belie	-6356
▁counter	-6357
▁commence	-6358
▁ouv	-6359
▁copy	-6360
▁empê	-6361
▁stim	-6362
▁happen	-6363
any	-6364
▁1997	-6365
▁payer	-6366
mun	-6367
atever	-6368
▁garde	-6369
▁music	-6370
novation	-6371
▁promoting	-6372
▁Euro	-6373
▁Like	-6374
▁petits	-6375
▁consent	-6376
▁humains	-6377
▁creation	-6378
▁mentioned	-6379
▁Afghanistan	-6380
dra	-6381
▁Ob	-6382
▁parl	-6383
▁Corpor	-6384
▁invent	-6385
▁derniers	-6386
▁sanctions	-6387
là	-6388
▁35	-6389
▁Great	-6390
▁neg	-6391
▁chim	-6392
▁Pacif	-6393
▁mains	-6394
▁parent	-6395
band	-6396
▁Out	-6397
raine	-6398
▁breve	-6399
▁subsi	-6400
▁allowed	-6401
▁45	-6402
▁km	-6403
agent	-6404
étaires	-6405
▁Russie	-6406
An	-6407
▁actes	-6408
▁sufficient	-6409
pid	-6410
▁nam	-6411
▁abord	-6412
▁recons	-6413
▁chambre	-6414
Ad	-6415
▁/	-6416
ucking	-6417
▁optim	-6418
▁maladie	-6419
SP	-6420
▁80	-6421
▁regulatory	-6422
▁documentation	-6423
▁établissements	-6424
▁Ve	-6425
èles	-6426
▁Très	-6427
rég	-6428
▁Mus	-6429
▁inside	-6430
▁profit	-6431
▁raised	-6432
▁ongoing	-6433
▁physical	-6434
fs	-6435
hood	-6436
▁die	-6437
coute	-6438
▁phone	-6439
▁contro	-6440
▁déploy	-6441
building	-6442
▁contain	-6443
▁reached	-6444
▁village	-6445
▁obstacles	-6446
ador	-6447
▁mix	-6448
▁wond	-6449
▁clean	-6450
▁tools	-6451
▁consequ	-6452
▁veiller	-6453
▁adequate	-6454
▁ra	-6455
▁ami	-6456
▁budg	-6457
▁deep	-6458
▁aband	-6459
▁faite	-6460
établir	-6461
▁conséquence	-6462
▁partenariat	-6463
DE	-6464
exc	-6465
tabl	-6466
▁wanna	-6467
▁cancer	-6468
▁crédit	-6469
▁provis	-6470
▁setting	-6471
▁officials	-6472
▁industrial	-6473
cast	-6474
▁fou	-6475
▁avoid	-6476
▁correct	-6477
▁démocratique	-6478
GO	-6479
related	-6480
▁immigr	-6481
▁crucial	-6482
▁defined	-6483
▁devrais	-6484
▁discussed	-6485
▁exception	-6486
▁recherches	-6487
▁strengthening	-6488
Ch	-6489
▁aimed	-6490
▁défis	-6491
▁officers	-6492
▁palestin	-6493
▁Palestinian	-6494
▁effectively	-6495
ulé	-6496
ware	-6497
▁chiff	-6498
histoire	-6499
▁devenir	-6500
▁languages	-6501
▁selection	-6502
vi	-6503
iving	-6504
▁bienn	-6505
▁param	-6506
▁conclu	-6507
▁examiné	-6508
▁ensuring	-6509
▁resource	-6510
▁connection	-6511
▁circonst	-6512
▁Furthermore	-6513
▁engagements	-6514
▁Stu	-6515
▁tableau	-6516
▁résultat	-6517
▁élections	-6518
▁uniquement	-6519
▁TH	-6520
agner	-6521
issons	-6522
▁freedom	-6523
operation	-6524
▁contient	-6525
▁réaliser	-6526
bas	-6527
cos	-6528
ham	-6529
▁tué	-6530
▁path	-6531
▁artis	-6532
▁becom	-6533
▁tests	-6534
▁tomorrow	-6535
ny	-6536
▁70	-6537
▁bed	-6538
▁elig	-6539
▁joue	-6540
▁wind	-6541
▁devez	-6542
▁gotta	-6543
▁words	-6544
▁interne	-6545
▁journal	-6546
▁handicap	-6547
.3	-6548
ball	-6549
wide	-6550
▁prohib	-6551
▁retard	-6552
▁souligné	-6553
▁régionaux	-6554
iet	-6555
rons	-6556
▁dépend	-6557
▁regret	-6558
▁brother	-6559
▁discipl	-6560
▁nucléaires	-6561
▁présentation	-6562
pper	-6563
▁195	-6564
▁seems	-6565
▁chemin	-6566
▁investigation	-6567
▁brief	-6568
▁collèg	-6569
▁parfait	-6570
▁beginning	-6571
▁expertise	-6572
▁statements	-6573
ilt	-6574
quet	-6575
accep	-6576
▁reti	-6577
▁choice	-6578
▁proceedings	-6579
▁interventions	-6580
▁Eh	-6581
▁pron	-6582
▁acquis	-6583
▁terres	-6584
ployment	-6585
▁stabilité	-6586
▁Dav	-6587
▁Moi	-6588
ettre	-6589
▁Inde	-6590
▁excep	-6591
▁petites	-6592
▁schools	-6593
▁fédérale	-6594
▁Regulation	-6595
▁définition	-6596
ered	-6597
orti	-6598
yond	-6599
owers	-6600
▁anglais	-6601
▁Represent	-6602
▁enforcement	-6603
▁statistiques	-6604
(1)	-6605
▁Bud	-6606
▁1996	-6607
▁imag	-6608
▁armed	-6609
▁Finally	-6610
▁parfois	-6611
▁sociales	-6612
zed	-6613
este	-6614
iger	-6615
oblig	-6616
▁arbit	-6617
étation	-6618
▁appelé	-6619
▁invited	-6620
▁Uh	-6621
▁siè	-6622
▁vite	-6623
▁parlé	-6624
oba	-6625
utor	-6626
▁added	-6627
▁sport	-6628
▁became	-6629
▁beyond	-6630
▁Institute	-6631
▁Cub	-6632
Ontario	-6633
▁adjust	-6634
▁series	-6635
▁adult	-6636
▁weeks	-6637
▁advice	-6638
▁changer	-6639
▁compter	-6640
▁patient	-6641
▁improving	-6642
▁maintenir	-6643
▁electronic	-6644
ulent	-6645
▁2008.	-6646
▁decre	-6647
▁mécanisme	-6648
4)	-6649
▁Tro	-6650
▁perdu	-6651
▁traite	-6652
▁growing	-6653
▁profond	-6654
▁élément	-6655
▁conference	-6656
▁consommateurs	-6657
▁fol	-6658
▁connec	-6659
▁examine	-6660
▁campaign	-6661
▁Protocole	-6662
othè	-6663
▁aware	-6664
▁réper	-6665
▁peuples	-6666
pens	-6667
▁pal	-6668
ariats	-6669
▁forte	-6670
▁expert	-6671
armement	-6672
ET	-6673
adap	-6674
▁prot	-6675
espère	-6676
▁Statis	-6677
▁sexual	-6678
▁Charter	-6679
▁maladies	-6680
▁prestations	-6681
ring	-6682
▁dad	-6683
▁Many	-6684
▁fini	-6685
▁évén	-6686
▁happy	-6687
▁produced	-6688
▁concentration	-6689
taine	-6690
▁game	-6691
espace	-6692
▁ajout	-6693
▁mouve	-6694
▁views	-6695
▁relatif	-6696
▁instance	-6697
▁rembours	-6698
▁».	-6699
▁agent	-6700
▁gradu	-6701
▁tient	-6702
▁contraire	-6703
haps	-6704
▁1990	-6705
▁renew	-6706
▁consultatif	-6707
▁restrictions	-6708
érant	-6709
▁Take	-6710
▁volonté	-6711
▁distance	-6712
CP	-6713
ancy	-6714
▁arrivé	-6715
▁indique	-6716
▁intérêt	-6717
obil	-6718
▁Sci	-6719
▁places	-6720
▁accident	-6721
▁estimated	-6722
▁signature	-6723
▁alternative	-6724
investissement	-6725
rible	-6726
▁liqu	-6727
▁news	-6728
▁yeux	-6729
▁indis	-6730
▁advant	-6731
évolution	-6732
▁parlement	-6733
▁consommation	-6734
▁Those	-6735
▁tirer	-6736
▁improved	-6737
ueil	-6738
▁dig	-6739
▁web	-6740
craft	-6741
▁devoir	-6742
ously	-6743
▁impli	-6744
▁Christ	-6745
▁installations	-6746
Ins	-6747
cks	-6748
clam	-6749
andis	-6750
▁Head	-6751
iendra	-6752
▁Parce	-6753
▁Chaque	-6754
▁dangere	-6755
▁disease	-6756
▁soutenir	-6757
▁judiciaire	-6758
▁délégations	-6759
▁legislative	-6760
▁principalement	-6761
▁Gaz	-6762
trait	-6763
▁prêt	-6764
▁haven	-6765
▁adress	-6766
▁worksh	-6767
-3	-6768
▁dég	-6769
overy	-6770
▁Members	-6771
40	-6772
èves	-6773
▁Red	-6774
▁Sim	-6775
▁dre	-6776
▁Wait	-6777
▁fréqu	-6778
▁renouvel	-6779
▁challenge	-6780
▁interested	-6781
effec	-6782
▁partage	-6783
▁composition	-6784
▁humanitaire	-6785
▁endroit	-6786
▁territory	-6787
IPO	-6788
▁4,	-6789
ello	-6790
▁feed	-6791
▁classe	-6792
▁croire	-6793
▁formal	-6794
▁notice	-6795
▁taille	-6796
▁entitled	-6797
▁souhaite	-6798
▁comprends	-6799
▁chercheurs	-6800
▁simplement	-6801
▁principales	-6802
ract	-6803
▁rom	-6804
▁Puis	-6805
▁magn	-6806
▁subse	-6807
▁offers	-6808
▁conjoin	-6809
atri	-6810
ommod	-6811
othing	-6812
▁navig	-6813
▁superv	-6814
▁Russian	-6815
▁revenus	-6816
▁followed	-6817
▁uh	-6818
izes	-6819
▁goal	-6820
▁acts	-6821
▁mode	-6822
▁reduced	-6823
▁développer	-6824
▁round	-6825
▁stuff	-6826
anmoins	-6827
obtenir	-6828
▁option	-6829
▁règlements	-6830
▁intervenants	-6831
▁Gen	-6832
▁Oper	-6833
ustral	-6834
▁requests	-6835
▁Most	-6836
▁oubl	-6837
▁repe	-6838
▁mises	-6839
criptions	-6840
▁coordonn	-6841
▁indicate	-6842
▁téléphone	-6843
IL	-6844
▁0.	-6845
anch	-6846
once	-6847
vest	-6848
▁Lis	-6849
riers	-6850
▁cult	-6851
▁ling	-6852
▁explo	-6853
▁affaire	-6854
▁capable	-6855
▁traités	-6856
▁augmentation	-6857
▁bra	-6858
▁erre	-6859
▁detailed	-6860
▁diffusion	-6861
▁compétence	-6862
▁permettent	-6863
né	-6864
ned	-6865
▁People	-6866
▁Certains	-6867
AIDS	-6868
▁Sen	-6869
▁exac	-6870
▁lien	-6871
uelles	-6872
▁colle	-6873
▁réuss	-6874
▁emergency	-6875
▁secretariat	-6876
bation	-6877
▁highly	-6878
▁absence	-6879
▁suppose	-6880
▁recommandation	-6881
▁âg	-6882
bers	-6883
itoba	-6884
▁List	-6885
▁nour	-6886
▁wide	-6887
▁Deleg	-6888
importe	-6889
▁bureaux	-6890
▁traiter	-6891
▁learning	-6892
▁favoriser	-6893
):	-6894
Acc	-6895
lem	-6896
ral	-6897
utés	-6898
▁Sor	-6899
▁hors	-6900
▁déten	-6901
▁story	-6902
▁directr	-6903
ffe	-6904
vin	-6905
oney	-6906
▁Two	-6907
formes	-6908
▁items	-6909
identif	-6910
▁Banque	-6911
▁couldn	-6912
▁Royaume	-6913
▁leading	-6914
▁étrangers	-6915
II	-6916
▁Op	-6917
▁Ber	-6918
▁béb	-6919
▁mid	-6920
▁reb	-6921
lying	-6922
plois	-6923
active	-6924
▁vivre	-6925
▁payment	-6926
▁vehicle	-6927
▁pressure	-6928
▁transports	-6929
▁ign	-6930
▁uni	-6931
▁birth	-6932
▁neigh	-6933
▁Second	-6934
examiner	-6935
▁consiste	-6936
▁description	-6937
▁fera	-6938
▁functions	-6939
▁effectiveness	-6940
▁scientifiques	-6941
emp	-6942
oudre	-6943
making	-6944
▁exige	-6945
▁murder	-6946
Ou	-6947
▁fulf	-6948
▁Franc	-6949
ulaires	-6950
▁arrest	-6951
▁supporting	-6952
erie	-6953
right	-6954
▁webs	-6955
uillez	-6956
▁mener	-6957
▁claims	-6958
aimerais	-6959
▁Bos	-6960
▁domm	-6961
▁fell	-6962
▁tarif	-6963
▁rapporteur	-6964
/3	-6965
PR	-6966
▁Mer	-6967
▁esc	-6968
▁door	-6969
▁practical	-6970
▁Département	-6971
▁tiss	-6972
▁procès	-6973
▁offered	-6974
▁circonstances	-6975
As	-6976
▁Chief	-6977
▁placed	-6978
▁spirit	-6979
▁lumière	-6980
▁intérieur	-6981
▁intervention	-6982
quar	-6983
istéri	-6984
▁vulner	-6985
istrement	-6986
▁movement	-6987
▁recueill	-6988
▁régionales	-6989
▁requirement	-6990
5)	-6991
▁bag	-6992
▁Lond	-6993
▁goes	-6994
▁merc	-6995
▁shows	-6996
section	-6997
▁partner	-6998
▁scientific	-6999
▁communiquer	-7000
olée	-7001
undi	-7002
onses	-7003
entiss	-7004
▁interpr	-7005
▁compared	-7006
▁maintenance	-7007
.4	-7008
▁Haut	-7009
▁facile	-7010
▁records	-7011
▁véhicules	-7012
erez	-7013
▁send	-7014
▁dossiers	-7015
▁external	-7016
▁pollution	-7017
▁concentrations	-7018
▁mi	-7019
▁Sus	-7020
▁Entre	-7021
▁risks	-7022
▁fourni	-7023
▁separate	-7024
▁operating	-7025
▁Mi	-7026
ounts	-7027
▁objet	-7028
ibilité	-7029
▁concep	-7030
▁format	-7031
▁parole	-7032
▁earlier	-7033
▁paiement	-7034
▁Protection	-7035
▁Governments	-7036
▁investissements	-7037
itim	-7038
rits	-7039
▁bois	-7040
nement	-7041
▁knows	-7042
▁Kingdom	-7043
▁arriver	-7044
▁Moreover	-7045
▁activité	-7046
▁substance	-7047
▁suggested	-7048
▁désarmement	-7049
areil	-7050
▁Even	-7051
▁degree	-7052
▁prices	-7053
▁peoples	-7054
▁War	-7055
▁fro	-7056
▁bout	-7057
▁rang	-7058
▁users	-7059
▁System	-7060
▁fabric	-7061
▁governance	-7062
eting	-7063
▁symb	-7064
▁accepted	-7065
▁poursuiv	-7066
▁commitments	-7067
▁hit	-7068
▁Fore	-7069
▁Mark	-7070
▁trib	-7071
▁adéqu	-7072
▁frère	-7073
▁pensais	-7074
▁expérience	-7075
adre	-7076
riez	-7077
▁kil	-7078
▁swe	-7079
▁soft	-7080
//	-7081
▁Im	-7082
pret	-7083
tiful	-7084
▁pick	-7085
▁dépos	-7086
▁jeune	-7087
▁publié	-7088
▁réussi	-7089
▁supposed	-7090
▁Therefore	-7091
▁corruption	-7092
▁definition	-7093
▁eaux	-7094
▁voix	-7095
naires	-7096
ointed	-7097
▁prévues	-7098
▁efficaces	-7099
IF	-7100
IM	-7101
Uni	-7102
ams	-7103
gues	-7104
▁Glob	-7105
▁club	-7106
▁emploi	-7107
▁closely	-7108
▁tonight	-7109
▁ministres	-7110
▁industries	-7111
cs	-7112
▁0,	-7113
▁aqu	-7114
▁disapp	-7115
▁menace	-7116
existence	-7117
▁milliards	-7118
▁préparation	-7119
aria	-7120
néra	-7121
lantic	-7122
▁award	-7123
▁haute	-7124
aughter	-7125
▁produce	-7126
▁variety	-7127
▁election	-7128
▁diversité	-7129
▁transmission	-7130
bo	-7131
ttp	-7132
▁CD	-7133
▁hus	-7134
▁(199	-7135
ka	-7136
▁arms	-7137
▁rare	-7138
accent	-7139
affirm	-7140
▁pharm	-7141
keeping	-7142
▁supports	-7143
▁catégorie	-7144
▁excellent	-7145
▁provenant	-7146
ael	-7147
uler	-7148
askat	-7149
▁appr	-7150
▁Germany	-7151
▁obtained	-7152
://	-7153
▁ru	-7154
▁tab	-7155
équip	-7156
▁shit	-7157
▁Author	-7158
▁journée	-7159
za	-7160
▁oil	-7161
enreg	-7162
▁Paul	-7163
▁unit	-7164
▁décrit	-7165
▁limite	-7166
▁équipe	-7167
▁illustr	-7168
▁vulnéra	-7169
▁évaluer	-7170
▁insurance	-7171
▁possibility	-7172
▁territoires	-7173
dits	-7174
▁Dar	-7175
▁Mont	-7176
▁felt	-7177
▁préal	-7178
▁Quelle	-7179
▁longue	-7180
▁prévenir	-7181
▁conception	-7182
▁conventions	-7183
▁agricultural	-7184
▁écoles	-7185
icaments	-7186
▁Afrique	-7187
▁witness	-7188
entissage	-7189
gie	-7190
tead	-7191
lectoral	-7192
▁Direction	-7193
▁continent	-7194
▁emissions	-7195
ît	-7196
atte	-7197
médi	-7198
étro	-7199
▁Hel	-7200
armes	-7201
▁debt	-7202
▁seek	-7203
▁signifie	-7204
▁particuliers	-7205
magne	-7206
▁Prof	-7207
▁duty	-7208
▁portée	-7209
▁réseaux	-7210
▁Manitoba	-7211
▁apporter	-7212
▁Directive	-7213
set	-7214
▁TV	-7215
abin	-7216
▁Grand	-7217
▁carte	-7218
▁cinqu	-7219
▁insuff	-7220
▁Project	-7221
▁charges	-7222
▁Ministre	-7223
▁prochain	-7224
▁regulation	-7225
▁educational	-7226
▁compensation	-7227
iqué	-7228
▁win	-7229
eront	-7230
tréal	-7231
▁Rien	-7232
▁tried	-7233
▁efficient	-7234
▁étrangères	-7235
US	-7236
del	-7237
▁fle	-7238
▁coin	-7239
standing	-7240
▁employee	-7241
▁intention	-7242
▁organized	-7243
▁probablement	-7244
▁transactions	-7245
▁préoccupations	-7246
▁Gra	-7247
esses	-7248
èvement	-7249
▁participé	-7250
▁stability	-7251
▁jobs	-7252
ocracy	-7253
▁reten	-7254
▁sales	-7255
▁fondée	-7256
CN	-7257
bli	-7258
arrê	-7259
▁offrir	-7260
▁recevoir	-7261
▁ON	-7262
▁cau	-7263
▁hot	-7264
▁calls	-7265
enfants	-7266
▁disposi	-7267
▁fucking	-7268
irme	-7269
▁Rel	-7270
▁kids	-7271
▁prêts	-7272
▁caused	-7273
▁penser	-7274
▁stable	-7275
▁parvenir	-7276
agé	-7277
itz	-7278
back	-7279
▁venu	-7280
impact	-7281
▁Hotel	-7282
▁assur	-7283
▁concre	-7284
▁recommande	-7285
▁institutional	-7286
▁intellectuelle	-7287
IA	-7288
ola	-7289
▁Fra	-7290
arité	-7291
▁rail	-7292
affaire	-7293
▁actual	-7294
▁usually	-7295
▁concours	-7296
UT	-7297
irs	-7298
osl	-7299
▁5,	-7300
uves	-7301
▁1999.	-7302
▁ferme	-7303
▁satell	-7304
▁tribun	-7305
utiliser	-7306
▁complète	-7307
initiative	-7308
▁mechanism	-7309
adem	-7310
▁art	-7311
▁dét	-7312
Accord	-7313
▁simpl	-7314
▁courant	-7315
▁equality	-7316
▁organisé	-7317
OP	-7318
▁Put	-7319
rimer	-7320
▁Avant	-7321
▁connu	-7322
▁matern	-7323
▁Regional	-7324
▁confront	-7325
▁continuing	-7326
▁recommandé	-7327
arc	-7328
▁died	-7329
▁dési	-7330
▁poly	-7331
étranger	-7332
▁Alberta	-7333
▁limites	-7334
▁régionale	-7335
▁accessible	-7336
▁ship	-7337
▁devra	-7338
▁départ	-7339
▁appréci	-7340
▁atteint	-7341
▁changed	-7342
▁Colombie	-7343
▁campagne	-7344
▁sections	-7345
▁AN	-7346
▁tôt	-7347
▁jury	-7348
▁retra	-7349
▁Review	-7350
applique	-7351
▁advance	-7352
▁accommod	-7353
▁publications	-7354
uct	-7355
wick	-7356
▁dén	-7357
▁City	-7358
▁appe	-7359
▁attra	-7360
▁seven	-7361
▁expéri	-7362
▁giving	-7363
▁réponses	-7364
▁supérieur	-7365
ustri	-7366
kraine	-7367
▁worry	-7368
▁assets	-7369
▁approuvé	-7370
▁democratic	-7371
▁professionnels	-7372
▁rur	-7373
▁Miss	-7374
▁Congo	-7375
▁River	-7376
▁analy	-7377
▁ouvert	-7378
▁réalité	-7379
▁pourrais	-7380
▁alimentaire	-7381
▁differences	-7382
▁preparation	-7383
éth	-7384
imes	-7385
ville	-7386
▁Arrê	-7387
▁Does	-7388
▁David	-7389
▁sexes	-7390
endence	-7391
▁forest	-7392
▁modifier	-7393
▁étudiants	-7394
▁conformité	-7395
▁sept	-7396
étaient	-7397
▁siècle	-7398
▁outcome	-7399
▁faudrait	-7400
▁vérifier	-7401
NA	-7402
▁(2	-7403
▁6.	-7404
assi	-7405
duit	-7406
▁uns	-7407
▁1995	-7408
▁Cent	-7409
▁géné	-7410
▁prec	-7411
▁incom	-7412
▁Saskat	-7413
▁struct	-7414
informations	-7415
read	-7416
crire	-7417
hésion	-7418
▁Parti	-7419
▁franc	-7420
▁concluded	-7421
user	-7422
▁Dad	-7423
▁mém	-7424
▁task	-7425
▁photo	-7426
ocation	-7427
▁married	-7428
▁matières	-7429
engagement	-7430
▁indigenous	-7431
ena	-7432
mar	-7433
▁Fed	-7434
▁wid	-7435
▁Bosn	-7436
▁prati	-7437
▁puiss	-7438
▁courts	-7439
▁dehors	-7440
▁Regarde	-7441
▁produire	-7442
▁commencer	-7443
▁efficiency	-7444
▁ow	-7445
▁Mil	-7446
level	-7447
astroph	-7448
usiness	-7449
▁dealing	-7450
▁applicant	-7451
idée	-7452
iding	-7453
▁renc	-7454
▁sole	-7455
▁lieux	-7456
▁waste	-7457
▁doctor	-7458
▁candidate	-7459
▁complément	-7460
▁prestation	-7461
▁médicaments	-7462
▁transparence	-7463
iend	-7464
▁lie	-7465
▁carb	-7466
▁tele	-7467
▁Frank	-7468
▁worth	-7469
▁désolé	-7470
▁financing	-7471
▁immédiatement	-7472
ida	-7473
▁Mod	-7474
▁din	-7475
▁WIPO	-7476
▁band	-7477
▁hein	-7478
▁pose	-7479
ansion	-7480
▁1998,	-7481
▁seconde	-7482
édération	-7483
▁recommendation	-7484
▁Cy	-7485
▁Aud	-7486
▁Only	-7487
▁gross	-7488
▁Columb	-7489
▁extérie	-7490
▁partout	-7491
▁suffisamment	-7492
OT	-7493
anie	-7494
lled	-7495
mise	-7496
▁inn	-7497
▁fuck	-7498
▁outils	-7499
▁atmosph	-7500
▁Montréal	-7501
▁beautiful	-7502
tém	-7503
▁Lou	-7504
▁Maj	-7505
▁2009	-7506
▁Sous	-7507
▁Never	-7508
▁règle	-7509
▁affect	-7510
▁élimin	-7511
▁procéder	-7512
▁commerciales	-7513
enci	-7514
▁Belg	-7515
▁domin	-7516
install	-7517
▁combin	-7518
▁connex	-7519
▁medium	-7520
▁réserv	-7521
▁enquête	-7522
formément	-7523
ww	-7524
rif	-7525
fully	-7526
aliment	-7527
▁exactly	-7528
▁globale	-7529
▁discrimin	-7530
/9	-7531
rest	-7532
iring	-7533
▁firm	-7534
▁host	-7535
▁drugs	-7536
▁obtain	-7537
▁prosec	-7538
▁unless	-7539
▁husband	-7540
▁impacts	-7541
▁nucléaire	-7542
LE	-7543
▁urban	-7544
▁affirm	-7545
▁invité	-7546
En	-7547
anim	-7548
▁marque	-7549
cussions	-7550
▁humaine	-7551
▁mariage	-7552
▁perfect	-7553
▁principale	-7554
Is	-7555
▁Comb	-7556
▁diagn	-7557
▁annuel	-7558
▁obtenu	-7559
▁guidance	-7560
léch	-7561
Ouest	-7562
▁outl	-7563
▁perd	-7564
truire	-7565
▁montr	-7566
▁notif	-7567
échange	-7568
▁Charte	-7569
▁nouvel	-7570
▁puisque	-7571
▁retourn	-7572
▁aircraft	-7573
▁catastroph	-7574
-4	-7575
chn	-7576
pris	-7577
▁Tell	-7578
▁rout	-7579
▁Offic	-7580
▁énonc	-7581
quarters	-7582
▁Western	-7583
▁delegations	-7584
MA	-7585
oti	-7586
uting	-7587
▁weak	-7588
▁match	-7589
▁exceed	-7590
▁prefer	-7591
▁finance	-7592
▁premiers	-7593
▁puissent	-7594
▁disponible	-7595
augmentation	-7596
▁cool	-7597
▁diam	-7598
tables	-7599
▁Follow	-7600
▁tandis	-7601
▁pursuant	-7602
▁Education	-7603
▁indicators	-7604
▁registered	-7605
▁partenariats	-7606
▁registration	-7607
pon	-7608
www	-7609
▁looks	-7610
▁release	-7611
▁communautaires	-7612
ram	-7613
▁Net	-7614
avons	-7615
oncer	-7616
tirer	-7617
▁chamb	-7618
clusion	-7619
utement	-7620
▁intellig	-7621
▁Ministers	-7622
▁elections	-7623
▁indispens	-7624
▁significantly	-7625
lie	-7626
onie	-7627
▁Hol	-7628
▁hyp	-7629
▁var	-7630
▁bâti	-7631
akistan	-7632
▁simply	-7633
▁guarantee	-7634
▁tellement	-7635
quie	-7636
çant	-7637
arity	-7638
ulated	-7639
▁units	-7640
▁auteurs	-7641
appliquer	-7642
▁resulting	-7643
▁acceptable	-7644
▁commentaires	-7645
▁reconnaissance	-7646
▁black	-7647
▁gérer	-7648
▁parta	-7649
▁penal	-7650
▁socio	-7651
▁actuel	-7652
▁planned	-7653
▁utilisées	-7654
▁démocratie	-7655
▁Bi	-7656
▁rê	-7657
appu	-7658
▁Vic	-7659
hôtel	-7660
ittees	-7661
rimoine	-7662
ètement	-7663
▁assure	-7664
▁ethnic	-7665
▁treaty	-7666
▁disting	-7667
▁remplac	-7668
troduction	-7669
▁appellant	-7670
▁européens	-7671
umé	-7672
▁fif	-7673
unité	-7674
▁spons	-7675
▁suivants	-7676
▁amendment	-7677
▁scientifique	-7678
RE	-7679
comm	-7680
▁typ	-7681
▁sexe	-7682
ancial	-7683
▁allons	-7684
armament	-7685
▁granted	-7686
▁reasonable	-7687
▁,	-7688
▁rej	-7689
oster	-7690
▁pren	-7691
▁rémun	-7692
▁details	-7693
▁augmenté	-7694
ôm	-7695
▁Cuba	-7696
raction	-7697
▁éviter	-7698
▁voulait	-7699
▁géograph	-7700
▁sometimes	-7701
▁approaches	-7702
▁instructions	-7703
SS	-7704
auche	-7705
▁cooper	-7706
▁déplac	-7707
▁moitié	-7708
▁constant	-7709
▁observed	-7710
asc	-7711
bres	-7712
enty	-7713
umes	-7714
house	-7715
cession	-7716
▁civils	-7717
▁expand	-7718
▁graves	-7719
▁linguis	-7720
▁website	-7721
ki	-7722
rad	-7723
▁écl	-7724
▁Each	-7725
▁modèles	-7726
▁cultures	-7727
▁histoire	-7728
▁véritable	-7729
▁encouraged	-7730
.1.	-7731
▁huh	-7732
▁riv	-7733
▁Sorry	-7734
▁clair	-7735
▁tâches	-7736
▁prolong	-7737
▁chemical	-7738
▁Communauté	-7739
▁unf	-7740
▁Park	-7741
▁Vice	-7742
▁forg	-7743
▁forê	-7744
▁began	-7745
▁dérou	-7746
▁vérité	-7747
▁fournit	-7748
▁hearing	-7749
▁highest	-7750
apprentissage	-7751
eurs	-7752
load	-7753
▁Peace	-7754
présent	-7755
▁indire	-7756
▁extrême	-7757
▁faisait	-7758
▁reconnu	-7759
▁contamin	-7760
▁découver	-7761
▁sciences	-7762
▁improvement	-7763
ky	-7764
NUD	-7765
ova	-7766
▁Serb	-7767
▁doub	-7768
▁perte	-7769
idential	-7770
▁revised	-7771
activités	-7772
▁préparer	-7773
▁establishing	-7774
▁jurisdiction	-7775
▁core	-7776
▁yeah	-7777
placed	-7778
▁gives	-7779
▁voilà	-7780
▁marine	-7781
▁combien	-7782
▁computer	-7783
▁involvement	-7784
érés	-7785
▁Rich	-7786
▁tool	-7787
▁volon	-7788
tionnel	-7789
titudes	-7790
▁Certain	-7791
▁involving	-7792
▁particulière	-7793
▁Hé	-7794
▁IR	-7795
istic	-7796
▁Bill	-7797
▁phén	-7798
▁sale	-7799
▁pours	-7800
▁Toutes	-7801
autorité	-7802
▁trouble	-7803
▁interpret	-7804
▁naturelles	-7805
▁circulation	-7806
▁immediately	-7807
▁Ton	-7808
▁Sans	-7809
▁George	-7810
▁invite	-7811
▁marche	-7812
▁district	-7813
▁physique	-7814
▁specifically	-7815
▁Ha	-7816
▁cœur	-7817
▁surr	-7818
▁elimin	-7819
élimination	-7820
roy	-7821
▁32	-7822
entle	-7823
▁eight	-7824
▁meaning	-7825
▁Strategy	-7826
▁consolidation	-7827
umer	-7828
riend	-7829
▁ahead	-7830
▁élèves	-7831
▁Foreign	-7832
▁condamn	-7833
obligation	-7834
▁Conformément	-7835
▁stratégiques	-7836
-9	-7837
OL	-7838
impôt	-7839
isson	-7840
▁éché	-7841
▁entry	-7842
▁remin	-7843
▁vieux	-7844
▁aliments	-7845
▁OF	-7846
itive	-7847
untary	-7848
▁insta	-7849
▁revoir	-7850
▁Austral	-7851
▁subsidi	-7852
▁Atlantic	-7853
▁religion	-7854
▁considéré	-7855
▁gouvernance	-7856
▁utilisateurs	-7857
▁300	-7858
essai	-7859
eneurs	-7860
▁adopt	-7861
▁couns	-7862
▁discl	-7863
▁recon	-7864
▁vaste	-7865
▁Chairman	-7866
▁municipal	-7867
▁components	-7868
▁présidence	-7869
▁classification	-7870
bal	-7871
▁Asia	-7872
▁plas	-7873
▁stra	-7874
chewan	-7875
istics	-7876
▁honor	-7877
▁moving	-7878
▁officer	-7879
▁contains	-7880
▁considère	-7881
▁ministéri	-7882
▁difference	-7883
▁innovation	-7884
▁Déclaration	-7885
ommunications	-7886
▁représentent	-7887
▁Tom	-7888
▁hurt	-7889
▁sensi	-7890
▁montrer	-7891
▁transit	-7892
yez	-7893
▁NGO	-7894
▁bomb	-7895
esprit	-7896
▁Japon	-7897
▁image	-7898
ivalent	-7899
▁aspect	-7900
▁developments	-7901
▁•	-7902
lar	-7903
▁ww	-7904
▁buy	-7905
▁grat	-7906
▁saur	-7907
▁calend	-7908
▁annivers	-7909
▁minister	-7910
▁trafficking	-7911
oper	-7912
▁(19	-7913
▁San	-7914
ishing	-7915
▁spati	-7916
▁Allons	-7917
▁destro	-7918
▁numbers	-7919
▁component	-7920
▁largement	-7921
▁implications	-7922
▁Venez	-7923
▁datab	-7924
▁truth	-7925
▁exclusive	-7926
▁catégories	-7927
▁personnels	-7928
▁photograph	-7929
▁producteurs	-7930
ormais	-7931
▁1997,	-7932
▁cohér	-7933
▁vital	-7934
▁systém	-7935
▁Michael	-7936
▁waiting	-7937
▁informal	-7938
▁commerciaux	-7939
FC	-7940
tili	-7941
olesc	-7942
▁Annex	-7943
▁virtu	-7944
▁décide	-7945
▁menées	-7946
▁prévue	-7947
▁regime	-7948
▁finally	-7949
▁française	-7950
▁confidence	-7951
▁gun	-7952
▁Afin	-7953
▁avoc	-7954
▁gagn	-7955
Institut	-7956
▁définir	-7957
▁Columbia	-7958
▁observer	-7959
▁released	-7960
▁potentiel	-7961
▁considérée	-7962
MC	-7963
lymp	-7964
▁www	-7965
▁http	-7966
▁slow	-7967
▁biais	-7968
▁révis	-7969
▁allows	-7970
▁engine	-7971
▁passage	-7972
▁Personne	-7973
ésor	-7974
▁clés	-7975
▁téléc	-7976
▁listen	-7977
▁eligible	-7978
▁officielles	-7979
ij	-7980
uls	-7981
onal	-7982
orce	-7983
room	-7984
duire	-7985
▁bébé	-7986
▁faute	-7987
appelle	-7988
▁acknow	-7989
▁autour	-7990
▁régler	-7991
▁secure	-7992
▁senior	-7993
▁negative	-7994
▁announced	-7995
rées	-7996
▁Lat	-7997
assin	-7998
mêmes	-7999
▁tâche	-8000
chement	-8001
▁belong	-8002
▁privée	-8003
▁trafic	-8004
▁plainte	-8005
▁Children	-8006
▁organisme	-8007
▁recognition	-8008
▁36	-8009
aves	-8010
grad	-8011
▁flow	-8012
▁auront	-8013
▁exempl	-8014
▁subjec	-8015
▁demeure	-8016
▁confidenti	-8017
▁provisoire	-8018
▁heav	-8019
▁ours	-8020
▁numer	-8021
▁Police	-8022
▁garder	-8023
▁contacts	-8024
▁dimension	-8025
ués	-8026
alls	-8027
berg	-8028
erce	-8029
riage	-8030
▁fisc	-8031
▁Exper	-8032
▁Viens	-8033
unswick	-8034
▁himself	-8035
▁tendance	-8036
▁tribunaux	-8037
inv	-8038
emin	-8039
sida	-8040
▁Fre	-8041
▁tur	-8042
▁Also	-8043
▁noté	-8044
▁walk	-8045
▁Territ	-8046
▁Pendant	-8047
▁félicite	-8048
▁monsieur	-8049
▁fondamentaux	-8050
▁Del	-8051
▁box	-8052
elier	-8053
rance	-8054
▁race	-8055
ientôt	-8056
▁bound	-8057
▁chefs	-8058
▁photos	-8059
▁professionnelle	-8060
GC	-8061
ev	-8062
▁THE	-8063
▁via	-8064
uites	-8065
▁ache	-8066
▁ones	-8067
▁built	-8068
▁speed	-8069
▁toxic	-8070
▁listed	-8071
▁running	-8072
▁migrants	-8073
dio	-8074
mark	-8075
effet	-8076
▁luck	-8077
▁mots	-8078
▁dated	-8079
▁mines	-8080
▁pénale	-8081
▁shared	-8082
▁welcom	-8083
▁democracy	-8084
▁otherwise	-8085
▁LA	-8086
▁Pal	-8087
▁fit	-8088
0,000	-8089
ulate	-8090
▁chaî	-8091
▁eyes	-8092
▁kept	-8093
▁heureux	-8094
▁findings	-8095
▁payments	-8096
▁selected	-8097
▁comportement	-8098
enregistrement	-8099
Est	-8100
ôte	-8101
iling	-8102
legal	-8103
▁Salut	-8104
▁closed	-8105
▁proven	-8106
▁savais	-8107
▁communes	-8108
▁distinct	-8109
▁recovery	-8110
▁complaint	-8111
mont	-8112
▁eat	-8113
cture	-8114
▁motiv	-8115
▁tiens	-8116
interpr	-8117
▁Politi	-8118
▁temper	-8119
▁adoptée	-8120
▁Plusieurs	-8121
▁minorités	-8122
▁différences	-8123
80	-8124
isc	-8125
ging	-8126
▁souv	-8127
gation	-8128
▁Panel	-8129
▁Trois	-8130
▁aient	-8131
▁siège	-8132
▁machine	-8133
▁increasingly	-8134
▁transformation	-8135
▁Hon	-8136
▁thous	-8137
▁factor	-8138
▁chambres	-8139
agriculture	-8140
▁régulièrement	-8141
na	-8142
delà	-8143
chant	-8144
▁tempér	-8145
▁housing	-8146
▁reviewed	-8147
anes	-8148
road	-8149
urch	-8150
habil	-8151
▁cash	-8152
▁chau	-8153
▁abuse	-8154
▁advis	-8155
▁ordre	-8156
▁attack	-8157
▁adopter	-8158
▁Advisory	-8159
▁accueill	-8160
▁contribué	-8161
▁highlight	-8162
IB	-8163
atur	-8164
itec	-8165
▁Saf	-8166
▁caf	-8167
▁Form	-8168
▁sauf	-8169
intervention	-8170
▁Fais	-8171
entrer	-8172
▁accur	-8173
▁déliv	-8174
▁moder	-8175
▁Désolé	-8176
▁urgent	-8177
▁énergé	-8178
▁recommends	-8179
▁association	-8180
▁indicateurs	-8181
aily	-8182
minal	-8183
▁PNUD	-8184
▁Roman	-8185
▁Timor	-8186
affaires	-8187
ancouver	-8188
▁century	-8189
▁compati	-8190
▁grounds	-8191
▁division	-8192
▁résoudre	-8193
▁générales	-8194
▁PC	-8195
▁Tod	-8196
▁rob	-8197
▁sea	-8198
▁Jean	-8199
▁boul	-8200
▁hour	-8201
▁Chris	-8202
▁chron	-8203
▁naturel	-8204
▁veulent	-8205
▁indépendant	-8206
▁considerable	-8207
▁ratification	-8208
▁Representative	-8209
▁x	-8210
▁55	-8211
tiers	-8212
▁Give	-8213
▁Voir	-8214
▁gets	-8215
auvres	-8216
▁pétro	-8217
▁sister	-8218
▁stocks	-8219
ractions	-8220
▁creating	-8221
▁Saskatchewan	-8222
jan	-8223
inal	-8224
ridge	-8225
▁Stop	-8226
▁dest	-8227
▁taxes	-8228
▁Recomm	-8229
▁duties	-8230
▁conduite	-8231
▁whatever	-8232
▁Financial	-8233
gc	-8234
amm	-8235
pit	-8236
▁75	-8237
▁cach	-8238
▁quot	-8239
▁rappel	-8240
▁vendre	-8241
▁distinc	-8242
▁judicial	-8243
▁révision	-8244
▁événements	-8245
▁fournisseurs	-8246
TO	-8247
▁bate	-8248
▁behavi	-8249
▁anticip	-8250
▁analyses	-8251
▁conforme	-8252
▁transparency	-8253
oma	-8254
▁shi	-8255
pping	-8256
▁Food	-8257
▁huit	-8258
▁shot	-8259
évaluer	-8260
▁stabil	-8261
▁Bonjour	-8262
▁largest	-8263
▁extended	-8264
▁Delegation	-8265
▁Def	-8266
▁ble	-8267
▁squ	-8268
▁dump	-8269
▁bases	-8270
▁shoot	-8271
▁online	-8272
▁quickly	-8273
▁messages	-8274
▁Premières	-8275
▁partnerships	-8276
▁TR	-8277
onné	-8278
▁Equ	-8279
▁Inf	-8280
▁roy	-8281
atrice	-8282
ilibre	-8283
▁illég	-8284
▁occas	-8285
▁couver	-8286
▁entrer	-8287
▁envers	-8288
▁partis	-8289
lantique	-8290
▁compéti	-8291
▁focused	-8292
▁pauvres	-8293
▁difficulties	-8294
▁multilateral	-8295
▁Environmental	-8296
▁naiss	-8297
▁Nothing	-8298
▁element	-8299
▁auxquels	-8300
▁certaine	-8301
▁premières	-8302
DF	-8303
▁Di	-8304
▁Arm	-8305
rions	-8306
uable	-8307
▁Chin	-8308
▁exec	-8309
erland	-8310
▁somme	-8311
adresse	-8312
èlement	-8313
▁Global	-8314
▁Traité	-8315
▁thanks	-8316
▁élaboré	-8317
▁rappelle	-8318
▁extraordin	-8319
bly	-8320
▁cod	-8321
onneur	-8322
ôpital	-8323
▁dress	-8324
▁élarg	-8325
▁contem	-8326
▁damage	-8327
▁except	-8328
▁failed	-8329
agissant	-8330
▁contrats	-8331
▁utilisée	-8332
▁advantage	-8333
▁pertinentes	-8334
▁rat	-8335
▁Hello	-8336
▁lutter	-8337
▁périod	-8338
approche	-8339
▁conserv	-8340
▁convainc	-8341
▁réalisés	-8342
▁Vancouver	-8343
▁détention	-8344
▁migration	-8345
▁specified	-8346
oty	-8347
vey	-8348
▁Vol	-8349
▁yes	-8350
▁inde	-8351
▁tomb	-8352
▁allég	-8353
dessous	-8354
▁humain	-8355
▁served	-8356
▁writing	-8357
▁agricole	-8358
▁addressing	-8359
25	-8360
oxy	-8361
pol	-8362
vés	-8363
▁Dou	-8364
icide	-8365
offre	-8366
▁neuf	-8367
▁drink	-8368
▁input	-8369
▁owners	-8370
▁leaving	-8371
▁Business	-8372
▁figurant	-8373
▁pression	-8374
▁consequences	-8375
irms	-8376
utif	-8377
▁CAN	-8378
▁Cam	-8379
itter	-8380
▁Thus	-8381
▁vidé	-8382
undred	-8383
▁belle	-8384
▁wonder	-8385
▁témoign	-8386
▁Resources	-8387
/0	-8388
uste	-8389
water	-8390
▁entier	-8391
▁regrou	-8392
▁sujets	-8393
▁chances	-8394
▁parliament	-8395
▁appointment	-8396
ify	-8397
▁CS	-8398
raid	-8399
▁Aux	-8400
▁crazy	-8401
▁drive	-8402
▁bonnes	-8403
▁decide	-8404
▁dirait	-8405
▁préfér	-8406
▁totale	-8407
▁daughter	-8408
▁refugees	-8409
▁appointed	-8410
▁marketing	-8411
fond	-8412
▁Bay	-8413
tière	-8414
▁1994	-8415
▁Fish	-8416
▁Once	-8417
▁UNDP	-8418
▁rise	-8419
▁Journ	-8420
▁Stand	-8421
▁animal	-8422
▁élevés	-8423
▁withdra	-8424
▁Vra	-8425
▁ang	-8426
▁wal	-8427
oring	-8428
idency	-8429
▁dette	-8430
hension	-8431
▁délais	-8432
▁margin	-8433
▁pattern	-8434
▁remained	-8435
Britannique	-8436
▁commissions	-8437
▁directrices	-8438
▁raisonnable	-8439
▁synth	-8440
▁forget	-8441
▁diagnos	-8442
▁achieving	-8443
▁échantill	-8444
▁relatively	-8445
till	-8446
▁hun	-8447
etary	-8448
▁lancé	-8449
▁Produc	-8450
▁auraient	-8451
▁internes	-8452
▁vehicles	-8453
▁concernés	-8454
▁religious	-8455
▁businesses	-8456
èse	-8457
▁pages	-8458
▁posts	-8459
▁référ	-8460
innovation	-8461
▁dirigeants	-8462
▁processing	-8463
▁destination	-8464
▁Av	-8465
aters	-8466
▁Gene	-8467
▁dign	-8468
▁sell	-8469
▁west	-8470
▁immun	-8471
ribution	-8472
▁appears	-8473
▁helping	-8474
▁associés	-8475
▁véhicule	-8476
orientation	-8477
▁sensibilisation	-8478
cel	-8479
▁ét	-8480
▁mad	-8481
ennium	-8482
friend	-8483
▁chair	-8484
▁pouss	-8485
▁border	-8486
▁remercier	-8487
▁completely	-8488
▁applicables	-8489
▁34	-8490
dite	-8491
tect	-8492
▁éti	-8493
▁Chap	-8494
▁Lake	-8495
▁vess	-8496
▁intit	-8497
▁compré	-8498
▁logici	-8499
▁managers	-8500
ala	-8501
Comm	-8502
▁inh	-8503
▁mén	-8504
ierra	-8505
▁Iran	-8506
▁Madame	-8507
▁fédéraux	-8508
▁échanges	-8509
.5	-8510
imb	-8511
▁CH	-8512
▁IV	-8513
pute	-8514
visi	-8515
▁Room	-8516
▁copies	-8517
▁extrem	-8518
levision	-8519
▁prepare	-8520
▁recorded	-8521
▁trouvent	-8522
▁compagnie	-8523
▁incidence	-8524
▁souligner	-8525
zz	-8526
(2)	-8527
unk	-8528
▁6,	-8529
▁Sir	-8530
▁Mart	-8531
▁larger	-8532
▁pouvant	-8533
▁testing	-8534
▁transmit	-8535
expression	-8536
▁restaurant	-8537
ett	-8538
-199	-8539
eline	-8540
estim	-8541
ought	-8542
études	-8543
▁acteurs	-8544
▁bientôt	-8545
▁illegal	-8546
▁pourcent	-8547
▁existence	-8548
▁protected	-8549
▁présentés	-8550
orer	-8551
unte	-8552
▁Ver	-8553
▁ing	-8554
ettez	-8555
useum	-8556
▁préf	-8557
aissez	-8558
▁degré	-8559
▁floor	-8560
▁liter	-8561
▁Island	-8562
▁School	-8563
▁engage	-8564
▁mourir	-8565
▁située	-8566
▁amounts	-8567
Université	-8568
▁settlement	-8569
▁37	-8570
take	-8571
▁sleep	-8572
▁spent	-8573
▁choisi	-8574
▁donnée	-8575
▁précise	-8576
▁frontières	-8577
▁perspectives	-8578
tream	-8579
▁desc	-8580
ouvrir	-8581
▁Declar	-8582
▁ouverte	-8583
▁utilise	-8584
tionnelle	-8585
▁Nouvelle	-8586
▁certainly	-8587
▁nomination	-8588
▁répartition	-8589
GR	-8590
▁cuis	-8591
▁gene	-8592
▁Terre	-8593
▁repres	-8594
rication	-8595
▁operate	-8596
▁introduction	-8597
▁supplémentaire	-8598
BI	-8599
iece	-8600
▁clé	-8601
▁ira	-8602
order	-8603
▁filed	-8604
▁laissé	-8605
sibilité	-8606
▁Company	-8607
▁effectué	-8608
▁Authority	-8609
▁represented	-8610
▁notification	-8611
▁considération	-8612
cée	-8613
▁maî	-8614
▁fast	-8615
▁Peter	-8616
▁depos	-8617
▁Indian	-8618
▁crédits	-8619
▁Vraiment	-8620
▁geograph	-8621
▁recognize	-8622
▁collectivité	-8623
iel	-8624
tist	-8625
ariff	-8626
▁Swed	-8627
▁enfin	-8628
▁green	-8629
▁lines	-8630
▁names	-8631
▁voulu	-8632
▁helped	-8633
▁showed	-8634
▁diversity	-8635
▁background	-8636
▁resolutions	-8637
▁essentiellement	-8638
6)	-8639
ords	-8640
▁Kore	-8641
aborer	-8642
ataire	-8643
▁trial	-8644
▁afraid	-8645
▁découl	-8646
▁outcomes	-8647
▁consumers	-8648
▁modalités	-8649
iot	-8650
see	-8651
▁33	-8652
▁RE	-8653
arth	-8654
▁Lim	-8655
▁born	-8656
▁Would	-8657
▁virus	-8658
▁summer	-8659
adhésion	-8660
▁defence	-8661
▁occurred	-8662
▁recettes	-8663
▁accroître	-8664
▁désormais	-8665
▁extensive	-8666
exportation	-8667
▁previously	-8668
▁efficacement	-8669
BC	-8670
cie	-8671
uds	-8672
euro	-8673
▁mac	-8674
▁hier	-8675
▁dirig	-8676
▁rétabl	-8677
▁Another	-8678
▁despite	-8679
▁devient	-8680
▁recruit	-8681
▁Pakistan	-8682
▁reflected	-8683
▁Declaration	-8684
▁comprennent	-8685
▁reconstruction	-8686
DA	-8687
redi	-8688
émin	-8689
▁CON	-8690
▁Rad	-8691
▁beg	-8692
▁Arch	-8693
▁earn	-8694
▁fear	-8695
▁joué	-8696
▁récup	-8697
pection	-8698
theless	-8699
titutes	-8700
▁maritime	-8701
▁territorial	-8702
rai	-8703
angu	-8704
▁rid	-8705
▁Prom	-8706
▁concr	-8707
▁poids	-8708
▁Montre	-8709
▁envoyé	-8710
tiennent	-8711
▁musique	-8712
▁pourront	-8713
▁retraite	-8714
▁represents	-8715
▁participant	-8716
▁ém	-8717
cing	-8718
illé	-8719
▁Conc	-8720
▁Rome	-8721
▁save	-8722
▁livre	-8723
▁débats	-8724
▁manage	-8725
▁pièces	-8726
▁Meeting	-8727
▁obvious	-8728
▁plaisir	-8729
zil	-8730
▁Eff	-8731
▁Kar	-8732
▁dépôt	-8733
▁files	-8734
▁ideas	-8735
▁appris	-8736
▁fishing	-8737
▁Northern	-8738
rastructures	-8739
▁Its	-8740
▁Som	-8741
asses	-8742
oient	-8743
▁Voici	-8744
▁remov	-8745
▁agency	-8746
▁images	-8747
▁presse	-8748
▁fournis	-8749
▁reducing	-8750
▁Fédération	-8751
oo	-8752
▁dog	-8753
ennes	-8754
▁Sing	-8755
▁cens	-8756
▁sick	-8757
▁delay	-8758
▁montré	-8759
▁Support	-8760
▁animaux	-8761
▁entered	-8762
▁2004-200	-8763
▁communic	-8764
▁collègues	-8765
▁rencontrer	-8766
OU	-8767
agu	-8768
▁Lt	-8769
▁Fam	-8770
▁Ken	-8771
▁Ser	-8772
▁pou	-8773
▁sauv	-8774
abinet	-8775
urrent	-8776
▁devenu	-8777
▁locale	-8778
médiaire	-8779
▁antérie	-8780
▁drogues	-8781
▁détails	-8782
▁suivante	-8783
▁agricoles	-8784
▁susceptibles	-8785
▁48	-8786
▁MP	-8787
▁rue	-8788
chent	-8789
▁whom	-8790
▁Grâce	-8791
▁merci	-8792
▁dessus	-8793
▁réalisé	-8794
▁delivered	-8795
▁entièrement	-8796
▁traitements	-8797
-8	-8798
▁`	-8799
oto	-8800
▁meur	-8801
▁coast	-8802
▁élect	-8803
▁Officer	-8804
▁Bas	-8805
▁innoc	-8806
▁poser	-8807
▁corporate	-8808
▁voluntary	-8809
▁substantial	-8810
/4	-8811
▁kn	-8812
pring	-8813
▁Super	-8814
▁auquel	-8815
▁gentle	-8816
▁vivant	-8817
▁finding	-8818
▁Following	-8819
tén	-8820
mail	-8821
otid	-8822
oyer	-8823
amber	-8824
▁plate	-8825
▁soldi	-8826
▁acting	-8827
▁réformes	-8828
▁stations	-8829
▁appliquer	-8830
▁presentation	-8831
▁répercussions	-8832
60	-8833
unis	-8834
▁Bet	-8835
▁Nos	-8836
▁lose	-8837
UNICEF	-8838
inions	-8839
▁raise	-8840
▁Mexico	-8841
▁affich	-8842
▁career	-8843
▁correc	-8844
▁powers	-8845
▁élaborer	-8846
ortunately	-8847
▁communiqu	-8848
▁Federation	-8849
▁expression	-8850
▁CP	-8851
▁cry	-8852
êtres	-8853
▁Both	-8854
▁signé	-8855
évision	-8856
▁mérite	-8857
▁penses	-8858
▁facteur	-8859
▁holding	-8860
▁destinés	-8861
▁réserves	-8862
▁extrêmement	-8863
TS	-8864
ulf	-8865
▁défi	-8866
▁exces	-8867
▁scale	-8868
▁choisir	-8869
▁destroy	-8870
▁learned	-8871
▁launched	-8872
▁chimiques	-8873
visionnement	-8874
▁progressive	-8875
bi	-8876
▁Déc	-8877
▁Rem	-8878
▁enl	-8879
force	-8880
oslav	-8881
▁boys	-8882
taient	-8883
▁seuls	-8884
▁appare	-8885
estation	-8886
▁derrière	-8887
▁plaintes	-8888
▁donateurs	-8889
▁possibles	-8890
▁conscience	-8891
ds	-8892
uled	-8893
rolif	-8894
▁hate	-8895
▁2009.	-8896
▁India	-8897
▁length	-8898
▁appuyer	-8899
▁devront	-8900
▁séances	-8901
▁Criminal	-8902
▁primarily	-8903
▁researchers	-8904
▁questionnaire	-8905
▁sn	-8906
bler	-8907
ésil	-8908
▁Jam	-8909
▁accounts	-8910
▁consumer	-8911
▁resulted	-8912
▁territori	-8913
gouvernement	-8914
▁commissaire	-8915
▁département	-8916
▁transportation	-8917
MI	-8918
ga	-8919
▁FC	-8920
▁gri	-8921
▁Alex	-8922
▁Prime	-8923
▁Summit	-8924
▁clarif	-8925
▁syndic	-8926
▁villes	-8927
▁Rapport	-8928
▁hundred	-8929
▁Framework	-8930
▁facilement	-8931
▁paragraphes	-8932
▁respectively	-8933
▁participating	-8934
▁accountability	-8935
▁administratives	-8936
ami	-8937
ugal	-8938
▁Cos	-8939
▁scr	-8940
▁pregn	-8941
▁réfléch	-8942
▁établie	-8943
▁rational	-8944
▁sensible	-8945
▁indispensable	-8946
dé	-8947
oh	-8948
▁Sau	-8949
▁pul	-8950
appar	-8951
▁Ceci	-8952
▁Prin	-8953
▁rass	-8954
▁voit	-8955
énaire	-8956
▁1996,	-8957
utenant	-8958
▁anymore	-8959
▁welcomed	-8960
▁Représent	-8961
▁meilleurs	-8962
▁différence	-8963
▁fabrication	-8964
resh	-8965
▁dév	-8966
▁divid	-8967
▁situé	-8968
▁Budget	-8969
▁picture	-8970
▁statistics	-8971
olf	-8972
▁39	-8973
▁RC	-8974
irmer	-8975
iting	-8976
▁rati	-8977
▁wood	-8978
ouveau	-8979
▁limits	-8980
▁patent	-8981
▁sample	-8982
▁spread	-8983
▁tomber	-8984
▁Attends	-8985
▁liaison	-8986
▁opening	-8987
▁quantité	-8988
▁entrepris	-8989
▁immigrants	-8990
▁vulnerable	-8991
▁utilisation	-8992
▁Justification	-8993
lebr	-8994
play	-8995
▁Hong	-8996
▁chec	-8997
▁uses	-8998
▁2009,	-8999
isition	-9000
▁déployés	-9001
▁software	-9002
▁extremely	-9003
▁opposition	-9004
▁agriculture	-9005
▁exploitation	-9006
raél	-9007
▁flu	-9008
venus	-9009
▁Last	-9010
▁James	-9011
▁Pacte	-9012
▁video	-9013
iterran	-9014
tically	-9015
▁Russia	-9016
▁phénom	-9017
▁played	-9018
▁animals	-9019
▁informé	-9020
▁networks	-9021
▁souligne	-9022
▁surprise	-9023
▁unemploy	-9024
▁consulter	-9025
agir	-9026
▁Civ	-9027
amour	-9028
ureur	-9029
épend	-9030
▁conç	-9031
▁alive	-9032
▁Listen	-9033
▁Lorsqu	-9034
▁boulot	-9035
▁détail	-9036
▁victim	-9037
▁habitat	-9038
▁pleased	-9039
▁preuves	-9040
ciliation	-9041
▁remaining	-9042
▁subsection	-9043
tian	-9044
ierre	-9045
ounds	-9046
ennent	-9047
érance	-9048
▁appuy	-9049
▁changé	-9050
▁satellite	-9051
The	-9052
ago	-9053
atal	-9054
tail	-9055
érée	-9056
rient	-9057
▁exha	-9058
▁medic	-9059
▁oppos	-9060
▁quotid	-9061
▁amended	-9062
▁applies	-9063
▁elected	-9064
▁relever	-9065
extérieur	-9066
▁expenses	-9067
▁soumettre	-9068
▁administer	-9069
▁reconnaître	-9070
WG	-9071
gar	-9072
rew	-9073
tered	-9074
▁Papa	-9075
▁sert	-9076
▁évol	-9077
istant	-9078
▁Brazil	-9079
▁Israël	-9080
▁gagner	-9081
▁relief	-9082
▁Israeli	-9083
▁Through	-9084
▁actively	-9085
▁adoptées	-9086
▁enquêtes	-9087
▁terrorist	-9088
approbation	-9089
uts	-9090
atre	-9091
cool	-9092
▁nul	-9093
▁und	-9094
intes	-9095
arrive	-9096
ériques	-9097
▁réclam	-9098
oirs	-9099
▁Exp	-9100
▁hab	-9101
▁refl	-9102
▁doubt	-9103
▁pièce	-9104
▁étais	-9105
▁manger	-9106
▁suppli	-9107
▁legitim	-9108
▁généraux	-9109
▁increases	-9110
▁présentées	-9111
▁européennes	-9112
eds	-9113
ôme	-9114
orand	-9115
▁daily	-9116
▁restr	-9117
▁white	-9118
▁Compte	-9119
▁Sierra	-9120
▁dépass	-9121
▁passeng	-9122
▁examined	-9123
▁facility	-9124
▁formulaire	-9125
▁innovative	-9126
▁determination	-9127
alle	-9128
ètre	-9129
▁Ret	-9130
entis	-9131
union	-9132
▁Guide	-9133
orandum	-9134
▁accompagn	-9135
ano	-9136
▁TPS	-9137
ranch	-9138
▁Actu	-9139
▁Camp	-9140
▁Fait	-9141
▁moved	-9142
▁pénal	-9143
ouverne	-9144
▁commis	-9145
encontre	-9146
▁chacune	-9147
▁comités	-9148
▁telling	-9149
▁numerous	-9150
▁historique	-9151
▁pourcentage	-9152
▁qualifications	-9153
uly	-9154
▁Fl	-9155
▁Ky	-9156
angl	-9157
▁193	-9158
▁insc	-9159
▁vent	-9160
▁hausse	-9161
▁préjud	-9162
▁annoncé	-9163
▁complement	-9164
▁percentage	-9165
▁distinction	-9166
infrastructure	-9167
wood	-9168
▁Sol	-9169
▁rub	-9170
ander	-9171
▁nine	-9172
▁frapp	-9173
▁older	-9174
program	-9175
▁linked	-9176
▁serais	-9177
▁conting	-9178
▁discover	-9179
▁starting	-9180
▁équitable	-9181
▁encourager	-9182
don	-9183
asury	-9184
▁lour	-9185
▁mens	-9186
▁exhib	-9187
▁erreur	-9188
▁weight	-9189
▁engaged	-9190
▁établis	-9191
▁employer	-9192
▁intensif	-9193
▁designated	-9194
8)	-9195
UL	-9196
âte	-9197
OMPI	-9198
ford	-9199
lant	-9200
▁Étant	-9201
▁Croati	-9202
élaborer	-9203
▁civilian	-9204
▁identification	-9205
gne	-9206
exem	-9207
▁dil	-9208
roits	-9209
entiel	-9210
▁codes	-9211
▁style	-9212
▁Quelqu	-9213
▁polici	-9214
itations	-9215
▁accepté	-9216
▁adolesc	-9217
▁déchets	-9218
▁failure	-9219
organisme	-9220
▁attendre	-9221
▁mouvement	-9222
▁présentent	-9223
▁territories	-9224
car	-9225
oes	-9226
▁Day	-9227
▁Sever	-9228
▁gamme	-9229
▁israél	-9230
▁budgets	-9231
▁courses	-9232
▁exploit	-9233
▁transfér	-9234
▁utilisant	-9235
▁Corporation	-9236
▁commerciale	-9237
▁obligatoire	-9238
ali	-9239
erai	-9240
▁fid	-9241
alled	-9242
▁prie	-9243
▁taxe	-9244
▁vice	-9245
▁asking	-9246
▁predic	-9247
▁obtenus	-9248
▁victime	-9249
▁enhanced	-9250
▁logement	-9251
▁somebody	-9252
▁actuelles	-9253
▁immediate	-9254
▁continuent	-9255
▁peacekeeping	-9256
▁interpretation	-9257
75	-9258
FP	-9259
▁65	-9260
rets	-9261
émie	-9262
aties	-9263
inary	-9264
▁arme	-9265
▁fuel	-9266
▁servi	-9267
▁Présid	-9268
▁UNICEF	-9269
▁plants	-9270
▁requis	-9271
▁specta	-9272
▁instead	-9273
▁profess	-9274
▁activement	-9275
▁maintained	-9276
habilitation	-9277
▁Hi	-9278
▁Va	-9279
Alle	-9280
arde	-9281
astern	-9282
▁Parmi	-9283
▁Three	-9284
bliothè	-9285
certain	-9286
idences	-9287
▁gather	-9288
▁looked	-9289
▁motifs	-9290
▁perdre	-9291
▁season	-9292
▁courage	-9293
▁fallait	-9294
▁concrete	-9295
▁contrain	-9296
▁rappeler	-9297
ker	-9298
▁Den	-9299
▁env	-9300
inqui	-9301
lever	-9302
▁Conf	-9303
▁acte	-9304
▁cong	-9305
▁facul	-9306
▁horiz	-9307
▁recip	-9308
itement	-9309
▁Particip	-9310
▁identity	-9311
▁competent	-9312
▁intellectual	-9313
-5	-9314
SE	-9315
ella	-9316
▁Bob	-9317
▁Imm	-9318
▁hur	-9319
▁reve	-9320
▁Today	-9321
▁hydro	-9322
▁track	-9323
raining	-9324
▁exclud	-9325
▁pleine	-9326
▁suffit	-9327
▁dispute	-9328
▁remplir	-9329
▁rurales	-9330
▁complexe	-9331
▁stressed	-9332
▁spéciales	-9333
▁spécifique	-9334
▁Administration	-9335
igu	-9336
▁7.	-9337
▁Dom	-9338
▁Ltd	-9339
▁load	-9340
onomic	-9341
riture	-9342
▁provo	-9343
▁rooms	-9344
▁attemp	-9345
▁entendre	-9346
▁suivantes	-9347
heureusement	-9348
.)	-9349
70	-9350
ym	-9351
Asie	-9352
▁Fri	-9353
▁Hen	-9354
▁ara	-9355
▁enn	-9356
▁Gree	-9357
▁étape	-9358
▁Aucune	-9359
▁Contin	-9360
▁annexe	-9361
▁baisse	-9362
▁fields	-9363
▁collecte	-9364
▁exposure	-9365
▁présentée	-9366
▁terroristes	-9367
▁détermination	-9368
▁Ta	-9369
▁Mom	-9370
enced	-9371
▁seat	-9372
▁pacif	-9373
▁stade	-9374
environ	-9375
▁leader	-9376
▁malgré	-9377
▁garantie	-9378
▁producers	-9379
île	-9380
▁ur	-9381
énie	-9382
itary	-9383
ombre	-9384
▁intr	-9385
issait	-9386
▁idées	-9387
▁repos	-9388
▁décenn	-9389
▁foster	-9390
▁reserv	-9391
▁soulev	-9392
▁utiles	-9393
▁Society	-9394
▁adultes	-9395
▁willing	-9396
▁changing	-9397
▁examples	-9398
▁exécutif	-9399
▁Wal	-9400
▁NGOs	-9401
vertis	-9402
▁nomin	-9403
▁Partie	-9404
▁allait	-9405
▁Aujourd	-9406
▁médecin	-9407
▁emphasis	-9408
▁features	-9409
▁bilateral	-9410
▁contenant	-9411
▁continuera	-9412
▁contributed	-9413
▁complètement	-9414
▁compréhension	-9415
SO	-9416
tual	-9417
▁Bre	-9418
▁Jud	-9419
▁MIN	-9420
▁Ref	-9421
achat	-9422
▁Ques	-9423
▁bloc	-9424
▁répé	-9425
existe	-9426
▁Liber	-9427
ologies	-9428
▁Sommet	-9429
atically	-9430
▁feeling	-9431
▁limitée	-9432
▁déterminé	-9433
▁7,	-9434
otte	-9435
▁Jer	-9436
anish	-9437
élarg	-9438
▁rock	-9439
▁user	-9440
ration	-9441
zation	-9442
▁Found	-9443
▁sauve	-9444
ensions	-9445
utation	-9446
ailleurs	-9447
▁Premier	-9448
▁décider	-9449
▁Industry	-9450
▁carrière	-9451
▁figurent	-9452
▁gestionnaires	-9453
▁Us	-9454
ilib	-9455
▁Sit	-9456
▁noms	-9457
▁Middle	-9458
▁Victor	-9459
▁models	-9460
▁Amendment	-9461
▁economies	-9462
▁household	-9463
▁bénéficier	-9464
▁disabilities	-9465
▁professionnel	-9466
▁ET	-9467
▁Ty	-9468
▁Pays	-9469
▁advoc	-9470
▁surpr	-9471
▁engagé	-9472
▁textes	-9473
▁package	-9474
▁targets	-9475
▁temporary	-9476
▁meilleures	-9477
autorisation	-9478
▁consumption	-9479
▁independence	-9480
interprétation	-9481
At	-9482
iven	-9483
▁2010	-9484
▁merde	-9485
▁norme	-9486
▁noter	-9487
▁scène	-9488
▁afford	-9489
▁passed	-9490
fortable	-9491
▁playing	-9492
▁élector	-9493
▁devaient	-9494
▁complaints	-9495
▁évaluations	-9496
▁42	-9497
▁95	-9498
here	-9499
stan	-9500
▁lay	-9501
orage	-9502
▁1998.	-9503
▁estimé	-9504
▁terrible	-9505
▁behaviour	-9506
▁everybody	-9507
Association	-9508
▁résolutions	-9509
▁lou	-9510
armon	-9511
parle	-9512
▁blanc	-9513
▁dites	-9514
accueil	-9515
▁accrue	-9516
▁faudra	-9517
▁sugges	-9518
▁missing	-9519
▁perhaps	-9520
▁pointed	-9521
▁reality	-9522
▁bringing	-9523
▁contracts	-9524
▁estimates	-9525
▁Millennium	-9526
▁undertaking	-9527
oux	-9528
▁192	-9529
▁DES	-9530
endum	-9531
stème	-9532
▁abus	-9533
▁ving	-9534
▁Which	-9535
atéraux	-9536
▁complé	-9537
▁mental	-9538
▁autonom	-9539
▁regards	-9540
▁Contract	-9541
▁category	-9542
▁confirmed	-9543
▁paiements	-9544
▁responses	-9545
▁categories	-9546
▁containing	-9547
▁télévision	-9548
▁examination	-9549
rick	-9550
▁COM	-9551
▁cha	-9552
▁Islam	-9553
▁emplois	-9554
▁soutenu	-9555
▁becoming	-9556
▁Australia	-9557
▁integrity	-9558
▁formulation	-9559
▁ed	-9560
▁400	-9561
▁EUR	-9562
▁neut	-9563
▁comply	-9564
▁prévus	-9565
▁vivent	-9566
▁vouloir	-9567
▁Treasury	-9568
▁réaction	-9569
▁essentiels	-9570
▁procurement	-9571
▁constitution	-9572
7)	-9573
die	-9574
uan	-9575
cont	-9576
▁plat	-9577
▁Royal	-9578
▁Laisse	-9579
▁Robert	-9580
▁mainly	-9581
▁protég	-9582
▁Chambre	-9583
▁persist	-9584
▁régimes	-9585
Allemagne	-9586
▁cellules	-9587
▁finances	-9588
▁minority	-9589
▁strongly	-9590
▁collected	-9591
▁vulnérables	-9592
oz	-9593
▁SC	-9594
▁Six	-9595
▁ain	-9596
aller	-9597
▁draf	-9598
▁Civil	-9599
▁align	-9600
▁maman	-9601
▁celebr	-9602
▁choose	-9603
▁appelle	-9604
▁modifié	-9605
▁treated	-9606
▁returned	-9607
lets	-9608
umul	-9609
▁cig	-9610
ettes	-9611
▁Gaza	-9612
▁Priv	-9613
▁trom	-9614
▁essais	-9615
▁explan	-9616
▁pertes	-9617
▁relève	-9618
▁sérieux	-9619
▁prennent	-9620
▁Transport	-9621
crimination	-9622
▁exactement	-9623
▁nu	-9624
fort	-9625
▁Eth	-9626
▁Rou	-9627
▁boss	-9628
▁sets	-9629
▁stip	-9630
sities	-9631
▁links	-9632
▁female	-9633
▁Network	-9634
▁alleged	-9635
▁healthy	-9636
▁promise	-9637
▁obstacle	-9638
▁opinions	-9639
▁surround	-9640
exposition	-9641
▁satisfait	-9642
▁competitive	-9643
.-	-9644
aled	-9645
tein	-9646
▁Yuk	-9647
▁tire	-9648
option	-9649
▁fondé	-9650
▁Genève	-9651
▁funded	-9652
▁Pacific	-9653
▁convers	-9654
▁keeping	-9655
▁conflicts	-9656
▁qualified	-9657
▁tendances	-9658
▁provinciaux	-9659
TE	-9660
▁Ir	-9661
arre	-9662
▁Hal	-9663
▁ONG	-9664
Canad	-9665
agues	-9666
▁ceci	-9667
▁méta	-9668
▁susc	-9669
▁Leone	-9670
▁meant	-9671
▁arrêté	-9672
▁forced	-9673
▁street	-9674
tainable	-9675
▁classes	-9676
▁coverage	-9677
▁retrouver	-9678
▁Initiative	-9679
▁committees	-9680
▁possession	-9681
▁improvements	-9682
où	-9683
IDA	-9684
arib	-9685
▁café	-9686
▁dorm	-9687
▁liée	-9688
▁illic	-9689
▁libér	-9690
▁morts	-9691
▁turned	-9692
▁Ukraine	-9693
▁happens	-9694
▁involve	-9695
▁assessed	-9696
▁empêcher	-9697
▁northern	-9698
▁disarmament	-9699
akh	-9700
▁Pet	-9701
▁radi	-9702
▁décès	-9703
▁graph	-9704
▁Prince	-9705
▁privil	-9706
▁sûreté	-9707
▁étapes	-9708
▁procédé	-9709
▁sharing	-9710
▁combined	-9711
▁diversif	-9712
▁démarche	-9713
▁exercice	-9714
▁multiple	-9715
▁dangerous	-9716
▁correction	-9717
▁permanente	-9718
▁submission	-9719
▁enterprises	-9720
▁LE	-9721
▁mm	-9722
chez	-9723
ifier	-9724
orial	-9725
▁spor	-9726
▁Aucun	-9727
▁Their	-9728
▁sorti	-9729
▁dinner	-9730
▁pensez	-9731
▁transl	-9732
▁figures	-9733
▁Regardez	-9734
▁incident	-9735
▁explained	-9736
▁Democratic	-9737
▁allocation	-9738
▁multilatér	-9739
▁pertinents	-9740
ugg	-9741
▁GR	-9742
aceu	-9743
book	-9744
▁Bulg	-9745
▁aims	-9746
itimes	-9747
otechn	-9748
ishment	-9749
▁Really	-9750
▁regarde	-9751
▁revenue	-9752
▁summary	-9753
▁accordée	-9754
▁réception	-9755
▁économies	-9756
▁expenditure	-9757
▁suggestions	-9758
▁Cop	-9759
▁Mem	-9760
▁ray	-9761
estre	-9762
▁sour	-9763
▁trim	-9764
éviter	-9765
▁armés	-9766
▁chann	-9767
▁academ	-9768
▁cartes	-9769
▁déposé	-9770
▁indeed	-9771
▁Écoute	-9772
▁calling	-9773
▁intérie	-9774
▁intégrée	-9775
▁speaking	-9776
▁gouvernementaux	-9777
15	-9778
▁god	-9779
eding	-9780
▁bons	-9781
▁coeur	-9782
▁gains	-9783
▁Safety	-9784
▁Turkey	-9785
▁sports	-9786
▁timely	-9787
liminary	-9788
▁reforms	-9789
▁occident	-9790
▁Directeur	-9791
▁subvention	-9792
▁television	-9793
▁maintaining	-9794
▁Né	-9795
▁Rw	-9796
arti	-9797
dent	-9798
esty	-9799
efore	-9800
▁Juste	-9801
▁Spain	-9802
▁portion	-9803
▁conclure	-9804
▁restruct	-9805
▁protocole	-9806
▁précédent	-9807
▁considérer	-9808
▁investments	-9809
acco	-9810
▁Mul	-9811
ômage	-9812
▁deem	-9813
▁mené	-9814
ulsion	-9815
▁Inuit	-9816
▁sauver	-9817
▁Covenant	-9818
▁discuter	-9819
▁acknowled	-9820
▁auxquelles	-9821
▁membership	-9822
▁officielle	-9823
▁recrutement	-9824
12	-9825
arus	-9826
zerb	-9827
▁Fer	-9828
▁Mag	-9829
estiv	-9830
▁menac	-9831
unction	-9832
▁essayé	-9833
▁mutual	-9834
▁recens	-9835
▁inférie	-9836
▁managed	-9837
▁échéant	-9838
▁rencontr	-9839
etherlands	-9840
▁expansion	-9841
▁incidents	-9842
immigration	-9843
TM	-9844
▁Ev	-9845
asts	-9846
ourg	-9847
▁Ray	-9848
▁gro	-9849
human	-9850
ilipp	-9851
▁Wind	-9852
▁bird	-9853
▁hang	-9854
▁prud	-9855
entraî	-9856
illing	-9857
▁safegu	-9858
▁tonnes	-9859
▁univer	-9860
▁Chinese	-9861
▁Spanish	-9862
▁Turquie	-9863
▁chargée	-9864
▁constitute	-9865
▁Commissaire	-9866
itée	-9867
▁Tax	-9868
▁agg	-9869
œuvre	-9870
▁ferm	-9871
person	-9872
▁Maman	-9873
▁bande	-9874
▁dates	-9875
▁pensé	-9876
▁cadres	-9877
▁island	-9878
▁concert	-9879
▁performed	-9880
▁pouvaient	-9881
▁préalable	-9882
lui	-9883
nés	-9884
▁Kh	-9885
▁Enc	-9886
▁Esp	-9887
itent	-9888
▁Unit	-9889
▁dism	-9890
▁park	-9891
▁diffus	-9892
________	-9893
▁exprimé	-9894
▁inscrit	-9895
▁répondu	-9896
▁connexes	-9897
▁souviens	-9898
▁habitants	-9899
▁conférences	-9900
▁Représentant	-9901
HC	-9902
ura	-9903
▁77	-9904
▁IP	-9905
erson	-9906
tisse	-9907
▁Nice	-9908
▁laid	-9909
assade	-9910
hington	-9911
▁London	-9912
▁conduit	-9913
▁convenu	-9914
▁quarter	-9915
▁officiel	-9916
atiquement	-9917
▁receiving	-9918
▁supervision	-9919
▁certification	-9920
IG	-9921
ôts	-9922
indi	-9923
oubl	-9924
▁Mars	-9925
▁frag	-9926
▁vaut	-9927
ographie	-9928
▁budgétaire	-9929
iry	-9930
éti	-9931
▁Got	-9932
▁Moy	-9933
▁sin	-9934
▁1993	-9935
▁clar	-9936
riques	-9937
▁stopp	-9938
▁orders	-9939
▁Several	-9940
▁désolée	-9941
▁database	-9942
▁marriage	-9943
▁workshop	-9944
adaptation	-9945
▁completion	-9946
▁infrastructures	-9947
90	-9948
AO	-9949
tec	-9950
ycl	-9951
▁Lu	-9952
▁ox	-9953
onia	-9954
▁aren	-9955
▁maje	-9956
▁wild	-9957
inding	-9958
▁crises	-9959
▁collect	-9960
▁properly	-9961
▁telephone	-9962
▁Employment	-9963
▁diminution	-9964
four	-9965
▁Deb	-9966
▁Rég	-9967
▁pér	-9968
▁brut	-9969
espèce	-9970
prolif	-9971
▁Green	-9972
▁décis	-9973
tisation	-9974
▁explicit	-9975
▁detention	-9976
▁instances	-9977
▁reconnaît	-9978
▁exportations	-9979
osc	-9980
ault	-9981
west	-9982
▁Mat	-9983
▁arts	-9984
▁plén	-9985
adopter	-9986
avaient	-9987
▁réduit	-9988
▁strict	-9989
▁Laissez	-9990
▁quelles	-9991
▁soldats	-9992
61	-9993
DS	-9994
IE	-9995
pte	-9996
▁Sk	-9997
ayer	-9998
▁Ham	-9999
▁mob	-10000
istres	-10001
▁Admin	-10002
▁White	-10003
▁forth	-10004
▁stages	-10005
▁Defence	-10006
▁capture	-10007
▁massive	-10008
▁Washington	-10009
▁climatiques	-10010
▁*	-10011
TER	-10012
lim	-10013
aper	-10014
▁cot	-10015
mises	-10016
ourse	-10017
▁cold	-10018
elfare	-10019
▁Water	-10020
▁futur	-10021
▁marks	-10022
▁évident	-10023
▁Veuillez	-10024
▁financer	-10025
▁interpre	-10026
impression	-10027
▁subventions	-10028
▁transparent	-10029
pré	-10030
▁EN	-10031
▁10.	-10032
▁haz	-10033
▁mét	-10034
▁repl	-10035
anning	-10036
orable	-10037
▁1995,	-10038
▁piece	-10039
▁Before	-10040
▁assume	-10041
▁motion	-10042
▁plaign	-10043
▁trends	-10044
economic	-10045
▁invités	-10046
▁popular	-10047
▁étroite	-10048
▁appropriée	-10049
▁température	-10050
▁entrepreneurs	-10051
▁38	-10052
roll	-10053
▁Cust	-10054
▁Pard	-10055
▁drop	-10056
ieuses	-10057
igence	-10058
▁Given	-10059
▁serai	-10060
▁dollar	-10061
▁honour	-10062
▁sought	-10063
▁regarder	-10064
▁favorable	-10065
▁considering	-10066
▁remboursement	-10067
enz	-10068
enth	-10069
osen	-10070
puty	-10071
tagne	-10072
▁grav	-10073
▁moun	-10074
▁rejec	-10075
orteurs	-10076
▁imposed	-10077
▁targeted	-10078
▁withdraw	-10079
▁44	-10080
▁8,	-10081
down	-10082
▁eau	-10083
elled	-10084
usage	-10085
uteur	-10086
▁chin	-10087
▁fant	-10088
▁Appro	-10089
▁décri	-10090
▁Nation	-10091
▁latest	-10092
▁notion	-10093
▁unités	-10094
▁arrêter	-10095
▁rentrer	-10096
épendance	-10097
▁advertis	-10098
▁argument	-10099
▁emerging	-10100
DR	-10101
HO	-10102
sim	-10103
armée	-10104
ensive	-10105
▁fixed	-10106
essment	-10107
▁Deputy	-10108
▁Should	-10109
▁Trésor	-10110
▁facing	-10111
▁proxim	-10112
▁constaté	-10113
▁controls	-10114
▁peaceful	-10115
▁considers	-10116
▁contribue	-10117
▁fortement	-10118
00.	-10119
iop	-10120
▁Bou	-10121
érons	-10122
▁1992	-10123
▁choc	-10124
▁allem	-10125
▁modes	-10126
▁nette	-10127
▁Branch	-10128
▁biling	-10129
▁chaîne	-10130
▁latter	-10131
▁proche	-10132
▁sortie	-10133
appelant	-10134
▁donnent	-10135
▁marques	-10136
▁mauvaise	-10137
▁prélimin	-10138
▁spéciaux	-10139
yan	-10140
èque	-10141
▁Cas	-10142
letin	-10143
▁fête	-10144
▁calme	-10145
▁catal	-10146
▁dream	-10147
▁artist	-10148
▁climat	-10149
▁Despite	-10150
▁brevets	-10151
opération	-10152
▁indiquer	-10153
▁Netherlands	-10154
▁availability	-10155
▁demonstrated	-10156
▁participated	-10157
9/	-10158
oli	-10159
amend	-10160
autom	-10161
truit	-10162
▁Four	-10163
▁fees	-10164
▁Bonne	-10165
▁tasks	-10166
▁abroad	-10167
▁nearly	-10168
▁couverture	-10169
▁expenditures	-10170
▁rémunération	-10171
11	-10172
tm	-10173
aks	-10174
ita	-10175
anny	-10176
uner	-10177
▁Nic	-10178
▁Toi	-10179
▁song	-10180
aurait	-10181
▁étend	-10182
▁garçon	-10183
▁liquid	-10184
▁Heritage	-10185
▁carrying	-10186
▁licences	-10187
▁montrent	-10188
▁undertake	-10189
▁concernées	-10190
▁patrimoine	-10191
▁achievement	-10192
▁interesting	-10193
gi	-10194
tue	-10195
apon	-10196
pare	-10197
tiens	-10198
▁sond	-10199
▁therm	-10200
▁ventes	-10201
ièmement	-10202
▁poisson	-10203
▁complexes	-10204
▁contrôler	-10205
▁authorized	-10206
▁hi	-10207
▁Ses	-10208
itant	-10209
▁papa	-10210
▁soil	-10211
▁corri	-10212
▁films	-10213
▁menée	-10214
opinion	-10215
▁Labour	-10216
▁middle	-10217
▁tenant	-10218
▁accordé	-10219
▁connaît	-10220
▁revenir	-10221
▁Portugal	-10222
▁interrog	-10223
▁médicaux	-10224
équipement	-10225
▁culturels	-10226
▁travaillé	-10227
ero	-10228
pet	-10229
▁IM	-10230
érir	-10231
ipped	-10232
lects	-10233
▁Care	-10234
▁fout	-10235
▁Sudan	-10236
▁Yukon	-10237
▁fruit	-10238
▁cities	-10239
▁drogue	-10240
▁défaut	-10241
▁easily	-10242
▁reiter	-10243
ressions	-10244
▁apporté	-10245
▁chiffres	-10246
▁remettre	-10247
▁garanties	-10248
▁mentionné	-10249
lementation	-10250
▁enregistré	-10251
▁amendements	-10252
▁demonstrate	-10253
▁négociation	-10254
▁travaillent	-10255
WA	-10256
law	-10257
cean	-10258
inéa	-10259
uing	-10260
▁Rob	-10261
accro	-10262
umber	-10263
▁Black	-10264
▁Willi	-10265
▁arabe	-10266
▁voice	-10267
▁dispens	-10268
▁suspect	-10269
incidence	-10270
▁avantage	-10271
▁heritage	-10272
▁partager	-10273
▁présentes	-10274
rey	-10275
▁mél	-10276
▁lire	-10277
▁réel	-10278
▁cells	-10279
▁nommé	-10280
▁thème	-10281
▁Malgré	-10282
▁detail	-10283
▁contest	-10284
▁restent	-10285
▁concepts	-10286
▁sexuelle	-10287
▁indicates	-10288
▁scheduled	-10289
▁secondary	-10290
▁constituer	-10291
▁alimentaires	-10292
▁relationships	-10293
aser	-10294
kers	-10295
▁ath	-10296
insta	-10297
▁demi	-10298
liance	-10299
▁Georg	-10300
▁remed	-10301
▁usage	-10302
▁Mexique	-10303
▁cuisine	-10304
▁intérim	-10305
▁meurtre	-10306
▁Partners	-10307
▁customers	-10308
▁destinées	-10309
▁Statistics	-10310
▁inspection	-10311
▁university	-10312
▁Hy	-10313
life	-10314
ôles	-10315
▁Fac	-10316
▁Nav	-10317
tront	-10318
▁Land	-10319
encour	-10320
▁Italy	-10321
▁dedic	-10322
▁drawn	-10323
▁désir	-10324
▁fémin	-10325
▁sémin	-10326
▁Geneva	-10327
▁prends	-10328
▁quatri	-10329
▁tariff	-10330
▁téléph	-10331
ductions	-10332
▁attempt	-10333
▁instant	-10334
▁prévoir	-10335
▁Official	-10336
▁accepter	-10337
▁extension	-10338
▁incidences	-10339
ANS	-10340
aéro	-10341
spec	-10342
▁Amb	-10343
▁sun	-10344
uvres	-10345
▁Olymp	-10346
▁banks	-10347
▁fasse	-10348
▁judges	-10349
▁attacks	-10350
▁communs	-10351
▁assigned	-10352
▁organisée	-10353
AB	-10354
Bas	-10355
care	-10356
▁eye	-10357
▁idé	-10358
▁whe	-10359
▁damn	-10360
▁flux	-10361
▁phen	-10362
▁conce	-10363
▁trend	-10364
hôpital	-10365
entretien	-10366
▁quatrième	-10367
alimentation	-10368
▁adolescents	-10369
▁experienced	-10370
▁transaction	-10371
anz	-10372
-201	-10373
▁ran	-10374
mbuds	-10375
▁tick	-10376
orters	-10377
▁moral	-10378
▁toile	-10379
▁indemn	-10380
▁sommet	-10381
▁banques	-10382
▁seeking	-10383
itzerland	-10384
▁2006-200	-10385
▁purchase	-10386
▁populaire	-10387
▁indication	-10388
▁subsequent	-10389
▁humanitaires	-10390
▁professionals	-10391
▁representation	-10392
▁characteristics	-10393
fl	-10394
▁Lit	-10395
▁Vis	-10396
▁pla	-10397
ancer	-10398
ining	-10399
▁restre	-10400
▁visent	-10401
iciently	-10402
▁chargés	-10403
▁periods	-10404
▁établies	-10405
▁accounting	-10406
▁outstanding	-10407
-6	-10408
▁41	-10409
▁Nun	-10410
▁Stre	-10411
▁aime	-10412
▁bath	-10413
▁infl	-10414
▁Louis	-10415
▁utili	-10416
istique	-10417
▁prolif	-10418
▁refuse	-10419
ustralie	-10420
▁visible	-10421
▁vitesse	-10422
▁médecins	-10423
▁valuable	-10424
▁viennent	-10425
▁occasions	-10426
▁appropriées	-10427
▁traditionnels	-10428
ek	-10429
▁cu	-10430
burg	-10431
▁IRSC	-10432
icians	-10433
instru	-10434
▁Korea	-10435
▁hôtel	-10436
▁maîtr	-10437
▁ultim	-10438
▁gauche	-10439
▁stream	-10440
▁Control	-10441
▁counsel	-10442
▁mettant	-10443
▁annuelle	-10444
▁culturel	-10445
▁culturelles	-10446
lib	-10447
ula	-10448
écu	-10449
▁$2	-10450
empê	-10451
tone	-10452
urée	-10453
ouest	-10454
▁flag	-10455
▁rede	-10456
coming	-10457
ordonn	-10458
▁proud	-10459
ataires	-10460
▁actors	-10461
▁espèce	-10462
▁opened	-10463
▁explosi	-10464
▁reading	-10465
▁terrest	-10466
▁tiendra	-10467
▁diseases	-10468
▁conserver	-10469
▁indiquent	-10470
▁experiences	-10471
▁investigations	-10472
enny	-10473
vail	-10474
▁Bal	-10475
▁Nig	-10476
▁CIHR	-10477
▁dose	-10478
▁camps	-10479
▁fresh	-10480
▁juges	-10481
▁pleas	-10482
▁closer	-10483
▁renvoy	-10484
▁stupid	-10485
▁valoir	-10486
▁wishes	-10487
itecture	-10488
▁spending	-10489
▁expliquer	-10490
▁supplement	-10491
med	-10492
▁8.	-10493
ocal	-10494
uster	-10495
▁Martin	-10496
▁widely	-10497
▁récente	-10498
▁smaller	-10499
▁volunte	-10500
▁voulons	-10501
▁profiter	-10502
▁accomplis	-10503
▁dangereux	-10504
▁sentiment	-10505
▁intéressés	-10506
▁spécialistes	-10507
identification	-10508
▁mondialisation	-10509
▁MD	-10510
▁Ni	-10511
▁Egy	-10512
▁soi	-10513
▁Winn	-10514
▁absor	-10515
▁sympt	-10516
▁venue	-10517
▁write	-10518
appréci	-10519
▁livres	-10520
sibility	-10521
▁pouvais	-10522
▁ultérie	-10523
ativement	-10524
▁electric	-10525
▁exemples	-10526
▁arguments	-10527
▁naissance	-10528
▁dispositif	-10529
▁énergétique	-10530
8/	-10531
col	-10532
gen	-10533
rin	-10534
▁OS	-10535
imag	-10536
▁Ren	-10537
▁lif	-10538
otion	-10539
États	-10540
▁hair	-10541
enders	-10542
taires	-10543
tative	-10544
▁masse	-10545
▁Common	-10546
▁argent	-10547
▁cigare	-10548
▁unable	-10549
ditional	-10550
▁possède	-10551
▁threats	-10552
▁témoins	-10553
▁transpor	-10554
▁inclusion	-10555
▁Technology	-10556
▁Pra	-10557
èvent	-10558
étudi	-10559
▁Sure	-10560
▁invo	-10561
▁warm	-10562
eliers	-10563
▁avais	-10564
▁judge	-10565
▁named	-10566
▁manager	-10567
▁portent	-10568
▁équipes	-10569
accroître	-10570
▁2002-200	-10571
▁Attendez	-10572
▁greatest	-10573
▁variables	-10574
▁immigration	-10575
▁effectivement	-10576
▁représentation	-10577
idi	-10578
▁van	-10579
▁Call	-10580
▁Drug	-10581
▁éduc	-10582
Orient	-10583
accomp	-10584
reland	-10585
▁conçu	-10586
casting	-10587
▁Indeed	-10588
▁banque	-10589
▁mobile	-10590
▁privés	-10591
▁Consult	-10592
▁demands	-10593
▁dumping	-10594
▁Training	-10595
▁capitale	-10596
▁africaine	-10597
▁approprié	-10598
▁rencontre	-10599
acquisition	-10600
▁fourniture	-10601
▁nourriture	-10602
▁statistical	-10603
▁respectivement	-10604
7/	-10605
9)	-10606
fast	-10607
outi	-10608
▁nar	-10609
pleur	-10610
érées	-10611
▁Hist	-10612
▁Tour	-10613
▁liti	-10614
▁sand	-10615
▁Joint	-10616
▁Merde	-10617
▁rouge	-10618
▁rendez	-10619
▁souver	-10620
gradation	-10621
▁attached	-10622
▁remercie	-10623
▁introduce	-10624
▁culturelle	-10625
dep	-10626
▁85	-10627
enary	-10628
▁bott	-10629
▁feet	-10630
▁envie	-10631
▁river	-10632
▁namely	-10633
▁transp	-10634
identité	-10635
▁advanced	-10636
▁navigation	-10637
▁supérieure	-10638
▁totalement	-10639
MS	-10640
onte	-10641
ujet	-10642
inage	-10643
▁dram	-10644
alisés	-10645
▁accél	-10646
▁panel	-10647
▁Combien	-10648
▁convinc	-10649
▁essayer	-10650
▁lecture	-10651
▁believed	-10652
▁decrease	-10653
▁directed	-10654
▁indirect	-10655
▁allocated	-10656
▁familiale	-10657
▁poursuite	-10658
▁sensitive	-10659
▁universal	-10660
▁assessments	-10661
▁distributed	-10662
pa	-10663
OMC	-10664
umn	-10665
▁150	-10666
▁gal	-10667
▁Coll	-10668
▁Guid	-10669
▁agré	-10670
▁cibl	-10671
▁pill	-10672
sieurs	-10673
▁pilote	-10674
▁Société	-10675
▁outlined	-10676
▁tourisme	-10677
▁augmenter	-10678
▁effectuée	-10679
▁appreciate	-10680
▁prochaines	-10681
▁Cooperation	-10682
▁appreciation	-10683
▁incorporated	-10684
▁43	-10685
merg	-10686
toire	-10687
▁Back	-10688
▁Mary	-10689
▁prove	-10690
▁états	-10691
▁speech	-10692
intéress	-10693
issariat	-10694
▁chômage	-10695
▁limiter	-10696
▁mineurs	-10697
▁américain	-10698
▁electoral	-10699
▁seriously	-10700
installation	-10701
▁determining	-10702
ESCO	-10703
isez	-10704
▁bear	-10705
▁bénév	-10706
▁recev	-10707
▁semin	-10708
▁vidéo	-10709
▁étiez	-10710
▁interc	-10711
▁toward	-10712
▁destiné	-10713
▁menaces	-10714
▁neither	-10715
▁quitter	-10716
▁frontière	-10717
▁multiples	-10718
▁ourselves	-10719
▁programming	-10720
▁installation	-10721
ani	-10722
tia	-10723
inée	-10724
▁Lic	-10725
▁ice	-10726
ousse	-10727
▁Brésil	-10728
▁employed	-10729
▁montants	-10730
▁préciser	-10731
inscription	-10732
▁budgétaires	-10733
▁importations	-10734
▁bénéficiaires	-10735
LA	-10736
dam	-10737
gry	-10738
ffee	-10739
▁Déf	-10740
▁Joe	-10741
▁hoc	-10742
cular	-10743
▁nett	-10744
offrir	-10745
▁2010.	-10746
▁Earth	-10747
▁copie	-10748
▁visés	-10749
▁actifs	-10750
esterday	-10751
▁anciens	-10752
▁chapter	-10753
▁devices	-10754
▁touchant	-10755
▁réellement	-10756
▁électroniques	-10757
3/	-10758
»,	-10759
ext	-10760
▁CB	-10761
otal	-10762
excell	-10763
uments	-10764
▁Could	-10765
▁inves	-10766
▁Family	-10767
▁Region	-10768
▁exists	-10769
▁reviews	-10770
▁critique	-10771
▁soutient	-10772
▁économie	-10773
▁éliminer	-10774
▁néanmoins	-10775
▁dimensions	-10776
▁suspension	-10777
▁préoccupation	-10778
13	-10779
voi	-10780
▁Exam	-10781
▁Hold	-10782
▁Maur	-10783
▁Slov	-10784
▁catch	-10785
▁ratio	-10786
▁forêts	-10787
▁symbol	-10788
▁moderne	-10789
▁student	-10790
▁terminé	-10791
▁milliers	-10792
▁directeurs	-10793
▁structural	-10794
▁complainant	-10795
▁constructive	-10796
ader	-10797
ipeg	-10798
▁nit	-10799
osure	-10800
sight	-10801
▁Fort	-10802
▁Objec	-10803
▁admit	-10804
▁faced	-10805
▁verre	-10806
▁discre	-10807
▁endors	-10808
▁finale	-10809
▁tables	-10810
mentionn	-10811
▁Burundi	-10812
▁rivière	-10813
▁disposer	-10814
▁standing	-10815
▁Pacifique	-10816
▁residence	-10817
▁effectuées	-10818
▁Switzerland	-10819
2/	-10820
▁ST	-10821
uent	-10822
▁Use	-10823
▁brû	-10824
▁hol	-10825
iries	-10826
utely	-10827
▁Thom	-10828
▁agir	-10829
▁Corée	-10830
▁Prior	-10831
▁union	-10832
▁depend	-10833
▁franch	-10834
▁touche	-10835
▁Ireland	-10836
▁multipl	-10837
▁mémoire	-10838
▁navires	-10839
▁substan	-10840
▁treaties	-10841
▁Certaines	-10842
▁existants	-10843
▁rédaction	-10844
▁invitation	-10845
▁Sustainable	-10846
yth	-10847
▁PN	-10848
▁dî	-10849
wers	-10850
▁Nob	-10851
ieuse	-10852
rador	-10853
▁Conn	-10854
▁Help	-10855
▁Home	-10856
▁Mike	-10857
▁amen	-10858
▁fier	-10859
▁shut	-10860
▁facts	-10861
▁porté	-10862
ophones	-10863
▁combus	-10864
▁simult	-10865
▁waters	-10866
▁Process	-10867
▁dommages	-10868
▁pensions	-10869
▁reflects	-10870
▁soldiers	-10871
lectricité	-10872
▁effectuer	-10873
▁titulaire	-10874
intermédiaire	-10875
ila	-10876
▁IT	-10877
oise	-10878
onge	-10879
▁biz	-10880
▁Moyen	-10881
▁congr	-10882
▁morte	-10883
▁stric	-10884
▁device	-10885
▁déploi	-10886
▁driving	-10887
▁fighting	-10888
▁poissons	-10889
▁governing	-10890
▁proposées	-10891
▁rencontré	-10892
▁historical	-10893
▁preliminary	-10894
▁Gén	-10895
EMENT	-10896
oudan	-10897
▁Very	-10898
▁ence	-10899
▁soin	-10900
▁bitch	-10901
▁fault	-10902
▁relax	-10903
▁revend	-10904
▁Chamber	-10905
▁actuels	-10906
▁removed	-10907
intégrité	-10908
▁cinquante	-10909
▁minorities	-10910
▁satisfaire	-10911
▁Contracting	-10912
▁substantive	-10913
▁departmental	-10914
▁DU	-10915
▁Vi	-10916
▁Luc	-10917
dible	-10918
illon	-10919
under	-10920
▁miti	-10921
▁chlor	-10922
▁Ecoute	-10923
▁prévoy	-10924
▁exposés	-10925
▁Montreal	-10926
▁autorisé	-10927
▁souvenir	-10928
▁occupation	-10929
▁paragraphs	-10930
▁temporaire	-10931
▁législatives	-10932
bum	-10933
oned	-10934
▁Spe	-10935
▁Hall	-10936
manent	-10937
▁Compl	-10938
▁heavy	-10939
▁worse	-10940
▁Energy	-10941
alestine	-10942
cosystem	-10943
▁attitude	-10944
▁providers	-10945
▁uncertain	-10946
▁calendrier	-10947
▁identifying	-10948
6/	-10949
RA	-10950
▁Tw	-10951
abri	-10952
▁mic	-10953
osing	-10954
▁Flor	-10955
▁fourth	-10956
▁slight	-10957
▁visage	-10958
▁anybody	-10959
échantill	-10960
▁accompan	-10961
▁continué	-10962
▁teachers	-10963
acceptable	-10964
▁dedicated	-10965
▁dynamique	-10966
▁Foundation	-10967
▁susmentionn	-10968
.2.	-10969
vere	-10970
uries	-10971
▁Data	-10972
▁Fond	-10973
▁Turk	-10974
▁phil	-10975
▁Audit	-10976
▁Latin	-10977
▁Youth	-10978
▁Rwanda	-10979
▁appels	-10980
▁appuie	-10981
▁moteur	-10982
▁putain	-10983
élection	-10984
▁decline	-10985
▁display	-10986
▁entités	-10987
▁offerts	-10988
▁voisins	-10989
▁Winnipeg	-10990
▁entities	-10991
▁Néanmoins	-10992
▁Millénaire	-10993
▁secondaire	-10994
▁Autochtones	-10995
▁recruitment	-10996
▁temperature	-10997
▁anniversaire	-10998
It	-10999
PE	-11000
nam	-11001
illy	-11002
cadre	-11003
uxemb	-11004
▁côte	-11005
▁evol	-11006
▁supr	-11007
▁vary	-11008
▁vues	-11009
▁Nunav	-11010
▁Rules	-11011
▁Tunis	-11012
▁cible	-11013
cluding	-11014
▁parall	-11015
▁seeing	-11016
dictions	-11017
▁resolve	-11018
▁2005-200	-11019
▁proposée	-11020
▁sentence	-11021
▁accession	-11022
▁happening	-11023
GE	-11024
jou	-11025
▁Id	-11026
Iraq	-11027
▁Adv	-11028
▁âge	-11029
obile	-11030
▁Expl	-11031
▁bras	-11032
▁glad	-11033
▁pire	-11034
▁Leban	-11035
▁aspir	-11036
▁books	-11037
▁faith	-11038
▁macro	-11039
▁manip	-11040
▁vingt	-11041
mbudsman	-11042
▁comport	-11043
▁faibles	-11044
▁thereby	-11045
▁believes	-11046
▁quartier	-11047
▁contempor	-11048
oted	-11049
ylum	-11050
▁Max	-11051
▁map	-11052
▁Ital	-11053
▁acid	-11054
▁pure	-11055
harmon	-11056
étique	-11057
▁révél	-11058
▁title	-11059
▁âgées	-11060
▁Sweden	-11061
▁receip	-11062
▁chinois	-11063
▁familiar	-11064
▁transferred	-11065
▁certainement	-11066
▁representing	-11067
▁administrations	-11068
AV	-11069
ja	-11070
mor	-11071
field	-11072
▁Wood	-11073
cribed	-11074
iration	-11075
▁flight	-11076
▁Philipp	-11077
▁deliber	-11078
▁depends	-11079
▁secours	-11080
▁libertés	-11081
▁scolaire	-11082
▁gentlemen	-11083
▁initiated	-11084
▁mortalité	-11085
▁résidence	-11086
Br	-11087
uy	-11088
uée	-11089
▁Tri	-11090
▁fus	-11091
▁1991	-11092
▁Jord	-11093
▁tiré	-11094
▁Smith	-11095
▁esprit	-11096
▁forgot	-11097
▁offert	-11098
▁puisqu	-11099
▁charged	-11100
▁directe	-11101
▁putting	-11102
▁regroup	-11103
▁storage	-11104
▁suicide	-11105
▁interdit	-11106
tionnelles	-11107
▁neighbour	-11108
▁considérés	-11109
▁admissibles	-11110
▁géographique	-11111
35	-11112
ING	-11113
ean	-11114
born	-11115
▁Tal	-11116
▁tun	-11117
cheme	-11118
▁cycl	-11119
acture	-11120
▁dépit	-11121
▁entra	-11122
▁résult	-11123
▁savons	-11124
▁updated	-11125
exception	-11126
programme	-11127
▁Document	-11128
▁requises	-11129
▁fisheries	-11130
▁equivalent	-11131
introduction	-11132
▁technological	-11133
PT	-11134
aye	-11135
▁ec	-11136
éros	-11137
▁Pop	-11138
▁vég	-11139
alisé	-11140
itely	-11141
▁faux	-11142
▁souci	-11143
▁chasse	-11144
▁papier	-11145
▁remise	-11146
▁Nouveau	-11147
▁Stratég	-11148
▁députés	-11149
▁intégré	-11150
▁letters	-11151
▁planète	-11152
▁privacy	-11153
▁évidence	-11154
▁affecting	-11155
▁constrain	-11156
▁découlant	-11157
▁officiels	-11158
▁certificat	-11159
▁développés	-11160
▁partenaire	-11161
▁specialized	-11162
);	-11163
hab	-11164
oré	-11165
ovine	-11166
sibly	-11167
▁male	-11168
▁trem	-11169
unesse	-11170
▁About	-11171
▁fores	-11172
▁incap	-11173
▁roles	-11174
appuyer	-11175
▁Arrête	-11176
▁Grande	-11177
▁formed	-11178
▁fulfil	-11179
▁viable	-11180
▁digital	-11181
▁applying	-11182
▁jugement	-11183
▁pharmaceu	-11184
▁phénomène	-11185
observation	-11186
▁contribuent	-11187
▁organizational	-11188
-19	-11189
ouch	-11190
▁Met	-11191
▁PCT	-11192
inger	-11193
étend	-11194
▁délib	-11195
▁studi	-11196
▁armées	-11197
▁commod	-11198
▁rappro	-11199
ographic	-11200
▁assujet	-11201
▁exports	-11202
▁candidat	-11203
▁Palestine	-11204
entreprises	-11205
▁flexibility	-11206
▁reproduction	-11207
▁strengthened	-11208
LO	-11209
MD	-11210
dem	-11211
gov	-11212
ori	-11213
▁191	-11214
▁31,	-11215
▁Vas	-11216
▁hyd	-11217
▁mol	-11218
▁spl	-11219
▁coal	-11220
charge	-11221
▁Suède	-11222
▁firms	-11223
▁funny	-11224
▁guard	-11225
▁ambiti	-11226
▁adjoint	-11227
▁congrat	-11228
▁moindre	-11229
▁realize	-11230
▁domicile	-11231
▁straight	-11232
▁individus	-11233
▁criminalité	-11234
TV	-11235
ugh	-11236
▁9,	-11237
▁DF	-11238
▁NRC	-11239
▁eth	-11240
▁fur	-11241
idité	-11242
▁pont	-11243
▁earth	-11244
arrêter	-11245
vereign	-11246
▁Faites	-11247
▁espagn	-11248
▁élevée	-11249
▁Charlie	-11250
▁Journal	-11251
▁dommage	-11252
▁apprendre	-11253
▁différent	-11254
▁puissance	-11255
▁participent	-11256
emi	-11257
osy	-11258
owe	-11259
▁9.	-11260
▁AC	-11261
cess	-11262
ints	-11263
with	-11264
▁Gar	-11265
▁Mur	-11266
▁PME	-11267
▁SME	-11268
▁Sar	-11269
▁Sco	-11270
▁évo	-11271
cohol	-11272
▁dark	-11273
▁dens	-11274
▁excl	-11275
▁sois	-11276
ertion	-11277
▁chosen	-11278
inquiète	-11279
▁échange	-11280
▁flexible	-11281
ordination	-11282
▁protecting	-11283
▁conversation	-11284
ii	-11285
uce	-11286
bean	-11287
well	-11288
èges	-11289
▁WTO	-11290
influ	-11291
▁beat	-11292
▁pool	-11293
ophone	-11294
▁Colle	-11295
▁prosp	-11296
▁voyez	-11297
▁aérien	-11298
▁cultiv	-11299
▁occupé	-11300
▁salari	-11301
▁attract	-11302
▁croyais	-11303
▁déclare	-11304
▁détenus	-11305
▁constate	-11306
▁intitulé	-11307
▁schedule	-11308
▁résistance	-11309
▁productivity	-11310
▁subsequently	-11311
▁particulières	-11312
zen	-11313
aker	-11314
avec	-11315
▁Dès	-11316
found	-11317
▁Sant	-11318
▁Team	-11319
▁biod	-11320
alcool	-11321
entend	-11322
▁incur	-11323
▁sécur	-11324
▁deemed	-11325
▁recouv	-11326
▁futures	-11327
▁offrent	-11328
▁signalé	-11329
▁explique	-11330
▁budgetary	-11331
▁handicapées	-11332
▁unemployment	-11333
htm	-11334
comp	-11335
▁tap	-11336
▁Bern	-11337
▁banc	-11338
▁roll	-11339
▁scen	-11340
▁wall	-11341
▁frequ	-11342
▁compta	-11343
▁visées	-11344
▁Captain	-11345
▁largely	-11346
appliquent	-11347
▁residents	-11348
▁corporation	-11349
▁encouraging	-11350
▁palestinien	-11351
45	-11352
icon	-11353
utin	-11354
▁Obs	-11355
itude	-11356
▁Camb	-11357
▁burn	-11358
▁réve	-11359
associ	-11360
ilians	-11361
époque	-11362
▁prétend	-11363
▁ressort	-11364
▁retrouv	-11365
▁bâtiment	-11366
▁clinical	-11367
▁envisage	-11368
▁measured	-11369
▁contrôles	-11370
▁disability	-11371
▁surveiller	-11372
▁intéressant	-11373
▁orientation	-11374
gies	-11375
▁Lie	-11376
inten	-11377
▁Task	-11378
▁breat	-11379
▁dealt	-11380
▁fabri	-11381
▁perce	-11382
▁signe	-11383
▁throw	-11384
▁voies	-11385
▁inspir	-11386
▁master	-11387
▁routes	-11388
▁Excusez	-11389
▁becomes	-11390
▁composé	-11391
▁couleur	-11392
▁recover	-11393
▁biennium	-11394
▁buildings	-11395
▁essentielle	-11396
▁précisément	-11397
▁Nevertheless	-11398
vo	-11399
ECE	-11400
▁Lo	-11401
rary	-11402
▁Sil	-11403
ctors	-11404
▁Keep	-11405
▁Star	-11406
▁bata	-11407
▁noir	-11408
▁payé	-11409
oivent	-11410
▁Jusqu	-11411
▁Simil	-11412
▁accum	-11413
▁prête	-11414
ectionn	-11415
entente	-11416
▁bateau	-11417
▁burden	-11418
▁clause	-11419
▁detect	-11420
Internet	-11421
▁Richard	-11422
▁rapidly	-11423
▁drinking	-11424
▁démontré	-11425
▁involves	-11426
inspection	-11427
▁ownership	-11428
▁Assessment	-11429
▁controlled	-11430
▁répondants	-11431
▁understood	-11432
▁estimations	-11433
▁expériences	-11434
▁AR	-11435
▁PS	-11436
like	-11437
mine	-11438
oliv	-11439
▁AND	-11440
▁Fig	-11441
▁boî	-11442
▁sév	-11443
▁vin	-11444
manie	-11445
▁1980	-11446
▁gold	-11447
▁magaz	-11448
▁motif	-11449
▁store	-11450
▁votes	-11451
▁define	-11452
▁rectif	-11453
▁customs	-11454
▁confirmé	-11455
▁réussite	-11456
▁semblent	-11457
▁employers	-11458
indépendance	-11459
▁universités	-11460
▁essentielles	-11461
5/	-11462
HCR	-11463
upe	-11464
alys	-11465
prof	-11466
▁bot	-11467
ètent	-11468
▁Anti	-11469
▁Donn	-11470
▁flic	-11471
ologne	-11472
▁tabac	-11473
▁Suisse	-11474
▁donors	-11475
▁employé	-11476
▁pétrole	-11477
▁barriers	-11478
▁conduire	-11479
▁periodic	-11480
▁southern	-11481
▁villages	-11482
▁approfond	-11483
▁experiment	-11484
▁manufacture	-11485
▁internationally	-11486
▁52	-11487
ache	-11488
orme	-11489
reme	-11490
▁Int	-11491
othes	-11492
▁Nova	-11493
▁déje	-11494
▁pert	-11495
ductive	-11496
ventive	-11497
▁allant	-11498
▁appeler	-11499
▁formule	-11500
atteindre	-11501
▁resident	-11502
▁eliminate	-11503
▁thousands	-11504
▁Operations	-11505
Add	-11506
CED	-11507
▁Cr	-11508
▁Gh	-11509
cupe	-11510
▁Jac	-11511
▁lié	-11512
▁army	-11513
▁négl	-11514
occupe	-11515
▁Henry	-11516
▁elect	-11517
▁marked	-11518
▁gratuit	-11519
▁biotechn	-11520
▁primaire	-11521
▁accidents	-11522
▁critiques	-11523
▁effectués	-11524
▁provisional	-11525
▁universities	-11526
OD	-11527
ko	-11528
hom	-11529
▁CNU	-11530
▁Lac	-11531
▁anc	-11532
▁tac	-11533
endix	-11534
▁huge	-11535
▁1994,	-11536
▁Outre	-11537
▁lever	-11538
▁anyway	-11539
▁asylum	-11540
▁ajouter	-11541
▁explore	-11542
▁farmers	-11543
▁retrait	-11544
▁tourism	-11545
▁machines	-11546
▁habituellement	-11547
Isra	-11548
plus	-11549
▁Ram	-11550
▁fee	-11551
▁tol	-11552
ician	-11553
issue	-11554
▁Lord	-11555
▁Year	-11556
▁aidé	-11557
▁cade	-11558
anches	-11559
tières	-11560
▁chien	-11561
▁spend	-11562
▁teams	-11563
▁carbon	-11564
▁settle	-11565
▁Charles	-11566
▁inclure	-11567
▁apparent	-11568
▁disposal	-11569
▁gouverne	-11570
▁compromis	-11571
▁ecosystem	-11572
▁difficulté	-11573
▁susceptible	-11574
meu	-11575
tex	-11576
▁XX	-11577
illa	-11578
▁Cle	-11579
▁PAR	-11580
anmar	-11581
▁Barb	-11582
▁Rail	-11583
asters	-11584
rorism	-11585
équité	-11586
▁exposé	-11587
▁soirée	-11588
▁twenty	-11589
▁témoin	-11590
iliation	-11591
▁Chapter	-11592
▁careful	-11593
▁feature	-11594
▁commande	-11595
▁Stratégie	-11596
▁liability	-11597
▁sovereign	-11598
▁étrangère	-11599
▁volontaire	-11600
▁administratif	-11601
▁correspondant	-11602
AI	-11603
hon	-11604
emic	-11605
▁Vir	-11606
admis	-11607
▁revê	-11608
▁tenus	-11609
▁adverse	-11610
▁follows	-11611
▁imparti	-11612
▁uniform	-11613
▁discours	-11614
▁distingu	-11615
▁offences	-11616
▁supplies	-11617
▁civilians	-11618
▁publicité	-11619
▁retourner	-11620
▁satisfais	-11621
▁manufactur	-11622
▁productivité	-11623
▁compétitivité	-11624
%)	-11625
Her	-11626
▁Er	-11627
rian	-11628
rote	-11629
▁Gal	-11630
▁Sea	-11631
▁gap	-11632
agnes	-11633
teste	-11634
▁Requ	-11635
▁alia	-11636
▁aper	-11637
▁kiss	-11638
▁till	-11639
▁vive	-11640
▁Order	-11641
▁Third	-11642
▁brain	-11643
endroit	-11644
ictions	-11645
occuper	-11646
organis	-11647
▁handle	-11648
▁ordonn	-11649
▁perpet	-11650
▁séjour	-11651
▁Customs	-11652
▁Supreme	-11653
▁privées	-11654
▁Première	-11655
▁football	-11656
▁présents	-11657
▁repeated	-11658
▁excessive	-11659
▁placement	-11660
importation	-11661
▁generation	-11662
▁orientations	-11663
▁46	-11664
▁ok	-11665
▁(2)	-11666
▁12,	-11667
▁canc	-11668
▁dépl	-11669
▁1990,	-11670
▁honey	-11671
▁avenir	-11672
▁droite	-11673
▁devenue	-11674
▁Governor	-11675
▁audience	-11676
▁transmis	-11677
▁Paragraph	-11678
▁displaced	-11679
veloppement	-11680
▁prioritaires	-11681
500	-11682
emy	-11683
▁Van	-11684
▁foi	-11685
▁wed	-11686
ophob	-11687
▁sequ	-11688
▁stic	-11689
▁russe	-11690
▁argued	-11691
▁dépens	-11692
▁fruits	-11693
▁preced	-11694
appropri	-11695
▁Concern	-11696
▁Réunion	-11697
▁Science	-11698
▁Amérique	-11699
▁benefici	-11700
▁inscrits	-11701
▁Fisheries	-11702
▁regularly	-11703
▁différente	-11704
▁declaration	-11705
▁Headquarters	-11706
▁fondamentales	-11707
▁parlementaire	-11708
no	-11709
ye	-11710
▁EX	-11711
cons	-11712
▁Ess	-11713
▁tob	-11714
▁Mold	-11715
▁lady	-11716
▁sinc	-11717
▁trag	-11718
igneur	-11719
▁arrêt	-11720
▁persu	-11721
atrices	-11722
▁deploy	-11723
▁recycl	-11724
▁spring	-11725
▁reserve	-11726
▁proposer	-11727
▁périodes	-11728
▁récentes	-11729
▁combattre	-11730
▁workshops	-11731
▁Everything	-11732
▁provenance	-11733
▁nationalité	-11734
▁établissement	-11735
▁rehabilitation	-11736
▁54	-11737
▁AM	-11738
▁10,	-11739
▁Kaz	-11740
▁bis	-11741
▁fat	-11742
▁Know	-11743
▁dear	-11744
▁diab	-11745
abling	-11746
▁1997.	-11747
▁Trust	-11748
▁deter	-11749
▁rédig	-11750
▁lancer	-11751
▁sentir	-11752
▁Indones	-11753
▁awarded	-11754
▁lettres	-11755
▁Decision	-11756
▁conseill	-11757
▁sanction	-11758
▁propriétaire	-11759
1/	-11760
▁°	-11761
▁88	-11762
▁AD	-11763
dans	-11764
teen	-11765
▁(1)	-11766
▁Bab	-11767
▁CEE	-11768
grade	-11769
usses	-11770
▁mail	-11771
▁Based	-11772
▁Major	-11773
▁helps	-11774
▁topic	-11775
▁Austri	-11776
▁enrich	-11777
▁repose	-11778
▁consacré	-11779
▁teaching	-11780
▁limitations	-11781
HP	-11782
eli	-11783
oué	-11784
▁%,	-11785
....	-11786
ommy	-11787
ster	-11788
umin	-11789
▁adh	-11790
aches	-11791
▁Carl	-11792
▁Long	-11793
▁déri	-11794
ortiss	-11795
utable	-11796
▁idiot	-11797
▁Pardon	-11798
▁easier	-11799
▁mesurer	-11800
▁showing	-11801
▁anywhere	-11802
▁fournies	-11803
▁modified	-11804
▁conformes	-11805
▁constater	-11806
▁normalement	-11807
▁permettrait	-11808
▁%.	-11809
eren	-11810
rack	-11811
▁600	-11812
▁Voy	-11813
▁nov	-11814
arrêt	-11815
chang	-11816
▁allé	-11817
▁Staff	-11818
▁accro	-11819
▁Bosnie	-11820
▁coffee	-11821
▁sacrif	-11822
▁positif	-11823
▁succeed	-11824
▁claimant	-11825
▁définiti	-11826
▁introduc	-11827
▁enhancing	-11828
▁ressemble	-11829
▁variation	-11830
▁accommodation	-11831
ulée	-11832
domin	-11833
known	-11834
tible	-11835
élébr	-11836
▁Leur	-11837
▁tang	-11838
affect	-11839
▁crain	-11840
▁insec	-11841
▁proof	-11842
▁Argent	-11843
▁Friday	-11844
▁Invest	-11845
▁chérie	-11846
▁config	-11847
▁curric	-11848
▁injury	-11849
formance	-11850
▁faculta	-11851
▁trained	-11852
▁vessels	-11853
tegration	-11854
▁historic	-11855
▁requérant	-11856
▁respondents	-11857
▁successfully	-11858
14	-11859
▁î	-11860
▁57	-11861
lent	-11862
alles	-11863
cosse	-11864
ients	-11865
▁Mond	-11866
▁Phil	-11867
▁axée	-11868
▁biom	-11869
▁rain	-11870
observ	-11871
▁1996.	-11872
▁chale	-11873
▁magas	-11874
▁impose	-11875
▁saison	-11876
▁affairs	-11877
acquitter	-11878
▁allowing	-11879
▁ententes	-11880
▁entraîner	-11881
▁expériment	-11882
▁foundation	-11883
▁infractions	-11884
▁competitiveness	-11885
Ne	-11886
arp	-11887
▁Nam	-11888
▁bid	-11889
▁aéro	-11890
▁cart	-11891
▁fixe	-11892
herent	-11893
iodiff	-11894
▁Carib	-11895
▁Dites	-11896
▁délic	-11897
▁quels	-11898
engager	-11899
honneur	-11900
▁talent	-11901
▁visits	-11902
▁Eastern	-11903
▁immobil	-11904
▁prendra	-11905
▁voyages	-11906
uxembourg	-11907
▁Something	-11908
▁attitudes	-11909
▁difficiles	-11910
▁remplacement	-11911
UC	-11912
▁−	-11913
▁ID	-11914
icts	-11915
ming	-11916
vées	-11917
▁Sin	-11918
tième	-11919
▁chaud	-11920
▁donor	-11921
▁syner	-11922
anguage	-11923
habitat	-11924
▁Appeal	-11925
▁excuse	-11926
▁malade	-11927
▁oublié	-11928
▁remove	-11929
▁réflex	-11930
iendrait	-11931
▁binding	-11932
▁evening	-11933
▁imports	-11934
▁lessons	-11935
▁shouldn	-11936
▁entirely	-11937
▁offering	-11938
▁phenomen	-11939
▁Permanent	-11940
▁concrètes	-11941
▁construire	-11942
▁perfectionn	-11943
▁parliamentary	-11944
mas	-11945
▁Peu	-11946
▁cél	-11947
ental	-11948
iteur	-11949
ogues	-11950
▁blue	-11951
▁gang	-11952
▁pull	-11953
▁unil	-11954
▁inhib	-11955
aujourd	-11956
valence	-11957
▁Street	-11958
▁ferait	-11959
▁shares	-11960
▁biennal	-11961
▁devriez	-11962
▁welfare	-11963
▁étudier	-11964
▁suggests	-11965
opposition	-11966
▁utilisent	-11967
▁yesterday	-11968
▁Evaluation	-11969
▁functioning	-11970
▁prostitution	-11971
kh	-11972
awn	-11973
▁%)	-11974
▁Ur	-11975
actu	-11976
▁Bes	-11977
▁Ici	-11978
▁Mun	-11979
akers	-11980
▁Sign	-11981
▁fixé	-11982
▁nurs	-11983
▁trip	-11984
▁Costa	-11985
▁charm	-11986
▁gagné	-11987
▁homes	-11988
▁repas	-11989
▁futurs	-11990
▁grants	-11991
▁tranqu	-11992
▁divorce	-11993
▁rappelé	-11994
▁scrutin	-11995
▁initiale	-11996
▁mandatory	-11997
▁ordinaire	-11998
▁américains	-11999
▁climatique	-12000
▁indications	-12001
▁constitutional	-12002
▁manifestations	-12003
-7	-12004
sta	-12005
ogen	-12006
▁14,	-12007
▁sté	-12008
extra	-12009
érité	-12010
▁Côte	-12011
iences	-12012
inaire	-12013
▁coûte	-12014
▁récon	-12015
▁equity	-12016
▁lawyer	-12017
▁scared	-12018
apporter	-12019
paravant	-12020
▁College	-12021
▁horizont	-12022
▁worldwide	-12023
▁américaine	-12024
▁indépendants	-12025
Etat	-12026
free	-12027
▁Count	-12028
estival	-12029
▁Access	-12030
▁caught	-12031
▁output	-12032
êtements	-12033
▁complic	-12034
▁majeure	-12035
▁tobacco	-12036
▁accorder	-12037
▁contrary	-12038
▁expliqué	-12039
▁registre	-12040
▁bibliothè	-12041
▁infection	-12042
▁monétaire	-12043
▁screening	-12044
▁visiteurs	-12045
▁biologique	-12046
▁continuous	-12047
▁précédente	-12048
▁Agriculture	-12049
WP	-12050
ARC	-12051
▁$3	-12052
▁mg	-12053
âtre	-12054
étis	-12055
▁Dev	-12056
▁tch	-12057
▁peau	-12058
▁scén	-12059
▁défic	-12060
▁adults	-12061
▁chauff	-12062
▁covers	-12063
▁joined	-12064
▁philos	-12065
▁vieill	-12066
▁winter	-12067
▁Myanmar	-12068
▁broader	-12069
▁mettent	-12070
▁profile	-12071
▁reprise	-12072
▁défendre	-12073
▁fichiers	-12074
▁qualités	-12075
▁speakers	-12076
▁exceptions	-12077
▁permission	-12078
▁améliorations	-12079
kin	-12080
sen	-12081
▁49	-12082
CTAD	-12083
gner	-12084
▁Jim	-12085
▁cab	-12086
▁pip	-12087
▁rav	-12088
ellow	-12089
▁Chef	-12090
▁Meas	-12091
▁libr	-12092
▁wine	-12093
▁ferai	-12094
▁injec	-12095
▁avocat	-12096
▁célébr	-12097
▁entrée	-12098
▁racial	-12099
▁scheme	-12100
▁solide	-12101
▁stimul	-12102
▁Nunavut	-12103
▁définis	-12104
▁western	-12105
▁endroits	-12106
▁supervis	-12107
Atlantique	-12108
▁radiodiff	-12109
électricité	-12110
▁absolument	-12111
▁enseignants	-12112
hu	-12113
▁56	-12114
assé	-12115
▁fal	-12116
▁pes	-12117
▁sad	-12118
aises	-12119
èdent	-12120
▁soix	-12121
érieur	-12122
▁1993,	-12123
▁blind	-12124
▁dance	-12125
▁hoped	-12126
▁mouth	-12127
▁récol	-12128
tements	-12129
▁Proced	-12130
▁jouent	-12131
idemment	-12132
▁prisonn	-12133
▁surveys	-12134
▁warrant	-12135
▁duration	-12136
▁informer	-12137
▁comparison	-12138
▁solidarité	-12139
▁Directorate	-12140
▁necessarily	-12141
▁indépendante	-12142
ardi	-12143
forn	-12144
mans	-12145
▁UNF	-12146
abled	-12147
issez	-12148
utors	-12149
érone	-12150
▁Open	-12151
▁crew	-12152
▁ital	-12153
▁rose	-12154
illage	-12155
indemn	-12156
▁Alban	-12157
▁hyper	-12158
▁voter	-12159
▁Bosnia	-12160
▁Excell	-12161
▁entière	-12162
▁envisag	-12163
▁salaire	-12164
▁suprême	-12165
énagement	-12166
▁aérienne	-12167
▁Brunswick	-12168
▁constitué	-12169
▁nutrition	-12170
affectation	-12171
▁appliquées	-12172
▁sustainability	-12173
bed	-12174
ctr	-12175
lob	-12176
▁(3	-12177
▁==	-12178
ouer	-12179
▁15,	-12180
▁Rev	-12181
▁Rog	-12182
▁voc	-12183
encer	-12184
aucune	-12185
oureux	-12186
▁ports	-12187
▁trucs	-12188
discipl	-12189
▁infirm	-12190
▁survie	-12191
▁écoute	-12192
humanité	-12193
▁couvrir	-12194
▁délinqu	-12195
▁eastern	-12196
▁Affaires	-12197
▁normally	-12198
▁capitaine	-12199
▁preparing	-12200
▁préserver	-12201
▁relevance	-12202
▁conviction	-12203
interdiction	-12204
▁échantillons	-12205
ba	-12206
can	-12207
lée	-12208
uine	-12209
▁11.	-12210
▁FBI	-12211
aling	-12212
ceans	-12213
▁Hung	-12214
▁Viet	-12215
▁amie	-12216
▁blog	-12217
▁cast	-12218
▁mons	-12219
▁actif	-12220
▁index	-12221
▁toler	-12222
▁Encore	-12223
▁classi	-12224
▁thèmes	-12225
▁éclair	-12226
▁diverse	-12227
▁weather	-12228
▁revenues	-12229
▁suitable	-12230
placements	-12231
▁fédérales	-12232
▁generated	-12233
▁president	-12234
▁Luxembourg	-12235
▁fonctionne	-12236
▁traditions	-12237
▁judiciaires	-12238
▁étroitement	-12239
élargissement	-12240
▁contributing	-12241
▁Implementation	-12242
SR	-12243
ADA	-12244
▁53	-12245
▁58	-12246
▁Pen	-12247
▁Unf	-12248
▁seg	-12249
▁sph	-12250
▁Make	-12251
▁push	-12252
▁Power	-12253
▁chrom	-12254
▁loved	-12255
▁motor	-12256
▁plane	-12257
▁telec	-12258
▁pestic	-12259
▁associé	-12260
▁samples	-12261
▁logiciel	-12262
▁mortality	-12263
▁appartenant	-12264
▁observation	-12265
▁expectations	-12266
▁Communication	-12267
▁prescriptions	-12268
ÉS	-12269
▁Là	-12270
argo	-12271
arie	-12272
uela	-12273
▁Pay	-12274
expri	-12275
▁flat	-12276
▁none	-12277
▁Point	-12278
▁veget	-12279
Alberta	-12280
▁finish	-12281
▁fondées	-12282
▁plenary	-12283
▁remarqu	-12284
▁segment	-12285
▁servent	-12286
▁studied	-12287
▁academic	-12288
▁annually	-12289
▁espérons	-12290
▁formuler	-12291
▁heureuse	-12292
▁jeunesse	-12293
▁patterns	-12294
▁politici	-12295
▁presents	-12296
▁tiennent	-12297
université	-12298
▁Caribbean	-12299
▁Recommend	-12300
▁assurance	-12301
▁détaillée	-12302
▁executive	-12303
▁inventory	-12304
▁lancement	-12305
▁permitted	-12306
▁conducting	-12307
▁britannique	-12308
▁permettront	-12309
▁statistique	-12310
▁catastrophes	-12311
▁+	-12312
▁99	-12313
Inde	-12314
akes	-12315
ésie	-12316
▁DNA	-12317
▁Dra	-12318
▁hal	-12319
▁luc	-12320
▁ring	-12321
▁album	-12322
▁fraud	-12323
▁kilom	-12324
▁trace	-12325
tective	-12326
▁Norway	-12327
▁exhaus	-12328
▁portes	-12329
▁reçoit	-12330
▁refugee	-12331
itiatives	-12332
▁expanded	-12333
▁proposés	-12334
▁apportées	-12335
▁approches	-12336
▁convinced	-12337
▁satisfied	-12338
▁applicants	-12339
▁fournissent	-12340
▁parfaitement	-12341
▁officiellement	-12342
lés	-12343
ési	-12344
▁NO	-12345
▁hô	-12346
▁Jes	-12347
▁Leg	-12348
▁dry	-12349
aband	-12350
geant	-12351
▁Jane	-12352
▁faim	-12353
▁jugé	-12354
▁perç	-12355
tioned	-12356
udence	-12357
▁Celui	-12358
▁Prends	-12359
▁decade	-12360
▁phases	-12361
▁pursue	-12362
▁Finance	-12363
▁Perhaps	-12364
▁bilatér	-12365
▁engagés	-12366
▁garçons	-12367
▁offence	-12368
▁penalty	-12369
▁totally	-12370
foundland	-12371
▁reprises	-12372
▁trouvera	-12373
▁dependent	-12374
▁combination	-12375
▁conjointement	-12376
▁programmation	-12377
22	-12378
ocr	-12379
chée	-12380
▁Tex	-12381
▁dér	-12382
usted	-12383
▁chev	-12384
▁fati	-12385
▁visa	-12386
▁Parks	-12387
▁cerve	-12388
▁circu	-12389
▁owner	-12390
ampleur	-12391
▁gentil	-12392
▁decades	-12393
▁illness	-12394
▁savings	-12395
▁établit	-12396
▁ateliers	-12397
▁médecine	-12398
▁retrouve	-12399
▁numérique	-12400
▁discipline	-12401
▁manufacturing	-12402
Esp	-12403
loc	-12404
conf	-12405
used	-12406
éria	-12407
▁Bah	-12408
oints	-12409
▁AIDS	-12410
▁soup	-12411
▁Kenya	-12412
▁chain	-12413
▁exemp	-12414
▁remis	-12415
▁volet	-12416
▁yield	-12417
▁Monday	-12418
▁Soudan	-12419
▁desire	-12420
▁mètres	-12421
▁nobody	-12422
▁phosph	-12423
▁résumé	-12424
▁tested	-12425
▁voting	-12426
▁license	-12427
▁publiés	-12428
▁revient	-12429
▁2003-200	-12430
▁mondiaux	-12431
▁disappear	-12432
▁matériaux	-12433
▁physiques	-12434
▁somewhere	-12435
▁Présidente	-12436
▁existantes	-12437
▁arrangement	-12438
▁considérées	-12439
▁déploiement	-12440
▁fondamental	-12441
▁highlighted	-12442
EX	-12443
ón	-12444
▁59	-12445
oval	-12446
▁HCR	-12447
eties	-12448
iforn	-12449
▁Jose	-12450
▁Note	-12451
▁curr	-12452
▁quas	-12453
▁énum	-12454
onnage	-12455
▁dîner	-12456
institu	-12457
▁patron	-12458
▁Défense	-12459
▁Italian	-12460
▁answers	-12461
▁plantes	-12462
▁occupied	-12463
▁connected	-12464
▁découvrir	-12465
▁préoccupé	-12466
▁remplacer	-12467
▁souverain	-12468
▁conversion	-12469
▁prévisions	-12470
▁supérieurs	-12471
▁restriction	-12472
EU	-12473
▁#	-12474
éma	-12475
▁96	-12476
ativ	-12477
zech	-12478
ômes	-12479
bourg	-12480
duits	-12481
onnel	-12482
▁jard	-12483
▁math	-12484
Canada	-12485
▁Enter	-12486
▁Thurs	-12487
▁drôle	-12488
▁théra	-12489
▁voire	-12490
▁Prosec	-12491
▁Singap	-12492
▁belief	-12493
▁branch	-12494
▁capaci	-12495
▁Islamic	-12496
▁genetic	-12497
équilibre	-12498
▁capitaux	-12499
▁contrast	-12500
▁devrions	-12501
▁disaster	-12502
▁innocent	-12503
▁veuillez	-12504
▁welcomes	-12505
Initiative	-12506
▁formulées	-12507
▁Amendement	-12508
▁acceptance	-12509
▁competence	-12510
▁accessibles	-12511
organisations	-12512
▁Newfoundland	-12513
▁consentement	-12514
▁sensibiliser	-12515
▁extraordinaire	-12516
▁HR	-12517
▁Big	-12518
▁Mel	-12519
eller	-12520
▁lies	-12521
▁ride	-12522
▁âgés	-12523
aisons	-12524
▁Asian	-12525
▁Corre	-12526
▁enjeux	-12527
▁inquié	-12528
▁médical	-12529
▁evaluate	-12530
▁finished	-12531
▁probable	-12532
▁découvert	-12533
▁souhaitent	-12534
▁variations	-12535
▁électorale	-12536
▁biologiques	-12537
oler	-12538
▁190	-12539
▁Boy	-12540
▁VII	-12541
▁loy	-12542
▁Brit	-12543
▁Pass	-12544
▁rêve	-12545
▁subi	-12546
▁îles	-12547
▁Aussi	-12548
▁artif	-12549
▁détec	-12550
▁réjou	-12551
▁UNCTAD	-12552
▁occurr	-12553
▁organe	-12554
▁papers	-12555
▁pêches	-12556
aéroport	-12557
tionnels	-12558
▁alcohol	-12559
▁disparu	-12560
▁douanes	-12561
▁prenant	-12562
▁consists	-12563
▁déjeuner	-12564
▁plénière	-12565
▁reaching	-12566
▁employeurs	-12567
▁Unfortunately	-12568
▁disponibilité	-12569
{\	-12570
:00	-12571
hyd	-12572
édé	-12573
▁11,	-12574
▁30,	-12575
▁Yet	-12576
audit	-12577
leurs	-12578
rogen	-12579
▁Club	-12580
espoir	-12581
ommage	-12582
onomie	-12583
enfance	-12584
▁Marine	-12585
▁magnif	-12586
▁milieux	-12587
▁sitting	-12588
▁carefully	-12589
▁confusion	-12590
▁Presidency	-12591
▁classified	-12592
▁compagnies	-12593
▁potentiels	-12594
▁similaires	-12595
▁manufacturer	-12596
hum	-12597
las	-12598
you	-12599
zég	-12600
▁os	-12601
alem	-12602
▁Eli	-12603
▁Fuck	-12604
▁cook	-12605
▁Angel	-12606
▁Goals	-12607
▁grain	-12608
▁scene	-12609
▁unité	-12610
▁driver	-12611
▁savait	-12612
argement	-12613
zégovine	-12614
▁Current	-12615
▁acheter	-12616
▁hauteur	-12617
▁visites	-12618
▁attentes	-12619
▁conjoint	-12620
▁monetary	-12621
▁versions	-12622
▁locations	-12623
▁proximité	-12624
▁préjudice	-12625
▁suffering	-12626
▁capacities	-12627
▁conseiller	-12628
▁infraction	-12629
▁legitimate	-12630
▁mouvements	-12631
▁présentant	-12632
▁Chairperson	-12633
▁intéressées	-12634
Le	-12635
uctu	-12636
▁Arc	-12637
▁GDP	-12638
uling	-12639
▁abst	-12640
▁Legal	-12641
▁Durant	-12642
▁Madrid	-12643
▁défini	-12644
▁William	-12645
▁citizen	-12646
▁coopéra	-12647
▁interim	-12648
▁publish	-12649
▁Adoption	-12650
▁covering	-12651
▁customer	-12652
▁illicite	-12653
▁variable	-12654
occupation	-12655
▁reprendre	-12656
▁résidents	-12657
▁Lieutenant	-12658
▁concernent	-12659
▁Accordingly	-12660
▁certificate	-12661
▁explanation	-12662
▁opérationnel	-12663
▁traditionnelles	-12664
breg	-12665
▁Tob	-12666
euros	-12667
outil	-12668
point	-12669
rages	-12670
toral	-12671
▁Tony	-12672
▁thir	-12673
Israël	-12674
idding	-12675
▁Conta	-12676
▁Tiens	-12677
▁UNHCR	-12678
▁congé	-12679
▁croit	-12680
▁faill	-12681
▁glace	-12682
▁lands	-12683
▁lived	-12684
▁monit	-12685
▁prime	-12686
▁visée	-12687
▁weren	-12688
▁Museum	-12689
▁pointe	-12690
▁remote	-12691
▁sounds	-12692
▁Islands	-12693
▁bizarre	-12694
▁trading	-12695
▁élevées	-12696
▁énoncés	-12697
istrative	-12698
▁describe	-12699
▁managing	-12700
▁Ombudsman	-12701
▁Strategic	-12702
▁reçoivent	-12703
Herzégovine	-12704
institution	-12705
▁deployment	-12706
▁emphasized	-12707
4/	-12708
Iv	-12709
opol	-12710
vège	-12711
céans	-12712
itons	-12713
▁Gard	-12714
▁skin	-12715
▁fifty	-12716
▁islam	-12717
▁rôles	-12718
▁sweet	-12719
▁theme	-12720
▁Provin	-12721
▁avions	-12722
▁exécut	-12723
▁navire	-12724
▁dangers	-12725
▁déteste	-12726
inational	-12727
▁pourtant	-12728
▁powerful	-12729
▁revanche	-12730
▁Technical	-12731
▁africains	-12732
▁combating	-12733
▁demandeur	-12734
▁suffisant	-12735
▁poursuites	-12736
▁capabilities	-12737
▁réglementaire	-12738
Com	-12739
▁$.	-12740
veux	-12741
▁800	-12742
▁jet	-12743
iable	-12744
▁Pren	-12745
▁RCMP	-12746
▁boat	-12747
ternes	-12748
timent	-12749
umping	-12750
▁Carol	-12751
▁flows	-12752
▁quiet	-12753
▁signs	-12754
▁parles	-12755
▁requér	-12756
▁Arrêtez	-12757
▁accused	-12758
▁observe	-12759
▁Labrador	-12760
▁estimate	-12761
▁insuffis	-12762
▁destroyed	-12763
▁operators	-12764
▁passagers	-12765
▁scolaires	-12766
▁ressortiss	-12767
▁Description	-12768
▁Transportation	-12769
CI	-12770
bid	-12771
ini	-12772
▁62	-12773
avor	-12774
tons	-12775
▁Cra	-12776
▁Iss	-12777
▁PDF	-12778
annes	-12779
octro	-12780
▁king	-12781
▁pois	-12782
▁Micro	-12783
▁aggra	-12784
▁sides	-12785
ternoon	-12786
ugoslav	-12787
▁réelle	-12788
▁talked	-12789
▁Romania	-12790
▁avancés	-12791
▁borders	-12792
▁carbone	-12793
▁exercer	-12794
▁imagine	-12795
▁racisme	-12796
▁Insurance	-12797
▁attendant	-12798
▁constante	-12799
▁depending	-12800
▁Assistance	-12801
▁calculated	-12802
▁composante	-12803
Ex	-12804
▁um	-12805
osis	-12806
▁roi	-12807
▁tue	-12808
aïbes	-12809
bonne	-12810
inder	-12811
▁Nick	-12812
▁séqu	-12813
▁wear	-12814
quette	-12815
utilis	-12816
▁Among	-12817
▁alarm	-12818
▁reçus	-12819
▁shift	-12820
▁twice	-12821
▁varie	-12822
▁severe	-12823
▁window	-12824
▁wished	-12825
izations	-12826
▁Monitor	-12827
▁claimed	-12828
▁docteur	-12829
▁equally	-12830
▁replace	-12831
▁serving	-12832
▁endorsed	-12833
▁equipped	-12834
▁déplacées	-12835
▁envisager	-12836
▁biological	-12837
▁contamination	-12838
▁considerations	-12839
▁Malheureusement	-12840
Ir	-12841
FOR	-12842
fon	-12843
osh	-12844
▁Ku	-12845
ails	-12846
cking	-12847
eters	-12848
▁Rest	-12849
▁corp	-12850
▁hall	-12851
▁oise	-12852
▁para	-12853
▁vies	-12854
▁block	-12855
▁movie	-12856
▁parad	-12857
▁ridic	-12858
assador	-12859
▁Scotia	-12860
▁ordres	-12861
▁acceler	-12862
▁affirme	-12863
▁dismiss	-12864
▁heading	-12865
▁jurispr	-12866
▁payable	-12867
▁vacances	-12868
▁apartment	-12869
▁campagnes	-12870
▁démontrer	-12871
association	-12872
▁recueillir	-12873
▁acquisition	-12874
▁considérables	-12875
")	-12876
AG	-12877
fol	-12878
nez	-12879
▁SP	-12880
rupt	-12881
what	-12882
▁Ris	-12883
▁dic	-12884
atric	-12885
cause	-12886
lines	-12887
▁oral	-12888
actory	-12889
ressed	-12890
▁1991,	-12891
▁Again	-12892
▁Egypt	-12893
▁créée	-12894
▁ferro	-12895
▁finds	-12896
▁revue	-12897
ministr	-12898
▁Proper	-12899
▁ferais	-12900
▁titres	-12901
émission	-12902
▁entente	-12903
▁mistake	-12904
▁reinfor	-12905
▁Yugoslav	-12906
▁attended	-12907
▁enabling	-12908
▁internet	-12909
▁appareils	-12910
▁assessing	-12911
▁finalement	-12912
▁libération	-12913
▁productive	-12914
▁propriétaires	-12915
▁transnational	-12916
▁Communications	-12917
▁parlementaires	-12918
73	-12919
ahar	-12920
immy	-12921
▁250	-12922
▁SAR	-12923
▁Say	-12924
activ	-12925
image	-12926
▁entr	-12927
▁wake	-12928
▁Cross	-12929
▁baiss	-12930
▁boire	-12931
▁ended	-12932
▁royal	-12933
ourable	-12934
▁bought	-12935
▁disent	-12936
▁incomp	-12937
▁méthod	-12938
▁profil	-12939
▁reçues	-12940
▁ventil	-12941
▁Cabinet	-12942
▁Londres	-12943
▁diminué	-12944
▁homolog	-12945
▁lacunes	-12946
▁parking	-12947
▁prosper	-12948
▁appeared	-12949
▁watching	-12950
encourager	-12951
▁cinquième	-12952
▁systematic	-12953
▁advertising	-12954
▁coordinated	-12955
85	-12956
▁Um	-12957
Iran	-12958
ophy	-12959
▁Sén	-12960
ésion	-12961
▁irre	-12962
▁Watch	-12963
▁froid	-12964
▁Morocc	-12965
▁brings	-12966
▁insist	-12967
▁objets	-12968
▁arrived	-12969
▁derived	-12970
▁receipt	-12971
emination	-12972
▁appliqué	-12973
▁balanced	-12974
imposition	-12975
▁Political	-12976
▁disposent	-12977
▁correctement	-12978
▁Administrative	-12979
%,	-12980
gm	-12981
▁63	-12982
▁TB	-12983
omes	-12984
trum	-12985
urés	-12986
éral	-12987
adequ	-12988
entir	-12989
▁Fine	-12990
▁Roma	-12991
▁erad	-12992
▁1992,	-12993
▁marge	-12994
▁pieds	-12995
ochtone	-12996
ulteurs	-12997
▁latine	-12998
▁remédi	-12999
anglades	-13000
audience	-13001
entendre	-13002
ulgation	-13003
▁passant	-13004
▁Beaucoup	-13005
▁Thursday	-13006
▁possibly	-13007
▁sûrement	-13008
▁cohérence	-13009
▁cooperate	-13010
▁Prevention	-13011
▁législatif	-13012
▁compétentes	-13013
▁measurement	-13014
▁volontaires	-13015
▁complémentaires	-13016
ria	-13017
▁lu	-13018
tuer	-13019
▁egg	-13020
adore	-13021
asile	-13022
azing	-13023
being	-13024
quait	-13025
▁fill	-13026
▁ryth	-13027
▁soud	-13028
▁ster	-13029
▁newsp	-13030
▁plait	-13031
▁wrote	-13032
entrepr	-13033
pective	-13034
▁Employ	-13035
▁chauss	-13036
▁ladies	-13037
▁occupe	-13038
▁savent	-13039
▁moments	-13040
▁tension	-13041
Australie	-13042
▁Californ	-13043
▁Caraïbes	-13044
▁conclude	-13045
▁maximale	-13046
▁Indonesia	-13047
▁printemps	-13048
▁auparavant	-13049
▁colleagues	-13050
▁perception	-13051
▁submissions	-13052
née	-13053
▁DG	-13054
tite	-13055
aille	-13056
raire	-13057
suite	-13058
▁Avez	-13059
ourses	-13060
▁Czech	-13061
emplois	-13062
tituted	-13063
▁contac	-13064
▁relate	-13065
▁révélé	-13066
▁Princip	-13067
▁Without	-13068
▁airport	-13069
▁exposed	-13070
▁préparé	-13071
▁retirer	-13072
atisation	-13073
▁coopérer	-13074
▁privilég	-13075
▁reaffirm	-13076
▁sponsors	-13077
▁réfléchir	-13078
▁appropriés	-13079
▁atmosphere	-13080
▁comparable	-13081
▁compromise	-13082
▁interviews	-13083
▁professeur	-13084
▁significative	-13085
ECD	-13086
bye	-13087
▁PM	-13088
olie	-13089
ulum	-13090
▁120	-13091
▁McG	-13092
actif	-13093
anson	-13094
eneur	-13095
iquez	-13096
tiles	-13097
utile	-13098
âteau	-13099
▁Site	-13100
icious	-13101
▁Marsh	-13102
▁Siège	-13103
▁cumul	-13104
alities	-13105
▁croyez	-13106
▁fantas	-13107
▁refers	-13108
▁relevé	-13109
tisseurs	-13110
▁advised	-13111
▁assumed	-13112
▁killing	-13113
▁Province	-13114
▁currency	-13115
▁exprimer	-13116
▁rassembl	-13117
▁afternoon	-13118
▁ethniques	-13119
▁frequency	-13120
▁historiques	-13121
▁laboratoire	-13122
▁headquarters	-13123
▁|	-13124
▁err	-13125
▁lend	-13126
▁pand	-13127
▁Effec	-13128
▁Quant	-13129
▁atten	-13130
▁lucky	-13131
▁Kazakh	-13132
▁bassin	-13133
▁mostly	-13134
▁quitté	-13135
▁situés	-13136
▁faisons	-13137
▁maisons	-13138
▁players	-13139
▁raising	-13140
▁worried	-13141
Brunswick	-13142
▁Belgique	-13143
▁atteinte	-13144
▁réaffirm	-13145
▁réalisée	-13146
▁staffing	-13147
▁stronger	-13148
▁subjects	-13149
▁indiquant	-13150
▁compatible	-13151
▁coordonner	-13152
▁frequently	-13153
▁kilomètres	-13154
▁anticipated	-13155
▁personnelle	-13156
▁autorisation	-13157
▁corporations	-13158
▁corresponding	-13159
ada	-13160
esc	-13161
ias	-13162
▁51	-13163
▁ly	-13164
atar	-13165
phab	-13166
âche	-13167
aucun	-13168
venth	-13169
▁Kong	-13170
▁buts	-13171
▁hers	-13172
adress	-13173
onique	-13174
▁finir	-13175
▁riche	-13176
▁truly	-13177
ography	-13178
▁consol	-13179
▁weapon	-13180
▁Revenue	-13181
▁arrivée	-13182
▁atelier	-13183
▁ferrovi	-13184
▁violent	-13185
▁wearing	-13186
▁Internal	-13187
▁Roumanie	-13188
▁étranger	-13189
▁convaincu	-13190
▁disclosure	-13191
▁paramètres	-13192
▁Performance	-13193
▁réalisations	-13194
bé	-13195
hr	-13196
grou	-13197
ifax	-13198
lict	-13199
board	-13200
icien	-13201
▁Asie	-13202
▁chief	-13203
▁heads	-13204
▁litté	-13205
▁lucra	-13206
▁battre	-13207
▁hazard	-13208
▁recall	-13209
▁Francis	-13210
▁Norvège	-13211
▁incombe	-13212
▁2000-200	-13213
▁mobilité	-13214
▁précises	-13215
▁Fondation	-13216
▁démograph	-13217
▁inférieur	-13218
▁régissant	-13219
▁évolution	-13220
▁dispositifs	-13221
▁exemplaires	-13222
▁jurisprudence	-13223
▁opérationnels	-13224
OV	-13225
▁IC	-13226
prun	-13227
▁Sun	-13228
issau	-13229
spoke	-13230
▁Zeal	-13231
riment	-13232
▁saved	-13233
itables	-13234
▁ancien	-13235
▁broken	-13236
▁losses	-13237
▁surviv	-13238
▁wealth	-13239
▁Désolée	-13240
▁Zealand	-13241
▁fournie	-13242
▁mentale	-13243
▁équilib	-13244
▁Actually	-13245
▁declared	-13246
▁durables	-13247
▁reliable	-13248
▁taxation	-13249
▁visitors	-13250
▁fréquence	-13251
▁facultatif	-13252
▁guarantees	-13253
▁identifier	-13254
▁migrations	-13255
▁fournisseur	-13256
▁transmitted	-13257
▁)	-13258
ato	-13259
eto	-13260
écl	-13261
▁PA	-13262
▁TO	-13263
▁adm	-13264
▁bio	-13265
▁furn	-13266
▁soll	-13267
▁stup	-13268
▁thor	-13269
région	-13270
sively	-13271
stèmes	-13272
▁Radio	-13273
▁grown	-13274
▁metal	-13275
▁traum	-13276
▁êtres	-13277
▁Option	-13278
▁Thomas	-13279
▁licens	-13280
▁subreg	-13281
erveille	-13282
▁Natural	-13283
▁suspend	-13284
▁Cultural	-13285
▁Standard	-13286
▁accurate	-13287
▁autorité	-13288
▁suffered	-13289
▁quantités	-13290
▁societies	-13291
▁commandant	-13292
▁industrielle	-13293
▁nécessairement	-13294
42	-13295
uie	-13296
fined	-13297
icate	-13298
▁Sand	-13299
▁crée	-13300
▁fous	-13301
▁plur	-13302
▁vert	-13303
Ivoire	-13304
ashion	-13305
second	-13306
tified	-13307
uclear	-13308
▁roman	-13309
▁shape	-13310
▁urged	-13311
appeler	-13312
▁déclen	-13313
▁arising	-13314
▁livrais	-13315
▁suivent	-13316
▁acquired	-13317
▁director	-13318
▁entraîne	-13319
▁ethnique	-13320
▁horrible	-13321
▁Relations	-13322
▁appliquée	-13323
▁demeurent	-13324
▁sustained	-13325
▁Guidelines	-13326
▁concentrer	-13327
▁favorables	-13328
▁interaction	-13329
▁opérationnelle	-13330
ND	-13331
▁CM	-13332
▁Os	-13333
▁Ra	-13334
ania	-13335
oung	-13336
▁Dép	-13337
▁Tou	-13338
▁coc	-13339
zegov	-13340
▁Doha	-13341
▁SMEs	-13342
▁arab	-13343
▁Kyoto	-13344
▁voici	-13345
entists	-13346
▁ajouté	-13347
▁bottom	-13348
▁encoun	-13349
▁feront	-13350
▁interm	-13351
▁listes	-13352
▁respir	-13353
zegovina	-13354
▁greatly	-13355
▁mandats	-13356
▁prouver	-13357
▁generate	-13358
▁habitats	-13359
▁ratified	-13360
▁rechange	-13361
▁autochtone	-13362
▁génération	-13363
▁recognizes	-13364
▁achievements	-13365
▁personnelles	-13366
▁technologique	-13367
gon	-13368
ére	-13369
▁47	-13370
▁cm	-13371
OSCE	-13372
avoc	-13373
▁GST	-13374
▁McC	-13375
gypte	-13376
▁Balk	-13377
▁honn	-13378
▁spot	-13379
alinéa	-13380
istait	-13381
▁Azerb	-13382
▁Total	-13383
▁lunch	-13384
▁meurt	-13385
▁réaff	-13386
▁saisi	-13387
royable	-13388
▁accéder	-13389
▁déposer	-13390
▁secrets	-13391
exclusion	-13392
▁Victoria	-13393
▁encourag	-13394
▁positifs	-13395
▁pregnant	-13396
▁salaires	-13397
▁remarquer	-13398
▁mainstream	-13399
▁permanents	-13400
▁réparation	-13401
▁industriels	-13402
▁intelligence	-13403
▁significance	-13404
Qu	-13405
how	-13406
irt	-13407
ifth	-13408
odge	-13409
▁Wel	-13410
dames	-13411
▁enth	-13412
ancien	-13413
Écosse	-13414
▁broch	-13415
▁incon	-13416
▁CNUCED	-13417
▁Lisbon	-13418
▁affili	-13419
angladesh	-13420
organiser	-13421
▁requiring	-13422
▁prohibited	-13423
▁Organisation	-13424
▁€	-13425
.10	-13426
erm	-13427
▁Bu	-13428
gary	-13429
onel	-13430
wing	-13431
▁Bat	-13432
▁Cli	-13433
▁Lar	-13434
▁Jeux	-13435
▁MINU	-13436
▁Next	-13437
▁jeux	-13438
avance	-13439
▁Sched	-13440
▁exter	-13441
▁lying	-13442
▁frustr	-13443
▁propag	-13444
entielle	-13445
▁Coordin	-13446
▁Lebanon	-13447
▁Limited	-13448
▁Moldova	-13449
▁assisté	-13450
▁cerveau	-13451
▁condemn	-13452
▁envoyer	-13453
▁observé	-13454
▁stopped	-13455
▁Archives	-13456
▁associée	-13457
▁promoted	-13458
▁remédier	-13459
▁tensions	-13460
▁centaines	-13461
▁exclusion	-13462
▁suppliers	-13463
▁directions	-13464
ee	-13465
réd	-13466
anka	-13467
phen	-13468
▁Resp	-13469
▁Sher	-13470
▁gift	-13471
abitat	-13472
advant	-13473
améric	-13474
▁Check	-13475
▁Looks	-13476
▁miles	-13477
▁plays	-13478
▁Berlin	-13479
▁Within	-13480
▁intens	-13481
▁qualit	-13482
▁signer	-13483
▁surmon	-13484
▁update	-13485
▁pourrez	-13486
▁poursuit	-13487
▁reaction	-13488
▁soumises	-13489
amendement	-13490
▁résultant	-13491
▁diplomatic	-13492
▁instamment	-13493
▁laboratory	-13494
▁juridiction	-13495
ji	-13496
▁72	-13497
▁97	-13498
eces	-13499
ordi	-13500
quis	-13501
riel	-13502
utch	-13503
élev	-13504
▁Hur	-13505
▁Occ	-13506
▁Ros	-13507
arios	-13508
▁Post	-13509
▁Tant	-13510
▁bour	-13511
▁chat	-13512
▁célè	-13513
▁sida	-13514
Italie	-13515
ateful	-13516
terdam	-13517
ussels	-13518
▁vraie	-13519
employé	-13520
▁brevet	-13521
▁deaths	-13522
▁entour	-13523
▁thinks	-13524
▁étudié	-13525
▁Belarus	-13526
▁deposit	-13527
▁forever	-13528
▁normale	-13529
▁raciale	-13530
▁smoking	-13531
▁toucher	-13532
▁vendredi	-13533
▁effectifs	-13534
▁prescribed	-13535
▁Canadiennes	-13536
▁constitutes	-13537
▁inspections	-13538
▁surrounding	-13539
UM	-13540
(3)	-13541
▁AU	-13542
inea	-13543
▁ICT	-13544
▁PIB	-13545
▁lob	-13546
icing	-13547
ijing	-13548
ingue	-13549
▁Moun	-13550
▁cous	-13551
ATIONS	-13552
apping	-13553
onnaie	-13554
▁brill	-13555
▁douce	-13556
▁inqui	-13557
▁kinds	-13558
▁venus	-13559
reshold	-13560
▁espère	-13561
▁tenues	-13562
attendre	-13563
▁college	-13564
▁extreme	-13565
▁ordered	-13566
▁reflète	-13567
▁intervenir	-13568
▁constraints	-13569
▁dissemination	-13570
▁réglementaires	-13571
da	-13572
ATO	-13573
STA	-13574
▁PE	-13575
▁ep	-13576
▁{\	-13577
iche	-13578
ilty	-13579
mond	-13580
zone	-13581
▁16,	-13582
▁Cou	-13583
▁fum	-13584
▁gel	-13585
▁péd	-13586
aired	-13587
itées	-13588
oured	-13589
ouses	-13590
outes	-13591
▁Gold	-13592
▁Mand	-13593
▁Time	-13594
▁cote	-13595
▁vols	-13596
holder	-13597
▁Crime	-13598
▁accru	-13599
▁Change	-13600
▁Vienne	-13601
▁façons	-13602
▁honest	-13603
▁partag	-13604
▁promis	-13605
▁troops	-13606
▁logique	-13607
▁solides	-13608
including	-13609
▁examinés	-13610
▁existant	-13611
▁overcome	-13612
▁pleasure	-13613
▁disadvant	-13614
▁participe	-13615
▁communiqué	-13616
▁titulaires	-13617
▁geographical	-13618
Administration	-13619
QU	-13620
aug	-13621
uil	-13622
▁AT	-13623
ched	-13624
rate	-13625
▁oct	-13626
▁sli	-13627
▁tor	-13628
effor	-13629
▁Area	-13630
▁Army	-13631
▁dele	-13632
▁pein	-13633
stance	-13634
▁disag	-13635
▁batter	-13636
▁duquel	-13637
▁killer	-13638
▁select	-13639
▁teneur	-13640
▁topics	-13641
ématique	-13642
▁Records	-13643
▁affirmé	-13644
▁apporte	-13645
▁artists	-13646
▁inadequ	-13647
▁offrant	-13648
▁walking	-13649
appelante	-13650
▁existent	-13651
▁réalisées	-13652
▁safeguard	-13653
▁appartient	-13654
▁definitely	-13655
▁preventing	-13656
▁Philippines	-13657
▁allégations	-13658
▁approfondie	-13659
▁potentially	-13660
▁équipements	-13661
▁interactions	-13662
▁substantially	-13663
▁rétablissement	-13664
LC	-13665
NP	-13666
Sec	-13667
anç	-13668
cés	-13669
hyp	-13670
▁UK	-13671
èche	-13672
▁Isn	-13673
▁Log	-13674
▁éth	-13675
intim	-13676
ively	-13677
onnés	-13678
riche	-13679
third	-13680
▁Stan	-13681
▁cars	-13682
▁prié	-13683
▁rats	-13684
usalem	-13685
▁adapt	-13686
▁cotis	-13687
▁lists	-13688
▁lundi	-13689
▁retur	-13690
▁steel	-13691
▁weird	-13692
Espagne	-13693
exemple	-13694
éthique	-13695
▁Center	-13696
▁Edward	-13697
▁Greece	-13698
▁appuyé	-13699
▁entity	-13700
▁nettoy	-13701
▁seules	-13702
specific	-13703
▁Calgary	-13704
▁Georgia	-13705
▁donnant	-13706
augmenter	-13707
▁clinique	-13708
▁équilibre	-13709
▁connaissez	-13710
▁methodology	-13711
▁secondaires	-13712
▁Consequently	-13713
▁Introduction	-13714
▁préliminaire	-13715
FI	-13716
ora	-13717
▁(5	-13718
extr	-13719
téri	-13720
▁GRC	-13721
▁Tok	-13722
▁fan	-13723
▁hat	-13724
▁lux	-13725
parts	-13726
▁Bell	-13727
▁atti	-13728
▁bris	-13729
ounded	-13730
▁Stock	-13731
▁broke	-13732
▁fixés	-13733
▁foods	-13734
▁leads	-13735
instant	-13736
▁Jordan	-13737
▁aperçu	-13738
▁battle	-13739
empêcher	-13740
▁Profess	-13741
▁Quelque	-13742
▁harvest	-13743
▁ramener	-13744
▁removal	-13745
▁warning	-13746
▁bulletin	-13747
▁intégrer	-13748
▁overview	-13749
▁rejected	-13750
▁précision	-13751
▁trouverez	-13752
▁vêtements	-13753
▁adaptation	-13754
▁Immigration	-13755
▁catastrophe	-13756
harmonisation	-13757
▁radiodiffusion	-13758
FA	-13759
esis	-13760
itis	-13761
▁Hos	-13762
▁cla	-13763
▁Bush	-13764
▁Util	-13765
▁ende	-13766
▁rand	-13767
octroi	-13768
▁Camer	-13769
▁Queen	-13770
▁cards	-13771
▁chick	-13772
▁rough	-13773
attants	-13774
▁dormir	-13775
▁rendue	-13776
▁Finland	-13777
▁Gazette	-13778
▁laissez	-13779
▁paralle	-13780
▁Articles	-13781
▁Whatever	-13782
▁composed	-13783
▁emission	-13784
▁excluded	-13785
▁survival	-13786
▁terminer	-13787
▁Christian	-13788
▁autrement	-13789
▁breakfast	-13790
▁districts	-13791
▁Kazakhstan	-13792
▁croissante	-13793
▁accompanied	-13794
▁restaurants	-13795
▁administratifs	-13796
▁opérationnelles	-13797
ius	-13798
rak	-13799
ugu	-13800
▁("	-13801
amps	-13802
ovis	-13803
ienna	-13804
oigne	-13805
scale	-13806
▁Mosc	-13807
▁dies	-13808
▁dieu	-13809
alists	-13810
▁intim	-13811
▁newly	-13812
▁pollu	-13813
▁resum	-13814
Irlande	-13815
▁Agenda	-13816
▁module	-13817
▁révisé	-13818
▁seemed	-13819
aculture	-13820
▁erreurs	-13821
▁redress	-13822
▁requise	-13823
▁teacher	-13824
▁wedding	-13825
employeur	-13826
▁Standing	-13827
▁renforcé	-13828
▁totalité	-13829
▁Assemblée	-13830
▁ministers	-13831
▁surmonter	-13832
▁détaillées	-13833
▁conferences	-13834
▁fonctionner	-13835
▁spécialisés	-13836
▁μ	-13837
/11	-13838
ald	-13839
ips	-13840
ota	-13841
▁Rh	-13842
▁côt	-13843
▁pet	-13844
▁tau	-13845
▁élu	-13846
impos	-13847
▁Ceux	-13848
▁Five	-13849
▁Trou	-13850
▁abor	-13851
▁calm	-13852
▁lent	-13853
▁tree	-13854
▁1994.	-13855
▁Danny	-13856
▁marry	-13857
▁rétro	-13858
▁ships	-13859
lective	-13860
▁dûment	-13861
▁object	-13862
▁rendus	-13863
▁écrite	-13864
agissait	-13865
▁Beijing	-13866
▁Ensuite	-13867
▁Halifax	-13868
▁annuels	-13869
▁authors	-13870
▁dynamic	-13871
▁désigné	-13872
▁formats	-13873
▁oublier	-13874
▁servant	-13875
▁protocol	-13876
▁signaler	-13877
organismes	-13878
▁Attention	-13879
▁Christmas	-13880
▁Sometimes	-13881
▁justifier	-13882
▁prenantes	-13883
▁radiation	-13884
▁diagnostic	-13885
▁limitation	-13886
▁restricted	-13887
▁solidarity	-13888
▁Herzegovina	-13889
▁comfortable	-13890
▁convergence	-13891
▁bénéficiaire	-13892
SH	-13893
oa	-13894
apy	-13895
▁SD	-13896
▁Add	-13897
▁Men	-13898
évent	-13899
▁Rica	-13900
▁surf	-13901
▁loans	-13902
▁solve	-13903
▁écosy	-13904
istrict	-13905
▁Projet	-13906
▁paying	-13907
▁saisir	-13908
▁summar	-13909
▁verser	-13910
▁époque	-13911
appareil	-13912
ustement	-13913
▁inhabit	-13914
▁marcher	-13915
▁requête	-13916
▁Appendix	-13917
▁augmente	-13918
▁feedback	-13919
▁incurred	-13920
▁intégrés	-13921
▁revision	-13922
▁substitu	-13923
▁Similarly	-13924
▁croissant	-13925
▁décennies	-13926
▁eventually	-13927
▁extérieure	-13928
▁passengers	-13929
▁regardless	-13930
ultinational	-13931
▁Deuxièmement	-13932
▁insufficient	-13933
CB	-13934
raf	-13935
six	-13936
▁FOR	-13937
▁Key	-13938
▁Chic	-13939
▁Laur	-13940
▁Stay	-13941
▁coff	-13942
▁fasc	-13943
▁heat	-13944
▁orph	-13945
ervers	-13946
▁Steve	-13947
▁UNECE	-13948
▁aimer	-13949
adapter	-13950
arriver	-13951
iconque	-13952
▁colère	-13953
▁décret	-13954
▁furent	-13955
▁pareil	-13956
▁rythme	-13957
▁Pologne	-13958
▁critère	-13959
mentioned	-13960
▁Everyone	-13961
▁arrested	-13962
▁imported	-13963
▁consacrée	-13964
▁divisions	-13965
▁regulated	-13966
▁Resolution	-13967
▁discovered	-13968
▁définitive	-13969
▁efficacité	-13970
▁composantes	-13971
▁systématique	-13972
SB	-13973
ION	-13974
una	-13975
gger	-13976
iale	-13977
outs	-13978
▁Top	-13979
accus	-13980
▁Lind	-13981
▁loan	-13982
oeuvre	-13983
▁Donne	-13984
▁bouge	-13985
▁crédi	-13986
▁smart	-13987
▁Survey	-13988
▁forums	-13989
▁génial	-13990
▁rejoin	-13991
resident	-13992
ressionn	-13993
▁Quelles	-13994
▁bureauc	-13995
▁dignity	-13996
▁stories	-13997
▁touchés	-13998
▁Planning	-13999
▁Remember	-14000
▁cohésion	-14001
▁moyennes	-14002
▁troubles	-14003
▁éventail	-14004
▁Countries	-14005
▁voyageurs	-14006
▁collaborer	-14007
▁semblables	-14008
▁investigate	-14009
▁amélioration	-14010
dou	-14011
enh	-14012
rat	-14013
▁$5	-14014
abol	-14015
atem	-14016
aver	-14017
heim	-14018
tory	-14019
yers	-14020
▁AUT	-14021
▁Hor	-14022
▁Tem	-14023
▁éto	-14024
édent	-14025
▁Case	-14026
▁UNEP	-14027
▁aimé	-14028
▁shop	-14029
▁tack	-14030
▁Plans	-14031
▁paras	-14032
tamment	-14033
▁Analys	-14034
▁Annual	-14035
▁majeur	-14036
▁Command	-14037
▁perturb	-14038
▁seconds	-14039
▁vieille	-14040
▁accompli	-14041
▁destinée	-14042
▁entraîné	-14043
▁freedoms	-14044
▁replaced	-14045
▁tableaux	-14046
▁blessures	-14047
▁clientèle	-14048
▁examinées	-14049
▁exemption	-14050
▁logements	-14051
▁pertinent	-14052
▁prisoners	-14053
▁secrétaire	-14054
▁dangereuses	-14055
▁electricity	-14056
▁universelle	-14057
▁confirmation	-14058
▁considerably	-14059
▁précédemment	-14060
46	-14061
Arm	-14062
cue	-14063
itt	-14064
▁Ly	-14065
iors	-14066
rase	-14067
▁13,	-14068
▁Sav	-14069
▁Sri	-14070
▁pig	-14071
achel	-14072
erner	-14073
▁Arts	-14074
▁Diff	-14075
▁Jeff	-14076
▁Merc	-14077
▁blow	-14078
▁quin	-14079
▁seed	-14080
▁somm	-14081
diovis	-14082
monton	-14083
▁chant	-14084
▁feels	-14085
▁fiche	-14086
acheter	-14087
automne	-14088
▁Notice	-14089
▁ouvrir	-14090
▁salary	-14091
▁veille	-14092
▁viande	-14093
intérêts	-14094
▁appelée	-14095
▁prononc	-14096
▁selling	-14097
▁silence	-14098
▁théorie	-14099
▁attaques	-14100
▁modifiée	-14101
▁platform	-14102
▁slightly	-14103
iterranean	-14104
▁décideurs	-14105
▁conformity	-14106
▁constamment	-14107
▁translation	-14108
▁gouvernementale	-14109
65	-14110
ppe	-14111
sur	-14112
▁61	-14113
▁SO	-14114
▁ya	-14115
serv	-14116
▁Ten	-14117
▁gay	-14118
▁mou	-14119
arbit	-14120
sives	-14121
▁Noël	-14122
▁Prac	-14123
▁Shit	-14124
▁Summ	-14125
▁east	-14126
▁expé	-14127
▁volé	-14128
alisée	-14129
▁Field	-14130
▁cesse	-14131
▁décou	-14132
▁enlev	-14133
▁venez	-14134
▁wider	-14135
oureuse	-14136
ustrial	-14137
▁Design	-14138
▁Nobody	-14139
▁assuré	-14140
▁impéra	-14141
▁mining	-14142
▁square	-14143
▁sudden	-14144
▁suivie	-14145
▁éloign	-14146
accorder	-14147
▁Système	-14148
▁légères	-14149
▁Property	-14150
▁voudrait	-14151
économique	-14152
▁pacifique	-14153
▁admissible	-14154
▁encourages	-14155
▁combinaison	-14156
▁municipalités	-14157
▁considérations	-14158
».	-14159
Pro	-14160
incl	-14161
rees	-14162
▁Rio	-14163
▁Wed	-14164
▁Cast	-14165
▁fool	-14166
▁foss	-14167
▁pair	-14168
rables	-14169
▁Crown	-14170
▁attén	-14171
▁forêt	-14172
▁voted	-14173
▁cadeau	-14174
▁couvre	-14175
▁cycles	-14176
▁posted	-14177
▁précon	-14178
▁stands	-14179
▁divided	-14180
▁joindre	-14181
▁privile	-14182
▁railway	-14183
entremise	-14184
▁Lisbonne	-14185
▁définies	-14186
▁handling	-14187
▁maîtrise	-14188
▁médicale	-14189
▁Venezuela	-14190
▁autorisée	-14191
▁integrate	-14192
▁absolutely	-14193
▁prestataire	-14194
▁spécialisées	-14195
▁renseignement	-14196
uin	-14197
win	-14198
OTAN	-14199
▁Kir	-14200
▁fen	-14201
▁fly	-14202
ocide	-14203
▁Aide	-14204
▁root	-14205
▁vast	-14206
enneté	-14207
▁Lanka	-14208
▁color	-14209
▁formé	-14210
▁smell	-14211
▁truck	-14212
▁Putain	-14213
▁défend	-14214
▁guilty	-14215
▁imprim	-14216
▁intent	-14217
▁narrow	-14218
▁suffer	-14219
assadeur	-14220
▁Belgium	-14221
▁arrière	-14222
▁empower	-14223
▁legally	-14224
▁perpetr	-14225
▁possess	-14226
▁disputes	-14227
▁drafting	-14228
▁externes	-14229
▁grateful	-14230
▁realized	-14231
identifier	-14232
▁Bangladesh	-14233
▁Honourable	-14234
▁Monitoring	-14235
▁infections	-14236
▁comparaison	-14237
XX	-14238
bur	-14239
ios	-14240
Équ	-14241
▁AP	-14242
▁BC	-14243
▁Up	-14244
▁kg	-14245
chés	-14246
cked	-14247
▁Che	-14248
▁Gib	-14249
▁Pos	-14250
▁Marc	-14251
▁judg	-14252
▁mété	-14253
▁shel	-14254
▁émis	-14255
pitaux	-14256
tituts	-14257
▁Boliv	-14258
▁Harry	-14259
▁Jimmy	-14260
▁emmen	-14261
▁games	-14262
▁nerve	-14263
▁spoke	-14264
▁vrais	-14265
▁Figure	-14266
▁Vienna	-14267
▁arabes	-14268
▁center	-14269
▁memory	-14270
▁saisie	-14271
▁tissus	-14272
essional	-14273
▁Austria	-14274
▁Medical	-14275
▁avocats	-14276
▁examens	-14277
▁focuses	-14278
▁minimal	-14279
▁organic	-14280
▁sondage	-14281
▁suggéré	-14282
▁courrier	-14283
▁reconnus	-14284
▁threshold	-14285
Afghanistan	-14286
▁Ambassador	-14287
▁acknowledged	-14288
▁investisseurs	-14289
86	-14290
89	-14291
▁±	-14292
▁mâ	-14293
OCDE	-14294
ombe	-14295
otes	-14296
sile	-14297
zing	-14298
▁oxy	-14299
▁sod	-14300
▁Tanz	-14301
▁abol	-14302
▁busy	-14303
▁doig	-14304
▁kidn	-14305
▁tail	-14306
opping	-14307
▁apart	-14308
▁error	-14309
▁neuro	-14310
▁cheval	-14311
▁denied	-14312
▁leaves	-14313
▁merely	-14314
▁peines	-14315
▁vaccin	-14316
▁visual	-14317
▁jointly	-14318
▁kidding	-14319
▁récents	-14320
▁Alliance	-14321
▁Commerce	-14322
▁dotation	-14323
▁énoncées	-14324
▁incompati	-14325
▁respected	-14326
▁workplace	-14327
▁bilatéraux	-14328
▁déterminée	-14329
▁inférieure	-14330
▁progresser	-14331
▁périodique	-14332
III	-14333
aqu	-14334
iro	-14335
opt	-14336
aute	-14337
tera	-14338
udes	-14339
wich	-14340
▁Chy	-14341
▁MPO	-14342
▁Rép	-14343
▁Wil	-14344
▁blo	-14345
amine	-14346
onome	-14347
▁cout	-14348
▁mène	-14349
▁sols	-14350
border	-14351
otypes	-14352
▁1995.	-14353
▁aides	-14354
▁bilan	-14355
▁grade	-14356
▁Americ	-14357
▁Guinea	-14358
▁houses	-14359
▁trente	-14360
▁custody	-14361
▁expliqu	-14362
▁pensons	-14363
▁visited	-14364
insertion	-14365
ématiques	-14366
▁Products	-14367
▁advisory	-14368
▁attempts	-14369
▁dissemin	-14370
▁judgment	-14371
▁medicine	-14372
▁relèvent	-14373
▁merveille	-14374
▁procureur	-14375
▁suggestion	-14376
▁déplacement	-14377
▁agriculteurs	-14378
▁linguistique	-14379
HA	-14380
ado	-14381
▁Gé	-14382
▁MA	-14383
▁SR	-14384
case	-14385
midi	-14386
▁DFO	-14387
▁Emm	-14388
▁fed	-14389
▁ral	-14390
Envir	-14391
athan	-14392
esion	-14393
icité	-14394
osion	-14395
treat	-14396
uerre	-14397
étape	-14398
▁Eric	-14399
▁Life	-14400
▁menu	-14401
▁unre	-14402
illets	-14403
▁1990.	-14404
▁Marie	-14405
▁Sarah	-14406
▁Small	-14407
▁schem	-14408
▁tough	-14409
ilities	-14410
▁Church	-14411
▁Daniel	-14412
▁Senate	-14413
▁church	-14414
▁famous	-14415
▁missed	-14416
habitude	-14417
▁chiffre	-14418
▁pilotes	-14419
▁proches	-14420
▁returns	-14421
▁échelle	-14422
▁branches	-14423
▁promised	-14424
▁decreased	-14425
▁objection	-14426
prolifération	-14427
▁Parliamentary	-14428
▁justification	-14429
▁od	-14430
▁pâ	-14431
aked	-14432
anne	-14433
enza	-14434
iler	-14435
olly	-14436
érém	-14437
▁1.1	-14438
▁wet	-14439
angle	-14440
hiver	-14441
▁CRTC	-14442
▁fard	-14443
allais	-14444
orique	-14445
▁Grèce	-14446
▁Space	-14447
▁exped	-14448
▁fixer	-14449
elihood	-14450
▁endeav	-14451
▁museum	-14452
▁serves	-14453
▁échapp	-14454
▁Results	-14455
▁adresse	-14456
▁carrier	-14457
▁directs	-14458
▁monnaie	-14459
▁volumes	-14460
▁mobility	-14461
▁Questions	-14462
instruction	-14463
▁différends	-14464
▁fabricants	-14465
▁alternatives	-14466
▁facilitating	-14467
▁profondément	-14468
▁spécialement	-14469
ws	-14470
ADN	-14471
asp	-14472
bar	-14473
▁64	-14474
airo	-14475
ooth	-14476
▁18,	-14477
▁APP	-14478
▁CIC	-14479
▁Squ	-14480
▁Tch	-14481
▁Tog	-14482
▁org	-14483
vable	-14484
▁1987	-14485
▁News	-14486
▁mamm	-14487
▁wire	-14488
istent	-14489
vation	-14490
▁Still	-14491
▁begun	-14492
▁label	-14493
arrivée	-14494
exercer	-14495
▁Serbia	-14496
▁cherch	-14497
▁maître	-14498
intégrer	-14499
▁Someone	-14500
▁cheveux	-14501
▁monthly	-14502
▁Consider	-14503
▁District	-14504
▁bataille	-14505
▁integral	-14506
▁thousand	-14507
▁fondement	-14508
▁producing	-14509
▁wonderful	-14510
▁capability	-14511
▁médicament	-14512
▁bénéficient	-14513
▁elimination	-14514
▁reservations	-14515
▁exclusivement	-14516
div	-14517
▁py	-14518
arts	-14519
▁19,	-14520
▁20,	-14521
▁Bul	-14522
▁Far	-14523
Autor	-14524
acted	-14525
ading	-14526
iants	-14527
ighth	-14528
indic	-14529
isses	-14530
rence	-14531
▁cant	-14532
▁quan	-14533
uteurs	-14534
▁barre	-14535
▁horse	-14536
▁meets	-14537
▁owned	-14538
étudier	-14539
▁Poland	-14540
▁player	-14541
▁signes	-14542
▁devoted	-14543
▁radical	-14544
▁renewed	-14545
▁Schedule	-14546
▁conformer	-14547
▁décisionn	-14548
▁développé	-14549
▁naturelle	-14550
▁transfers	-14551
▁viabilité	-14552
▁demandeurs	-14553
▁functional	-14554
▁handicapés	-14555
▁resistance	-14556
▁allegations	-14557
▁précédentes	-14558
▁manufacturers	-14559
uni	-14560
▁CT	-14561
▁câ	-14562
▁PRO	-14563
Leste	-14564
pling	-14565
terre	-14566
▁feas	-14567
▁inég	-14568
▁kick	-14569
▁plaf	-14570
▁semi	-14571
▁visé	-14572
teenth	-14573
tienne	-14574
▁Champ	-14575
▁Haiti	-14576
▁Liban	-14577
▁UNFPA	-14578
▁athle	-14579
▁terra	-14580
▁Refuge	-14581
▁landsc	-14582
▁occurs	-14583
▁Welcome	-14584
▁appeals	-14585
▁avancer	-14586
▁clothes	-14587
▁evident	-14588
infection	-14589
▁artistes	-14590
▁disabled	-14591
▁fréquent	-14592
▁Procedure	-14593
▁extérieur	-14594
▁munitions	-14595
▁passenger	-14596
▁réflexion	-14597
▁complexité	-14598
▁parameters	-14599
▁automatiquement	-14600
do	-14601
3),	-14602
doc	-14603
pay	-14604
WGSC	-14605
▁Joh	-14606
folio	-14607
▁Chez	-14608
▁Rock	-14609
▁Sauf	-14610
▁aged	-14611
▁epid	-14612
▁Class	-14613
▁Young	-14614
▁laugh	-14615
grading	-14616
échelon	-14617
▁Inspec	-14618
▁borrow	-14619
▁bridge	-14620
▁courte	-14621
▁passée	-14622
▁retail	-14623
▁solely	-14624
tainment	-14625
▁Besides	-14626
▁Capital	-14627
▁Culture	-14628
▁dignité	-14629
▁disturb	-14630
▁refuser	-14631
effectuer	-14632
▁Colombia	-14633
▁fragment	-14634
▁modernes	-14635
▁Allemagne	-14636
▁elsewhere	-14637
▁primaires	-14638
▁trimestre	-14639
▁guaranteed	-14640
▁inappropri	-14641
▁phenomenon	-14642
▁fondamentale	-14643
oï	-14644
1),	-14645
ibl	-14646
mat	-14647
▁Na	-14648
alia	-14649
itez	-14650
▁12.	-14651
▁Ali	-14652
▁Cre	-14653
▁Lad	-14654
aijan	-14655
▁Scott	-14656
▁unies	-14657
▁Réseau	-14658
▁Status	-14659
▁paraît	-14660
▁prejud	-14661
▁proved	-14662
▁fichier	-14663
▁genuine	-14664
▁quelcon	-14665
instrument	-14666
▁plaignant	-14667
▁supervise	-14668
▁supprimer	-14669
▁Transports	-14670
▁properties	-14671
▁exceptional	-14672
▁Coordination	-14673
▁expressément	-14674
▁souveraineté	-14675
▁collaborative	-14676
▁multinational	-14677
▁libéralisation	-14678
▁renouvellement	-14679
',	-14680
67	-14681
RI	-14682
SD	-14683
▁..	-14684
▁PO	-14685
anol	-14686
ulte	-14687
▁Kim	-14688
[...]
